{
  "version": "1.0",
  "truncation": null,
  "padding": null,
  "added_tokens": [
    {
      "id": 0,
      "content": "<PAD>",
      "single_word": false,
      "lstrip": false,
      "rstrip": false,
      "normalized": false,
      "special": true
    },
    {
      "id": 1,
      "content": "<UNK>",
      "single_word": false,
      "lstrip": false,
      "rstrip": false,
      "normalized": false,
      "special": true
    },
    {
      "id": 2,
      "content": "<BOS>",
      "single_word": false,
      "lstrip": false,
      "rstrip": false,
      "normalized": false,
      "special": true
    },
    {
      "id": 3,
      "content": "<EOS>",
      "single_word": false,
      "lstrip": false,
      "rstrip": false,
      "normalized": false,
      "special": true
    }
  ],
  "normalizer": null,
  "pre_tokenizer": {
    "type": "Whitespace"
  },
  "post_processor": null,
  "decoder": null,
  "model": {
    "type": "BPE",
    "dropout": null,
    "unk_token": null,
    "continuing_subword_prefix": null,
    "end_of_word_suffix": null,
    "fuse_unk": false,
    "byte_fallback": false,
    "ignore_merges": false,
    "vocab": {
      "<PAD>": 0,
      "<UNK>": 1,
      "<BOS>": 2,
      "<EOS>": 3,
      "!": 4,
      "\"": 5,
      "#": 6,
      "$": 7,
      "%": 8,
      "&": 9,
      "'": 10,
      "(": 11,
      ")": 12,
      "*": 13,
      "+": 14,
      ",": 15,
      "-": 16,
      ".": 17,
      "/": 18,
      "0": 19,
      "1": 20,
      "2": 21,
      "3": 22,
      "4": 23,
      "5": 24,
      "6": 25,
      "7": 26,
      "8": 27,
      "9": 28,
      ":": 29,
      ";": 30,
      "<": 31,
      "=": 32,
      ">": 33,
      "?": 34,
      "@": 35,
      "A": 36,
      "B": 37,
      "C": 38,
      "D": 39,
      "E": 40,
      "F": 41,
      "G": 42,
      "H": 43,
      "I": 44,
      "J": 45,
      "K": 46,
      "L": 47,
      "M": 48,
      "N": 49,
      "O": 50,
      "P": 51,
      "Q": 52,
      "R": 53,
      "S": 54,
      "T": 55,
      "U": 56,
      "V": 57,
      "W": 58,
      "X": 59,
      "Y": 60,
      "Z": 61,
      "[": 62,
      "\\": 63,
      "]": 64,
      "^": 65,
      "_": 66,
      "`": 67,
      "a": 68,
      "b": 69,
      "c": 70,
      "d": 71,
      "e": 72,
      "f": 73,
      "g": 74,
      "h": 75,
      "i": 76,
      "j": 77,
      "k": 78,
      "l": 79,
      "m": 80,
      "n": 81,
      "o": 82,
      "p": 83,
      "q": 84,
      "r": 85,
      "s": 86,
      "t": 87,
      "u": 88,
      "v": 89,
      "w": 90,
      "x": 91,
      "y": 92,
      "z": 93,
      "{": 94,
      "|": 95,
      "}": 96,
      "~": 97,
      "": 98,
      "": 99,
      "": 100,
      "": 101,
      "": 102,
      "¡": 103,
      "¢": 104,
      "£": 105,
      "¤": 106,
      "¥": 107,
      "¦": 108,
      "§": 109,
      "¨": 110,
      "©": 111,
      "ª": 112,
      "«": 113,
      "¬": 114,
      "­": 115,
      "®": 116,
      "¯": 117,
      "°": 118,
      "±": 119,
      "²": 120,
      "³": 121,
      "´": 122,
      "µ": 123,
      "¶": 124,
      "·": 125,
      "¸": 126,
      "¹": 127,
      "º": 128,
      "»": 129,
      "¼": 130,
      "½": 131,
      "¾": 132,
      "¿": 133,
      "À": 134,
      "Á": 135,
      "Â": 136,
      "Ã": 137,
      "Ä": 138,
      "Å": 139,
      "Æ": 140,
      "Ç": 141,
      "È": 142,
      "É": 143,
      "Ê": 144,
      "Ë": 145,
      "Ì": 146,
      "Í": 147,
      "Î": 148,
      "Ï": 149,
      "Ð": 150,
      "Ñ": 151,
      "Ò": 152,
      "Ó": 153,
      "Ô": 154,
      "Õ": 155,
      "Ö": 156,
      "×": 157,
      "Ø": 158,
      "Ù": 159,
      "Ú": 160,
      "Û": 161,
      "Ü": 162,
      "Ý": 163,
      "Þ": 164,
      "ß": 165,
      "à": 166,
      "á": 167,
      "â": 168,
      "ã": 169,
      "ä": 170,
      "å": 171,
      "æ": 172,
      "ç": 173,
      "è": 174,
      "é": 175,
      "ê": 176,
      "ë": 177,
      "ì": 178,
      "í": 179,
      "î": 180,
      "ï": 181,
      "ð": 182,
      "ñ": 183,
      "ò": 184,
      "ó": 185,
      "ô": 186,
      "õ": 187,
      "ö": 188,
      "÷": 189,
      "ø": 190,
      "ù": 191,
      "ú": 192,
      "û": 193,
      "ü": 194,
      "ý": 195,
      "þ": 196,
      "ÿ": 197,
      "Ā": 198,
      "ā": 199,
      "Ă": 200,
      "ă": 201,
      "Ą": 202,
      "ą": 203,
      "Ć": 204,
      "ć": 205,
      "ĉ": 206,
      "Ċ": 207,
      "ċ": 208,
      "Č": 209,
      "č": 210,
      "Ď": 211,
      "ď": 212,
      "Đ": 213,
      "đ": 214,
      "Ē": 215,
      "ē": 216,
      "ĕ": 217,
      "Ė": 218,
      "ė": 219,
      "Ę": 220,
      "ę": 221,
      "Ě": 222,
      "ě": 223,
      "ĝ": 224,
      "Ğ": 225,
      "ğ": 226,
      "Ġ": 227,
      "ġ": 228,
      "Ģ": 229,
      "ģ": 230,
      "Ĥ": 231,
      "ĥ": 232,
      "Ħ": 233,
      "ħ": 234,
      "ĩ": 235,
      "Ī": 236,
      "ī": 237,
      "Ĭ": 238,
      "ĭ": 239,
      "Į": 240,
      "į": 241,
      "İ": 242,
      "ı": 243,
      "ĵ": 244,
      "ķ": 245,
      "Ĺ": 246,
      "ĺ": 247,
      "Ļ": 248,
      "ļ": 249,
      "Ľ": 250,
      "ľ": 251,
      "Ł": 252,
      "ł": 253,
      "Ń": 254,
      "ń": 255,
      "Ņ": 256,
      "ņ": 257,
      "Ň": 258,
      "ň": 259,
      "ŋ": 260,
      "Ō": 261,
      "ō": 262,
      "ŏ": 263,
      "Ő": 264,
      "ő": 265,
      "Œ": 266,
      "œ": 267,
      "ŕ": 268,
      "Ŗ": 269,
      "ŗ": 270,
      "Ř": 271,
      "ř": 272,
      "Ś": 273,
      "ś": 274,
      "Ŝ": 275,
      "Ş": 276,
      "ş": 277,
      "Š": 278,
      "š": 279,
      "Ţ": 280,
      "ţ": 281,
      "Ť": 282,
      "ť": 283,
      "Ŧ": 284,
      "Ũ": 285,
      "ũ": 286,
      "Ū": 287,
      "ū": 288,
      "Ŭ": 289,
      "ŭ": 290,
      "Ů": 291,
      "ů": 292,
      "Ű": 293,
      "ű": 294,
      "Ų": 295,
      "ų": 296,
      "Ŵ": 297,
      "ŵ": 298,
      "ŷ": 299,
      "Ÿ": 300,
      "Ź": 301,
      "ź": 302,
      "Ż": 303,
      "ż": 304,
      "Ž": 305,
      "ž": 306,
      "ſ": 307,
      "ƀ": 308,
      "Ɓ": 309,
      "Ƅ": 310,
      "ƅ": 311,
      "Ɔ": 312,
      "ƌ": 313,
      "ƍ": 314,
      "Ə": 315,
      "Ɛ": 316,
      "ƒ": 317,
      "Ɣ": 318,
      "ƕ": 319,
      "Ɩ": 320,
      "ƙ": 321,
      "ƚ": 322,
      "Ɵ": 323,
      "Ơ": 324,
      "ơ": 325,
      "ƣ": 326,
      "Ƥ": 327,
      "Ʀ": 328,
      "ƨ": 329,
      "Ʃ": 330,
      "ƪ": 331,
      "Ʈ": 332,
      "Ư": 333,
      "ư": 334,
      "Ʋ": 335,
      "ƴ": 336,
      "Ƶ": 337,
      "Ƽ": 338,
      "ǁ": 339,
      "Ǎ": 340,
      "ǎ": 341,
      "Ǐ": 342,
      "ǐ": 343,
      "ǒ": 344,
      "ǔ": 345,
      "ǖ": 346,
      "Ǘ": 347,
      "Ǚ": 348,
      "ǝ": 349,
      "ǡ": 350,
      "ǣ": 351,
      "Ǥ": 352,
      "ǥ": 353,
      "ǧ": 354,
      "Ǫ": 355,
      "ǫ": 356,
      "ǵ": 357,
      "ǹ": 358,
      "Ǻ": 359,
      "ǻ": 360,
      "Ǽ": 361,
      "Ǿ": 362,
      "ȅ": 363,
      "Ȉ": 364,
      "ȉ": 365,
      "Ȍ": 366,
      "ȏ": 367,
      "ș": 368,
      "ț": 369,
      "ȝ": 370,
      "ȥ": 371,
      "ȧ": 372,
      "ȩ": 373,
      "Ȭ": 374,
      "ȯ": 375,
      "ȱ": 376,
      "ȳ": 377,
      "ȴ": 378,
      "ȶ": 379,
      "Ⱥ": 380,
      "Ȼ": 381,
      "ȼ": 382,
      "Ƚ": 383,
      "Ⱦ": 384,
      "Ɂ": 385,
      "Ʌ": 386,
      "Ɇ": 387,
      "ɇ": 388,
      "Ɋ": 389,
      "Ɏ": 390,
      "ɐ": 391,
      "ɑ": 392,
      "ɒ": 393,
      "ɓ": 394,
      "ɔ": 395,
      "ɖ": 396,
      "ɗ": 397,
      "ə": 398,
      "ɚ": 399,
      "ɛ": 400,
      "ɜ": 401,
      "ɝ": 402,
      "ɞ": 403,
      "ɡ": 404,
      "ɢ": 405,
      "ɣ": 406,
      "ɤ": 407,
      "ɥ": 408,
      "ɦ": 409,
      "ɧ": 410,
      "ɨ": 411,
      "ɩ": 412,
      "ɪ": 413,
      "ɫ": 414,
      "ɬ": 415,
      "ɭ": 416,
      "ɯ": 417,
      "ɱ": 418,
      "ɲ": 419,
      "ɳ": 420,
      "ɴ": 421,
      "ɵ": 422,
      "ɶ": 423,
      "ɷ": 424,
      "ɸ": 425,
      "ɹ": 426,
      "ɺ": 427,
      "ɻ": 428,
      "ɽ": 429,
      "ɾ": 430,
      "ɿ": 431,
      "ʀ": 432,
      "ʁ": 433,
      "ʂ": 434,
      "ʃ": 435,
      "ʅ": 436,
      "ʇ": 437,
      "ʉ": 438,
      "ʊ": 439,
      "ʋ": 440,
      "ʌ": 441,
      "ʍ": 442,
      "ʎ": 443,
      "ʏ": 444,
      "ʐ": 445,
      "ʑ": 446,
      "ʒ": 447,
      "ʔ": 448,
      "ʕ": 449,
      "ʖ": 450,
      "ʘ": 451,
      "ʙ": 452,
      "ʜ": 453,
      "ʞ": 454,
      "ʟ": 455,
      "ʢ": 456,
      "ʣ": 457,
      "ʤ": 458,
      "ʥ": 459,
      "ʦ": 460,
      "ʧ": 461,
      "ʪ": 462,
      "ʬ": 463,
      "ʯ": 464,
      "ʰ": 465,
      "ʱ": 466,
      "ʲ": 467,
      "ʳ": 468,
      "ʵ": 469,
      "ʶ": 470,
      "ʷ": 471,
      "ʸ": 472,
      "ʹ": 473,
      "ʺ": 474,
      "ʻ": 475,
      "ʼ": 476,
      "ʽ": 477,
      "ʾ": 478,
      "ʿ": 479,
      "ˀ": 480,
      "˂": 481,
      "˃": 482,
      "˄": 483,
      "ˆ": 484,
      "ˇ": 485,
      "ˈ": 486,
      "ˉ": 487,
      "ˊ": 488,
      "ˋ": 489,
      "ˌ": 490,
      "ˏ": 491,
      "ː": 492,
      "ˑ": 493,
      "˒": 494,
      "˖": 495,
      "˗": 496,
      "˘": 497,
      "˙": 498,
      "˚": 499,
      "˛": 500,
      "˜": 501,
      "˝": 502,
      "ˡ": 503,
      "ˢ": 504,
      "ˣ": 505,
      "ˤ": 506,
      "˥": 507,
      "˦": 508,
      "˧": 509,
      "˩": 510,
      "˲": 511,
      "˶": 512,
      "˾": 513,
      "̀": 514,
      "́": 515,
      "̂": 516,
      "̃": 517,
      "̄": 518,
      "̅": 519,
      "̆": 520,
      "̇": 521,
      "̈": 522,
      "̊": 523,
      "̋": 524,
      "̌": 525,
      "̍": 526,
      "̎": 527,
      "̑": 528,
      "̓": 529,
      "̖": 530,
      "̘": 531,
      "̚": 532,
      "̛": 533,
      "̜": 534,
      "̞": 535,
      "̠": 536,
      "̢": 537,
      "̥": 538,
      "̨": 539,
      "̩": 540,
      "̪": 541,
      "̫": 542,
      "̬": 543,
      "̯": 544,
      "̱": 545,
      "̲": 546,
      "̳": 547,
      "̴": 548,
      "̵": 549,
      "̶": 550,
      "̸": 551,
      "̼": 552,
      "͂": 553,
      "͇": 554,
      "͋": 555,
      "͎": 556,
      "͓": 557,
      "͕": 558,
      "͗": 559,
      "͛": 560,
      "͜": 561,
      "͝": 562,
      "͞": 563,
      "͟": 564,
      "͠": 565,
      "͡": 566,
      "ͣ": 567,
      "ͦ": 568,
      "ͩ": 569,
      "Ͱ": 570,
      "Ϳ": 571,
      "΂": 572,
      "΃": 573,
      "΄": 574,
      "΅": 575,
      "Ά": 576,
      "Έ": 577,
      "Ή": 578,
      "Ί": 579,
      "Ό": 580,
      "Ώ": 581,
      "Α": 582,
      "Β": 583,
      "Γ": 584,
      "Δ": 585,
      "Ε": 586,
      "Ζ": 587,
      "Η": 588,
      "Θ": 589,
      "Ι": 590,
      "Κ": 591,
      "Λ": 592,
      "Μ": 593,
      "Ν": 594,
      "Ξ": 595,
      "Ο": 596,
      "Π": 597,
      "Ρ": 598,
      "Σ": 599,
      "Τ": 600,
      "Υ": 601,
      "Φ": 602,
      "Χ": 603,
      "Ψ": 604,
      "Ω": 605,
      "Ϊ": 606,
      "ά": 607,
      "έ": 608,
      "ή": 609,
      "ί": 610,
      "ΰ": 611,
      "α": 612,
      "β": 613,
      "γ": 614,
      "δ": 615,
      "ε": 616,
      "ζ": 617,
      "η": 618,
      "θ": 619,
      "ι": 620,
      "κ": 621,
      "λ": 622,
      "μ": 623,
      "ν": 624,
      "ξ": 625,
      "ο": 626,
      "π": 627,
      "ρ": 628,
      "ς": 629,
      "σ": 630,
      "τ": 631,
      "υ": 632,
      "φ": 633,
      "χ": 634,
      "ψ": 635,
      "ω": 636,
      "ϊ": 637,
      "ϋ": 638,
      "ό": 639,
      "ύ": 640,
      "ώ": 641,
      "ϑ": 642,
      "ϒ": 643,
      "ϕ": 644,
      "ϖ": 645,
      "Ϙ": 646,
      "ϙ": 647,
      "ϛ": 648,
      "Ϟ": 649,
      "Ϥ": 650,
      "Ϫ": 651,
      "ϫ": 652,
      "ϭ": 653,
      "ϯ": 654,
      "ϰ": 655,
      "ϱ": 656,
      "ϲ": 657,
      "ϴ": 658,
      "ϵ": 659,
      "϶": 660,
      "ϸ": 661,
      "ϼ": 662,
      "Ͻ": 663,
      "Ͼ": 664,
      "Ђ": 665,
      "Ѓ": 666,
      "Є": 667,
      "Ѕ": 668,
      "І": 669,
      "Ј": 670,
      "Њ": 671,
      "Ћ": 672,
      "Ў": 673,
      "А": 674,
      "Б": 675,
      "В": 676,
      "Г": 677,
      "Д": 678,
      "Е": 679,
      "Ж": 680,
      "З": 681,
      "И": 682,
      "Й": 683,
      "К": 684,
      "Л": 685,
      "М": 686,
      "Н": 687,
      "О": 688,
      "П": 689,
      "Р": 690,
      "С": 691,
      "Т": 692,
      "У": 693,
      "Ф": 694,
      "Х": 695,
      "Ц": 696,
      "Ч": 697,
      "Ш": 698,
      "Щ": 699,
      "Ъ": 700,
      "Ы": 701,
      "Ь": 702,
      "Э": 703,
      "Ю": 704,
      "Я": 705,
      "а": 706,
      "б": 707,
      "в": 708,
      "г": 709,
      "д": 710,
      "е": 711,
      "ж": 712,
      "з": 713,
      "и": 714,
      "й": 715,
      "к": 716,
      "л": 717,
      "м": 718,
      "н": 719,
      "о": 720,
      "п": 721,
      "р": 722,
      "с": 723,
      "т": 724,
      "у": 725,
      "ф": 726,
      "х": 727,
      "ц": 728,
      "ч": 729,
      "ш": 730,
      "щ": 731,
      "ъ": 732,
      "ы": 733,
      "ь": 734,
      "э": 735,
      "ю": 736,
      "я": 737,
      "ѐ": 738,
      "ё": 739,
      "ђ": 740,
      "ѓ": 741,
      "є": 742,
      "ѕ": 743,
      "і": 744,
      "ї": 745,
      "ј": 746,
      "љ": 747,
      "њ": 748,
      "ћ": 749,
      "ќ": 750,
      "ў": 751,
      "џ": 752,
      "ѡ": 753,
      "ѥ": 754,
      "Ѧ": 755,
      "Ѫ": 756,
      "ѯ": 757,
      "Ѳ": 758,
      "Ѵ": 759,
      "ѵ": 760,
      "Ѻ": 761,
      "Ѽ": 762,
      "ѿ": 763,
      "҂": 764,
      "҃": 765,
      "҅": 766,
      "ґ": 767,
      "Ғ": 768,
      "ғ": 769,
      "Җ": 770,
      "Ҙ": 771,
      "Қ": 772,
      "қ": 773,
      "ҝ": 774,
      "ҟ": 775,
      "Ҡ": 776,
      "Ң": 777,
      "ң": 778,
      "Ҥ": 779,
      "Ҧ": 780,
      "Ҭ": 781,
      "Ү": 782,
      "ү": 783,
      "Ұ": 784,
      "ұ": 785,
      "Ҳ": 786,
      "ҳ": 787,
      "ҷ": 788,
      "Ҹ": 789,
      "ҹ": 790,
      "Һ": 791,
      "һ": 792,
      "Ӏ": 793,
      "ӂ": 794,
      "Ӄ": 795,
      "ӆ": 796,
      "Ӈ": 797,
      "ӏ": 798,
      "Ӛ": 799,
      "ӛ": 800,
      "Ӝ": 801,
      "Ӟ": 802,
      "ӟ": 803,
      "Ӡ": 804,
      "ӡ": 805,
      "Ӧ": 806,
      "ӧ": 807,
      "Ө": 808,
      "ө": 809,
      "Ӭ": 810,
      "ӭ": 811,
      "Ӯ": 812,
      "ӯ": 813,
      "Ӱ": 814,
      "Ӷ": 815,
      "Ӹ": 816,
      "Ӽ": 817,
      "Ԁ": 818,
      "ԁ": 819,
      "Ԅ": 820,
      "ԉ": 821,
      "Ԋ": 822,
      "ԛ": 823,
      "Ԝ": 824,
      "ԝ": 825,
      "Ԡ": 826,
      "ԧ": 827,
      "Ԩ": 828,
      "Ԭ": 829,
      "Ԯ": 830,
      "ԯ": 831,
      "Ա": 832,
      "Բ": 833,
      "Գ": 834,
      "Ը": 835,
      "Թ": 836,
      "Ժ": 837,
      "Խ": 838,
      "Հ": 839,
      "Մ": 840,
      "Յ": 841,
      "Ն": 842,
      "Ո": 843,
      "Չ": 844,
      "Պ": 845,
      "Ջ": 846,
      "Ռ": 847,
      "Ս": 848,
      "Տ": 849,
      "Ւ": 850,
      "Օ": 851,
      "՝": 852,
      "ա": 853,
      "բ": 854,
      "գ": 855,
      "դ": 856,
      "ե": 857,
      "զ": 858,
      "է": 859,
      "ը": 860,
      "թ": 861,
      "ժ": 862,
      "ի": 863,
      "լ": 864,
      "խ": 865,
      "ծ": 866,
      "կ": 867,
      "հ": 868,
      "ձ": 869,
      "ղ": 870,
      "մ": 871,
      "յ": 872,
      "ն": 873,
      "շ": 874,
      "ո": 875,
      "չ": 876,
      "պ": 877,
      "ռ": 878,
      "ս": 879,
      "վ": 880,
      "տ": 881,
      "ր": 882,
      "ց": 883,
      "ւ": 884,
      "փ": 885,
      "ք": 886,
      "օ": 887,
      "և": 888,
      "։": 889,
      "֔": 890,
      "֕": 891,
      "֜": 892,
      "֟": 893,
      "֤": 894,
      "֥": 895,
      "֫": 896,
      "֮": 897,
      "ְ": 898,
      "ֱ": 899,
      "ֲ": 900,
      "ִ": 901,
      "ֵ": 902,
      "ֶ": 903,
      "ַ": 904,
      "ָ": 905,
      "ֹ": 906,
      "ּ": 907,
      "־": 908,
      "ֿ": 909,
      "ׁ": 910,
      "ׂ": 911,
      "ׇ": 912,
      "א": 913,
      "ב": 914,
      "ג": 915,
      "ד": 916,
      "ה": 917,
      "ו": 918,
      "ז": 919,
      "ח": 920,
      "ט": 921,
      "י": 922,
      "ך": 923,
      "כ": 924,
      "ל": 925,
      "ם": 926,
      "מ": 927,
      "ן": 928,
      "נ": 929,
      "ס": 930,
      "ע": 931,
      "ף": 932,
      "פ": 933,
      "ץ": 934,
      "צ": 935,
      "ק": 936,
      "ר": 937,
      "ש": 938,
      "ת": 939,
      "׬": 940,
      "ײ": 941,
      "״": 942,
      "׸": 943,
      "؀": 944,
      "؂": 945,
      "؇": 946,
      "،": 947,
      "؎": 948,
      "ؐ": 949,
      "ؓ": 950,
      "؛": 951,
      "؜": 952,
      "؞": 953,
      "؟": 954,
      "ء": 955,
      "آ": 956,
      "أ": 957,
      "ؤ": 958,
      "إ": 959,
      "ئ": 960,
      "ا": 961,
      "ب": 962,
      "ة": 963,
      "ت": 964,
      "ث": 965,
      "ج": 966,
      "ح": 967,
      "خ": 968,
      "د": 969,
      "ذ": 970,
      "ر": 971,
      "ز": 972,
      "س": 973,
      "ش": 974,
      "ص": 975,
      "ض": 976,
      "ط": 977,
      "ظ": 978,
      "ع": 979,
      "غ": 980,
      "ـ": 981,
      "ف": 982,
      "ق": 983,
      "ك": 984,
      "ل": 985,
      "م": 986,
      "ن": 987,
      "ه": 988,
      "و": 989,
      "ى": 990,
      "ي": 991,
      "ً": 992,
      "ٌ": 993,
      "ٍ": 994,
      "َ": 995,
      "ُ": 996,
      "ِ": 997,
      "ّ": 998,
      "ْ": 999,
      "ٓ": 1000,
      "ٚ": 1001,
      "ٛ": 1002,
      "ٜ": 1003,
      "ٝ": 1004,
      "٨": 1005,
      "٪": 1006,
      "٫": 1007,
      "ٮ": 1008,
      "ٰ": 1009,
      "ٱ": 1010,
      "ٸ": 1011,
      "ٹ": 1012,
      "ٻ": 1013,
      "پ": 1014,
      "ڃ": 1015,
      "ڄ": 1016,
      "چ": 1017,
      "ڈ": 1018,
      "ڊ": 1019,
      "ڎ": 1020,
      "ڏ": 1021,
      "ڑ": 1022,
      "ڒ": 1023,
      "ژ": 1024,
      "ڙ": 1025,
      "ڢ": 1026,
      "ڦ": 1027,
      "ک": 1028,
      "ڪ": 1029,
      "ګ": 1030,
      "ڭ": 1031,
      "گ": 1032,
      "ڱ": 1033,
      "ں": 1034,
      "ڻ": 1035,
      "ھ": 1036,
      "ہ": 1037,
      "ۅ": 1038,
      "ۉ": 1039,
      "ی": 1040,
      "ې": 1041,
      "ے": 1042,
      "ۓ": 1043,
      "۔": 1044,
      "ۜ": 1045,
      "ۣ": 1046,
      "۪": 1047,
      "ۮ": 1048,
      "۰": 1049,
      "۱": 1050,
      "۲": 1051,
      "۳": 1052,
      "۴": 1053,
      "۵": 1054,
      "۶": 1055,
      "۷": 1056,
      "۸": 1057,
      "۹": 1058,
      "ۺ": 1059,
      "۾": 1060,
      "܆": 1061,
      "܊": 1062,
      "܎": 1063,
      "܏": 1064,
      "ܐ": 1065,
      "ܕ": 1066,
      "ܗ": 1067,
      "ܘ": 1068,
      "ܚ": 1069,
      "ܛ": 1070,
      "ܝ": 1071,
      "ܟ": 1072,
      "ܠ": 1073,
      "ܡ": 1074,
      "ܢ": 1075,
      "ܣ": 1076,
      "ܨ": 1077,
      "ܪ": 1078,
      "ܫ": 1079,
      "ܬ": 1080,
      "ܲ": 1081,
      "ܵ": 1082,
      "ܼ": 1083,
      "݁": 1084,
      "݂": 1085,
      "݊": 1086,
      "݌": 1087,
      "ݎ": 1088,
      "ݏ": 1089,
      "ݘ": 1090,
      "ݚ": 1091,
      "ݜ": 1092,
      "ݞ": 1093,
      "ݩ": 1094,
      "ݪ": 1095,
      "ݫ": 1096,
      "ݮ": 1097,
      "ݵ": 1098,
      "ݹ": 1099,
      "ݾ": 1100,
      "ވ": 1101,
      "ތ": 1102,
      "ޏ": 1103,
      "ޑ": 1104,
      "ޖ": 1105,
      "ޜ": 1106,
      "ަ": 1107,
      "ި": 1108,
      "ީ": 1109,
      "ޫ": 1110,
      "ޭ": 1111,
      "ޱ": 1112,
      "޾": 1113,
      "߁": 1114,
      "ߋ": 1115,
      "ߌ": 1116,
      "ߖ": 1117,
      "ߜ": 1118,
      "ߟ": 1119,
      "ߦ": 1120,
      "߬": 1121,
      "߳": 1122,
      "ߵ": 1123,
      "ࡇ": 1124,
      "ँ": 1125,
      "ं": 1126,
      "ः": 1127,
      "अ": 1128,
      "आ": 1129,
      "इ": 1130,
      "ई": 1131,
      "उ": 1132,
      "ऊ": 1133,
      "ऋ": 1134,
      "ऍ": 1135,
      "ए": 1136,
      "ऐ": 1137,
      "ऑ": 1138,
      "ओ": 1139,
      "औ": 1140,
      "क": 1141,
      "ख": 1142,
      "ग": 1143,
      "घ": 1144,
      "च": 1145,
      "छ": 1146,
      "ज": 1147,
      "झ": 1148,
      "ञ": 1149,
      "ट": 1150,
      "ठ": 1151,
      "ड": 1152,
      "ढ": 1153,
      "ण": 1154,
      "त": 1155,
      "थ": 1156,
      "द": 1157,
      "ध": 1158,
      "न": 1159,
      "प": 1160,
      "फ": 1161,
      "ब": 1162,
      "भ": 1163,
      "म": 1164,
      "य": 1165,
      "र": 1166,
      "ल": 1167,
      "ळ": 1168,
      "व": 1169,
      "श": 1170,
      "ष": 1171,
      "स": 1172,
      "ह": 1173,
      "ऻ": 1174,
      "़": 1175,
      "ा": 1176,
      "ि": 1177,
      "ी": 1178,
      "ु": 1179,
      "ू": 1180,
      "ृ": 1181,
      "ॄ": 1182,
      "ॅ": 1183,
      "े": 1184,
      "ै": 1185,
      "ॉ": 1186,
      "ो": 1187,
      "ौ": 1188,
      "्": 1189,
      "।": 1190,
      "॥": 1191,
      "०": 1192,
      "१": 1193,
      "२": 1194,
      "९": 1195,
      "ॾ": 1196,
      "ং": 1197,
      "ঃ": 1198,
      "অ": 1199,
      "আ": 1200,
      "ই": 1201,
      "উ": 1202,
      "ও": 1203,
      "ক": 1204,
      "খ": 1205,
      "গ": 1206,
      "ঘ": 1207,
      "ঙ": 1208,
      "চ": 1209,
      "ছ": 1210,
      "জ": 1211,
      "ট": 1212,
      "ড": 1213,
      "ণ": 1214,
      "ত": 1215,
      "থ": 1216,
      "দ": 1217,
      "ধ": 1218,
      "ন": 1219,
      "প": 1220,
      "ফ": 1221,
      "ব": 1222,
      "ভ": 1223,
      "ম": 1224,
      "য": 1225,
      "র": 1226,
      "ল": 1227,
      "শ": 1228,
      "স": 1229,
      "হ": 1230,
      "়": 1231,
      "া": 1232,
      "ি": 1233,
      "ী": 1234,
      "ু": 1235,
      "ৃ": 1236,
      "ে": 1237,
      "ো": 1238,
      "্": 1239,
      "০": 1240,
      "১": 1241,
      "২": 1242,
      "৪": 1243,
      "৮": 1244,
      "৯": 1245,
      "৳": 1246,
      "৷": 1247,
      "ਂ": 1248,
      "ਅ": 1249,
      "ਕ": 1250,
      "ਗ": 1251,
      "ਚ": 1252,
      "ਛ": 1253,
      "ਜ": 1254,
      "ਟ": 1255,
      "ਡ": 1256,
      "ਣ": 1257,
      "ਪ": 1258,
      "ਫ": 1259,
      "ਬ": 1260,
      "ਮ": 1261,
      "ਰ": 1262,
      "ਲ": 1263,
      "ਵ": 1264,
      "ਸ": 1265,
      "ਹ": 1266,
      "਼": 1267,
      "ਾ": 1268,
      "ੀ": 1269,
      "ੂ": 1270,
      "ੇ": 1271,
      "ੋ": 1272,
      "੍": 1273,
      "ੰ": 1274,
      "ੱ": 1275,
      "ੴ": 1276,
      "ં": 1277,
      "આ": 1278,
      "ઈ": 1279,
      "ઉ": 1280,
      "એ": 1281,
      "ઓ": 1282,
      "ક": 1283,
      "ખ": 1284,
      "ગ": 1285,
      "ઘ": 1286,
      "ચ": 1287,
      "છ": 1288,
      "જ": 1289,
      "ટ": 1290,
      "ડ": 1291,
      "ણ": 1292,
      "થ": 1293,
      "દ": 1294,
      "ધ": 1295,
      "ન": 1296,
      "પ": 1297,
      "ફ": 1298,
      "બ": 1299,
      "મ": 1300,
      "ય": 1301,
      "ર": 1302,
      "લ": 1303,
      "ળ": 1304,
      "વ": 1305,
      "શ": 1306,
      "સ": 1307,
      "હ": 1308,
      "ા": 1309,
      "િ": 1310,
      "ી": 1311,
      "ુ": 1312,
      "ે": 1313,
      "ો": 1314,
      "્": 1315,
      "૨": 1316,
      "଴": 1317,
      "୧": 1318,
      "୨": 1319,
      "୶": 1320,
      "ஃ": 1321,
      "அ": 1322,
      "ஆ": 1323,
      "இ": 1324,
      "உ": 1325,
      "எ": 1326,
      "ஐ": 1327,
      "க": 1328,
      "ங": 1329,
      "ச": 1330,
      "ஜ": 1331,
      "ட": 1332,
      "ண": 1333,
      "த": 1334,
      "ந": 1335,
      "ன": 1336,
      "ப": 1337,
      "ம": 1338,
      "ய": 1339,
      "ர": 1340,
      "ற": 1341,
      "ல": 1342,
      "ள": 1343,
      "ழ": 1344,
      "வ": 1345,
      "ஸ": 1346,
      "ஹ": 1347,
      "ா": 1348,
      "ி": 1349,
      "ீ": 1350,
      "ு": 1351,
      "ூ": 1352,
      "ெ": 1353,
      "ே": 1354,
      "ை": 1355,
      "ொ": 1356,
      "ோ": 1357,
      "்": 1358,
      "௯": 1359,
      "௵": 1360,
      "ం": 1361,
      "అ": 1362,
      "ఆ": 1363,
      "ఇ": 1364,
      "ఌ": 1365,
      "ఎ": 1366,
      "క": 1367,
      "గ": 1368,
      "చ": 1369,
      "జ": 1370,
      "ఞ": 1371,
      "ట": 1372,
      "డ": 1373,
      "ణ": 1374,
      "త": 1375,
      "థ": 1376,
      "ద": 1377,
      "ధ": 1378,
      "న": 1379,
      "ప": 1380,
      "ఫ": 1381,
      "బ": 1382,
      "భ": 1383,
      "మ": 1384,
      "య": 1385,
      "ర": 1386,
      "ల": 1387,
      "ళ": 1388,
      "వ": 1389,
      "శ": 1390,
      "ష": 1391,
      "స": 1392,
      "హ": 1393,
      "ా": 1394,
      "ి": 1395,
      "ీ": 1396,
      "ు": 1397,
      "ూ": 1398,
      "ృ": 1399,
      "ె": 1400,
      "ే": 1401,
      "ై": 1402,
      "ొ": 1403,
      "ో": 1404,
      "్": 1405,
      "౼": 1406,
      "ಂ": 1407,
      "ಅ": 1408,
      "ಇ": 1409,
      "ಎ": 1410,
      "ಒ": 1411,
      "ಕ": 1412,
      "ಗ": 1413,
      "ಚ": 1414,
      "ಜ": 1415,
      "ಟ": 1416,
      "ಠ": 1417,
      "ಡ": 1418,
      "ಣ": 1419,
      "ತ": 1420,
      "ಥ": 1421,
      "ದ": 1422,
      "ಧ": 1423,
      "ನ": 1424,
      "ಪ": 1425,
      "ಬ": 1426,
      "ಭ": 1427,
      "ಮ": 1428,
      "ಯ": 1429,
      "ರ": 1430,
      "ಲ": 1431,
      "ಳ": 1432,
      "ವ": 1433,
      "ಷ": 1434,
      "ಸ": 1435,
      "ಹ": 1436,
      "ಾ": 1437,
      "ಿ": 1438,
      "ೀ": 1439,
      "ು": 1440,
      "ೂ": 1441,
      "ೆ": 1442,
      "ೇ": 1443,
      "ೈ": 1444,
      "ೊ": 1445,
      "ೋ": 1446,
      "ೌ": 1447,
      "್": 1448,
      "ം": 1449,
      "അ": 1450,
      "ആ": 1451,
      "ഇ": 1452,
      "ക": 1453,
      "ച": 1454,
      "ട": 1455,
      "ഠ": 1456,
      "ഡ": 1457,
      "ണ": 1458,
      "ത": 1459,
      "ധ": 1460,
      "ന": 1461,
      "പ": 1462,
      "ബ": 1463,
      "ഭ": 1464,
      "മ": 1465,
      "യ": 1466,
      "ര": 1467,
      "റ": 1468,
      "ല": 1469,
      "ള": 1470,
      "വ": 1471,
      "ശ": 1472,
      "ഷ": 1473,
      "സ": 1474,
      "ാ": 1475,
      "ി": 1476,
      "ീ": 1477,
      "ു": 1478,
      "ൂ": 1479,
      "െ": 1480,
      "േ": 1481,
      "ൈ": 1482,
      "ൊ": 1483,
      "്": 1484,
      "ൡ": 1485,
      "൦": 1486,
      "൬": 1487,
      "൹": 1488,
      "ർ": 1489,
      "ൽ": 1490,
      "ൾ": 1491,
      "ං": 1492,
      "අ": 1493,
      "ඉ": 1494,
      "ඒ": 1495,
      "ක": 1496,
      "ග": 1497,
      "ඦ": 1498,
      "ට": 1499,
      "ඩ": 1500,
      "ත": 1501,
      "ථ": 1502,
      "ද": 1503,
      "න": 1504,
      "ප": 1505,
      "බ": 1506,
      "ම": 1507,
      "ඹ": 1508,
      "ය": 1509,
      "ර": 1510,
      "ල": 1511,
      "ව": 1512,
      "ශ": 1513,
      "ෂ": 1514,
      "ස": 1515,
      "හ": 1516,
      "ළ": 1517,
      "්": 1518,
      "ා": 1519,
      "ැ": 1520,
      "ි": 1521,
      "ී": 1522,
      "ු": 1523,
      "ෙ": 1524,
      "ේ": 1525,
      "ො": 1526,
      "ෝ": 1527,
      "ก": 1528,
      "ข": 1529,
      "ค": 1530,
      "ฆ": 1531,
      "ง": 1532,
      "จ": 1533,
      "ฉ": 1534,
      "ช": 1535,
      "ซ": 1536,
      "ฌ": 1537,
      "ญ": 1538,
      "ฎ": 1539,
      "ฏ": 1540,
      "ฐ": 1541,
      "ฑ": 1542,
      "ฒ": 1543,
      "ณ": 1544,
      "ด": 1545,
      "ต": 1546,
      "ถ": 1547,
      "ท": 1548,
      "ธ": 1549,
      "น": 1550,
      "บ": 1551,
      "ป": 1552,
      "ผ": 1553,
      "ฝ": 1554,
      "พ": 1555,
      "ฟ": 1556,
      "ภ": 1557,
      "ม": 1558,
      "ย": 1559,
      "ร": 1560,
      "ฤ": 1561,
      "ล": 1562,
      "ว": 1563,
      "ศ": 1564,
      "ษ": 1565,
      "ส": 1566,
      "ห": 1567,
      "อ": 1568,
      "ฮ": 1569,
      "ฯ": 1570,
      "ะ": 1571,
      "ั": 1572,
      "า": 1573,
      "ำ": 1574,
      "ิ": 1575,
      "ี": 1576,
      "ึ": 1577,
      "ื": 1578,
      "ุ": 1579,
      "ู": 1580,
      "ฺ": 1581,
      "฿": 1582,
      "เ": 1583,
      "แ": 1584,
      "โ": 1585,
      "ใ": 1586,
      "ไ": 1587,
      "็": 1588,
      "่": 1589,
      "้": 1590,
      "๊": 1591,
      "์": 1592,
      "ํ": 1593,
      "๏": 1594,
      "๒": 1595,
      "๔": 1596,
      "๕": 1597,
      "๖": 1598,
      "๗": 1599,
      "๙": 1600,
      "ງ": 1601,
      "ດ": 1602,
      "ສ": 1603,
      "ຽ": 1604,
      "້": 1605,
      "ໝ": 1606,
      "་": 1607,
      "།": 1608,
      "༨": 1609,
      "༱": 1610,
      "༼": 1611,
      "༽": 1612,
      "མ": 1613,
      "ཛ": 1614,
      "ོ": 1615,
      "࿦": 1616,
      "က": 1617,
      "ည": 1618,
      "ထ": 1619,
      "န": 1620,
      "ပ": 1621,
      "မ": 1622,
      "သ": 1623,
      "ါ": 1624,
      "ဲ": 1625,
      "်": 1626,
      "ြ": 1627,
      "ှ": 1628,
      "႙": 1629,
      "ა": 1630,
      "ბ": 1631,
      "გ": 1632,
      "დ": 1633,
      "ე": 1634,
      "თ": 1635,
      "ი": 1636,
      "კ": 1637,
      "ლ": 1638,
      "მ": 1639,
      "ნ": 1640,
      "ო": 1641,
      "რ": 1642,
      "ს": 1643,
      "ტ": 1644,
      "უ": 1645,
      "ფ": 1646,
      "ქ": 1647,
      "ღ": 1648,
      "ჩ": 1649,
      "ც": 1650,
      "ხ": 1651,
      "ჯ": 1652,
      "ᅠ": 1653,
      "ᆪ": 1654,
      "ል": 1655,
      "ሕ": 1656,
      "መ": 1657,
      "ሪ": 1658,
      "ስ": 1659,
      "ቀ": 1660,
      "በ": 1661,
      "ቢ": 1662,
      "ባ": 1663,
      "ተ": 1664,
      "ነ": 1665,
      "ን": 1666,
      "ኖ": 1667,
      "ኞ": 1668,
      "አ": 1669,
      "ኮ": 1670,
      "ዓ": 1671,
      "ዬ": 1672,
      "ይ": 1673,
      "ፋ": 1674,
      "᎐": 1675,
      "Ꭱ": 1676,
      "Ꭲ": 1677,
      "Ꭶ": 1678,
      "Ꭺ": 1679,
      "Ꮋ": 1680,
      "Ꮟ": 1681,
      "Ꮤ": 1682,
      "Ꮮ": 1683,
      "ᐈ": 1684,
      "ᐎ": 1685,
      "ᐓ": 1686,
      "ᐧ": 1687,
      "ᐱ": 1688,
      "ᑏ": 1689,
      "ᒾ": 1690,
      "ᓂ": 1691,
      "ᔜ": 1692,
      "ᕡ": 1693,
      "ᕢ": 1694,
      "ᕣ": 1695,
      "ᕤ": 1696,
      "ᕥ": 1697,
      "ᘖ": 1698,
      "ᚦ": 1699,
      "ᚱ": 1700,
      "ᚴ": 1701,
      "ᛅ": 1702,
      "ᛒ": 1703,
      "ក": 1704,
      "ង": 1705,
      "ឈ": 1706,
      "ញ": 1707,
      "ត": 1708,
      "ថ": 1709,
      "ធ": 1710,
      "ន": 1711,
      "ប": 1712,
      "ផ": 1713,
      "ព": 1714,
      "ម": 1715,
      "ល": 1716,
      "ហ": 1717,
      "ឥ": 1718,
      "ា": 1719,
      "ូ": 1720,
      "ួ": 1721,
      "េ": 1722,
      "ោ": 1723,
      "ំ": 1724,
      "ះ": 1725,
      "់": 1726,
      "្": 1727,
      "ᠠ": 1728,
      "ᠡ": 1729,
      "ᠢ": 1730,
      "ᠤ": 1731,
      "ᠦ": 1732,
      "ᠨ": 1733,
      "ᠪ": 1734,
      "ᠬ": 1735,
      "ᠭ": 1736,
      "ᠮ": 1737,
      "ᠰ": 1738,
      "ᠲ": 1739,
      "ᠳ": 1740,
      "ᠷ": 1741,
      "᣺": 1742,
      "ᥙ": 1743,
      "᧐": 1744,
      "ᮏ": 1745,
      "ᮝ": 1746,
      "ᴀ": 1747,
      "ᴄ": 1748,
      "ᴅ": 1749,
      "ᴇ": 1750,
      "ᴉ": 1751,
      "ᴊ": 1752,
      "ᴋ": 1753,
      "ᴍ": 1754,
      "ᴏ": 1755,
      "ᴘ": 1756,
      "ᴛ": 1757,
      "ᴜ": 1758,
      "ᴠ": 1759,
      "ᴡ": 1760,
      "ᴥ": 1761,
      "ᴹ": 1762,
      "ᴺ": 1763,
      "ᴼ": 1764,
      "ᵃ": 1765,
      "ᵇ": 1766,
      "ᵉ": 1767,
      "ᵏ": 1768,
      "ᵐ": 1769,
      "ᵒ": 1770,
      "ᵗ": 1771,
      "ᵢ": 1772,
      "ᵣ": 1773,
      "ᵧ": 1774,
      "ᵻ": 1775,
      "ᵿ": 1776,
      "ᶿ": 1777,
      "᷄": 1778,
      "᷅": 1779,
      "Ḍ": 1780,
      "ḍ": 1781,
      "ḏ": 1782,
      "ḗ": 1783,
      "Ḥ": 1784,
      "ḥ": 1785,
      "Ḫ": 1786,
      "ḫ": 1787,
      "ḱ": 1788,
      "Ḳ": 1789,
      "ḳ": 1790,
      "Ḵ": 1791,
      "ḵ": 1792,
      "ḷ": 1793,
      "ḹ": 1794,
      "ḻ": 1795,
      "ḿ": 1796,
      "Ṁ": 1797,
      "ṁ": 1798,
      "ṃ": 1799,
      "ṅ": 1800,
      "ṇ": 1801,
      "Ṉ": 1802,
      "ṉ": 1803,
      "ṓ": 1804,
      "Ṛ": 1805,
      "ṛ": 1806,
      "ṝ": 1807,
      "ṟ": 1808,
      "ṡ": 1809,
      "Ṣ": 1810,
      "ṣ": 1811,
      "Ṭ": 1812,
      "ṭ": 1813,
      "ṯ": 1814,
      "ẋ": 1815,
      "ẑ": 1816,
      "ẓ": 1817,
      "ẖ": 1818,
      "Ạ": 1819,
      "ạ": 1820,
      "ả": 1821,
      "Ấ": 1822,
      "ấ": 1823,
      "ầ": 1824,
      "ẩ": 1825,
      "ẫ": 1826,
      "Ậ": 1827,
      "ậ": 1828,
      "ắ": 1829,
      "Ằ": 1830,
      "ằ": 1831,
      "ẵ": 1832,
      "ặ": 1833,
      "ẹ": 1834,
      "ẻ": 1835,
      "Ẽ": 1836,
      "ẽ": 1837,
      "Ế": 1838,
      "ế": 1839,
      "Ề": 1840,
      "ề": 1841,
      "Ể": 1842,
      "ể": 1843,
      "ễ": 1844,
      "Ệ": 1845,
      "ệ": 1846,
      "ỉ": 1847,
      "Ị": 1848,
      "ị": 1849,
      "Ọ": 1850,
      "ọ": 1851,
      "ỏ": 1852,
      "Ố": 1853,
      "ố": 1854,
      "Ồ": 1855,
      "ồ": 1856,
      "Ổ": 1857,
      "ổ": 1858,
      "ỗ": 1859,
      "Ộ": 1860,
      "ộ": 1861,
      "Ớ": 1862,
      "ớ": 1863,
      "Ờ": 1864,
      "ờ": 1865,
      "ở": 1866,
      "Ợ": 1867,
      "ợ": 1868,
      "ụ": 1869,
      "ủ": 1870,
      "Ứ": 1871,
      "ứ": 1872,
      "Ừ": 1873,
      "ừ": 1874,
      "ử": 1875,
      "ữ": 1876,
      "ự": 1877,
      "ỳ": 1878,
      "ỷ": 1879,
      "ỹ": 1880,
      "ἀ": 1881,
      "ἁ": 1882,
      "ἄ": 1883,
      "ἅ": 1884,
      "Ἀ": 1885,
      "Ἁ": 1886,
      "Ἄ": 1887,
      "ἐ": 1888,
      "ἑ": 1889,
      "ἔ": 1890,
      "ἕ": 1891,
      "Ἐ": 1892,
      "Ἑ": 1893,
      "Ἕ": 1894,
      "ἠ": 1895,
      "ἡ": 1896,
      "ἤ": 1897,
      "ἦ": 1898,
      "ἰ": 1899,
      "ἱ": 1900,
      "ἴ": 1901,
      "ἶ": 1902,
      "ἷ": 1903,
      "Ἰ": 1904,
      "ὀ": 1905,
      "ὁ": 1906,
      "ὄ": 1907,
      "ὅ": 1908,
      "ὐ": 1909,
      "ὑ": 1910,
      "ὖ": 1911,
      "ὗ": 1912,
      "ὠ": 1913,
      "Ὡ": 1914,
      "ὰ": 1915,
      "ὲ": 1916,
      "ὴ": 1917,
      "ὶ": 1918,
      "ὸ": 1919,
      "ὺ": 1920,
      "ᾂ": 1921,
      "ᾣ": 1922,
      "ᾮ": 1923,
      "ᾰ": 1924,
      "ᾶ": 1925,
      "ῃ": 1926,
      "ῆ": 1927,
      "ῇ": 1928,
      "ῑ": 1929,
      "ῖ": 1930,
      "῟": 1931,
      "ῡ": 1932,
      "ῥ": 1933,
      "ῦ": 1934,
      "Ῠ": 1935,
      "ῳ": 1936,
      "ῶ": 1937,
      "ῷ": 1938,
      "ῼ": 1939,
      "​": 1940,
      "‌": 1941,
      "‍": 1942,
      "‎": 1943,
      "‏": 1944,
      "‐": 1945,
      "‑": 1946,
      "‒": 1947,
      "–": 1948,
      "—": 1949,
      "―": 1950,
      "‖": 1951,
      "‗": 1952,
      "‘": 1953,
      "’": 1954,
      "‚": 1955,
      "“": 1956,
      "”": 1957,
      "„": 1958,
      "‟": 1959,
      "†": 1960,
      "‡": 1961,
      "•": 1962,
      "‣": 1963,
      "․": 1964,
      "…": 1965,
      "‧": 1966,
      "‪": 1967,
      "‫": 1968,
      "‬": 1969,
      "‭": 1970,
      "‰": 1971,
      "′": 1972,
      "″": 1973,
      "‹": 1974,
      "›": 1975,
      "※": 1976,
      "‼": 1977,
      "‽": 1978,
      "‾": 1979,
      "‿": 1980,
      "⁁": 1981,
      "⁂": 1982,
      "⁃": 1983,
      "⁄": 1984,
      "⁉": 1985,
      "⁎": 1986,
      "⁒": 1987,
      "⁕": 1988,
      "⁗": 1989,
      "⁚": 1990,
      "⁠": 1991,
      "⁡": 1992,
      "⁢": 1993,
      "⁣": 1994,
      "⁤": 1995,
      "⁦": 1996,
      "⁩": 1997,
      "⁰": 1998,
      "ⁱ": 1999,
      "⁴": 2000,
      "⁵": 2001,
      "⁶": 2002,
      "⁷": 2003,
      "⁸": 2004,
      "⁹": 2005,
      "⁺": 2006,
      "⁻": 2007,
      "⁽": 2008,
      "⁾": 2009,
      "ⁿ": 2010,
      "₀": 2011,
      "₁": 2012,
      "₂": 2013,
      "₃": 2014,
      "₄": 2015,
      "₅": 2016,
      "₆": 2017,
      "₇": 2018,
      "₈": 2019,
      "₉": 2020,
      "₊": 2021,
      "₋": 2022,
      "₎": 2023,
      "ₐ": 2024,
      "ₑ": 2025,
      "ₓ": 2026,
      "ₕ": 2027,
      "ₖ": 2028,
      "ₗ": 2029,
      "ₘ": 2030,
      "ₙ": 2031,
      "ₛ": 2032,
      "ₜ": 2033,
      "₡": 2034,
      "₤": 2035,
      "₥": 2036,
      "₦": 2037,
      "₨": 2038,
      "₩": 2039,
      "₪": 2040,
      "₫": 2041,
      "€": 2042,
      "₭": 2043,
      "₱": 2044,
      "₳": 2045,
      "₵": 2046,
      "₹": 2047,
      "₿": 2048,
      "⃗": 2049,
      "⃢": 2050,
      "⃣": 2051,
      "ℂ": 2052,
      "℃": 2053,
      "℅": 2054,
      "℉": 2055,
      "ℋ": 2056,
      "ℎ": 2057,
      "ℏ": 2058,
      "ℑ": 2059,
      "ℓ": 2060,
      "ℕ": 2061,
      "№": 2062,
      "℘": 2063,
      "ℙ": 2064,
      "ℚ": 2065,
      "ℜ": 2066,
      "ℝ": 2067,
      "℠": 2068,
      "™": 2069,
      "ℤ": 2070,
      "℧": 2071,
      "ℬ": 2072,
      "℮": 2073,
      "ℰ": 2074,
      "ℵ": 2075,
      "ℹ": 2076,
      "ⅆ": 2077,
      "ⅇ": 2078,
      "ⅈ": 2079,
      "ⅉ": 2080,
      "⅋": 2081,
      "⅓": 2082,
      "⅔": 2083,
      "⅕": 2084,
      "⅗": 2085,
      "⅙": 2086,
      "⅚": 2087,
      "⅛": 2088,
      "⅜": 2089,
      "⅝": 2090,
      "⅞": 2091,
      "⅟": 2092,
      "Ⅰ": 2093,
      "Ⅱ": 2094,
      "Ⅲ": 2095,
      "Ⅳ": 2096,
      "Ⅴ": 2097,
      "Ⅵ": 2098,
      "Ⅶ": 2099,
      "Ⅷ": 2100,
      "Ⅸ": 2101,
      "Ⅹ": 2102,
      "Ⅾ": 2103,
      "ⅰ": 2104,
      "ⅱ": 2105,
      "ⅲ": 2106,
      "ⅼ": 2107,
      "ⅽ": 2108,
      "ⅾ": 2109,
      "←": 2110,
      "↑": 2111,
      "→": 2112,
      "↓": 2113,
      "↔": 2114,
      "↕": 2115,
      "↖": 2116,
      "↗": 2117,
      "↘": 2118,
      "↙": 2119,
      "↠": 2120,
      "↦": 2121,
      "↩": 2122,
      "↬": 2123,
      "↳": 2124,
      "↵": 2125,
      "↷": 2126,
      "↹": 2127,
      "↺": 2128,
      "↻": 2129,
      "⇄": 2130,
      "⇅": 2131,
      "⇆": 2132,
      "⇋": 2133,
      "⇌": 2134,
      "⇐": 2135,
      "⇑": 2136,
      "⇒": 2137,
      "⇓": 2138,
      "⇔": 2139,
      "⇠": 2140,
      "⇢": 2141,
      "⇥": 2142,
      "⇧": 2143,
      "⇨": 2144,
      "⇩": 2145,
      "⇪": 2146,
      "⇭": 2147,
      "⇾": 2148,
      "∀": 2149,
      "∂": 2150,
      "∃": 2151,
      "∅": 2152,
      "∆": 2153,
      "∇": 2154,
      "∈": 2155,
      "∉": 2156,
      "∊": 2157,
      "∋": 2158,
      "∎": 2159,
      "∏": 2160,
      "∑": 2161,
      "−": 2162,
      "∓": 2163,
      "∕": 2164,
      "∖": 2165,
      "∗": 2166,
      "∘": 2167,
      "∙": 2168,
      "√": 2169,
      "∛": 2170,
      "∝": 2171,
      "∞": 2172,
      "∠": 2173,
      "∣": 2174,
      "∥": 2175,
      "∧": 2176,
      "∨": 2177,
      "∩": 2178,
      "∪": 2179,
      "∫": 2180,
      "∬": 2181,
      "∮": 2182,
      "∯": 2183,
      "∴": 2184,
      "∵": 2185,
      "∶": 2186,
      "∷": 2187,
      "∼": 2188,
      "≃": 2189,
      "≅": 2190,
      "≈": 2191,
      "≉": 2192,
      "≐": 2193,
      "≔": 2194,
      "≙": 2195,
      "≜": 2196,
      "≝": 2197,
      "≟": 2198,
      "≠": 2199,
      "≡": 2200,
      "≤": 2201,
      "≥": 2202,
      "≦": 2203,
      "≧": 2204,
      "≪": 2205,
      "≫": 2206,
      "≮": 2207,
      "≯": 2208,
      "≲": 2209,
      "≳": 2210,
      "≷": 2211,
      "≺": 2212,
      "≻": 2213,
      "≼": 2214,
      "≽": 2215,
      "⊂": 2216,
      "⊃": 2217,
      "⊄": 2218,
      "⊆": 2219,
      "⊇": 2220,
      "⊈": 2221,
      "⊉": 2222,
      "⊒": 2223,
      "⊓": 2224,
      "⊔": 2225,
      "⊕": 2226,
      "⊖": 2227,
      "⊗": 2228,
      "⊙": 2229,
      "⊛": 2230,
      "⊞": 2231,
      "⊢": 2232,
      "⊤": 2233,
      "⊥": 2234,
      "⊧": 2235,
      "⊨": 2236,
      "⊩": 2237,
      "⊬": 2238,
      "⊭": 2239,
      "⊿": 2240,
      "⋀": 2241,
      "⋂": 2242,
      "⋄": 2243,
      "⋅": 2244,
      "⋆": 2245,
      "⋇": 2246,
      "⋎": 2247,
      "⋙": 2248,
      "⋠": 2249,
      "⋮": 2250,
      "⋯": 2251,
      "⋱": 2252,
      "⌁": 2253,
      "⌄": 2254,
      "⌈": 2255,
      "⌉": 2256,
      "⌊": 2257,
      "⌋": 2258,
      "⌒": 2259,
      "⌘": 2260,
      "⌚": 2261,
      "⌛": 2262,
      "⌠": 2263,
      "⌡": 2264,
      "⌥": 2265,
      "⌨": 2266,
      "〈": 2267,
      "〉": 2268,
      "⌬": 2269,
      "⌽": 2270,
      "⍝": 2271,
      "⍨": 2272,
      "⍴": 2273,
      "⍵": 2274,
      "⍺": 2275,
      "⎋": 2276,
      "⎓": 2277,
      "⎕": 2278,
      "⎛": 2279,
      "⎜": 2280,
      "⎝": 2281,
      "⎞": 2282,
      "⎟": 2283,
      "⎠": 2284,
      "⎡": 2285,
      "⎢": 2286,
      "⎣": 2287,
      "⎤": 2288,
      "⎥": 2289,
      "⎦": 2290,
      "⎧": 2291,
      "⎨": 2292,
      "⎩": 2293,
      "⎪": 2294,
      "⎫": 2295,
      "⎬": 2296,
      "⎭": 2297,
      "⎯": 2298,
      "⏐": 2299,
      "⏞": 2300,
      "⏟": 2301,
      "⏤": 2302,
      "⏩": 2303,
      "⏬": 2304,
      "⏭": 2305,
      "⏯": 2306,
      "⏰": 2307,
      "⏱": 2308,
      "⏲": 2309,
      "⏳": 2310,
      "⏹": 2311,
      "⏺": 2312,
      "␓": 2313,
      "␣": 2314,
      "␤": 2315,
      "␮": 2316,
      "␯": 2317,
      "␲": 2318,
      "␳": 2319,
      "␸": 2320,
      "①": 2321,
      "②": 2322,
      "③": 2323,
      "④": 2324,
      "⑤": 2325,
      "⑥": 2326,
      "⑦": 2327,
      "⑧": 2328,
      "⑨": 2329,
      "⑩": 2330,
      "⑪": 2331,
      "⑴": 2332,
      "⑵": 2333,
      "⑶": 2334,
      "⑷": 2335,
      "⑸": 2336,
      "⑹": 2337,
      "⑺": 2338,
      "⑻": 2339,
      "⑼": 2340,
      "Ⓒ": 2341,
      "Ⓔ": 2342,
      "Ⓜ": 2343,
      "Ⓞ": 2344,
      "Ⓟ": 2345,
      "Ⓡ": 2346,
      "Ⓩ": 2347,
      "ⓒ": 2348,
      "ⓘ": 2349,
      "⓶": 2350,
      "⓷": 2351,
      "─": 2352,
      "━": 2353,
      "│": 2354,
      "┅": 2355,
      "┊": 2356,
      "┌": 2357,
      "┍": 2358,
      "┐": 2359,
      "└": 2360,
      "┘": 2361,
      "├": 2362,
      "┤": 2363,
      "┬": 2364,
      "┴": 2365,
      "┻": 2366,
      "═": 2367,
      "║": 2368,
      "╒": 2369,
      "╔": 2370,
      "╗": 2371,
      "╝": 2372,
      "╠": 2373,
      "╡": 2374,
      "╣": 2375,
      "╤": 2376,
      "╨": 2377,
      "╩": 2378,
      "╬": 2379,
      "╯": 2380,
      "╰": 2381,
      "╳": 2382,
      "▀": 2383,
      "▁": 2384,
      "█": 2385,
      "░": 2386,
      "▒": 2387,
      "▓": 2388,
      "■": 2389,
      "□": 2390,
      "▢": 2391,
      "▪": 2392,
      "▫": 2393,
      "▬": 2394,
      "▭": 2395,
      "▯": 2396,
      "▲": 2397,
      "△": 2398,
      "▶": 2399,
      "▷": 2400,
      "▸": 2401,
      "►": 2402,
      "▻": 2403,
      "▼": 2404,
      "▽": 2405,
      "▾": 2406,
      "▿": 2407,
      "◀": 2408,
      "◄": 2409,
      "◆": 2410,
      "◇": 2411,
      "◈": 2412,
      "◉": 2413,
      "◊": 2414,
      "○": 2415,
      "◎": 2416,
      "●": 2417,
      "◑": 2418,
      "◕": 2419,
      "◗": 2420,
      "◜": 2421,
      "◝": 2422,
      "◤": 2423,
      "◦": 2424,
      "◯": 2425,
      "◻": 2426,
      "◼": 2427,
      "◾": 2428,
      "☀": 2429,
      "☁": 2430,
      "☂": 2431,
      "☃": 2432,
      "☄": 2433,
      "★": 2434,
      "☆": 2435,
      "☈": 2436,
      "☉": 2437,
      "☎": 2438,
      "☏": 2439,
      "☐": 2440,
      "☑": 2441,
      "☔": 2442,
      "☕": 2443,
      "☘": 2444,
      "☚": 2445,
      "☛": 2446,
      "☜": 2447,
      "☝": 2448,
      "☞": 2449,
      "☠": 2450,
      "☢": 2451,
      "☯": 2452,
      "☰": 2453,
      "☴": 2454,
      "☹": 2455,
      "☺": 2456,
      "☻": 2457,
      "☼": 2458,
      "☾": 2459,
      "♀": 2460,
      "♂": 2461,
      "♄": 2462,
      "♈": 2463,
      "♉": 2464,
      "♊": 2465,
      "♋": 2466,
      "♌": 2467,
      "♍": 2468,
      "♏": 2469,
      "♐": 2470,
      "♑": 2471,
      "♒": 2472,
      "♕": 2473,
      "♠": 2474,
      "♡": 2475,
      "♢": 2476,
      "♣": 2477,
      "♤": 2478,
      "♥": 2479,
      "♦": 2480,
      "♧": 2481,
      "♨": 2482,
      "♪": 2483,
      "♫": 2484,
      "♬": 2485,
      "♭": 2486,
      "♯": 2487,
      "♺": 2488,
      "♻": 2489,
      "♾": 2490,
      "⚐": 2491,
      "⚑": 2492,
      "⚒": 2493,
      "⚓": 2494,
      "⚔": 2495,
      "⚕": 2496,
      "⚖": 2497,
      "⚗": 2498,
      "⚘": 2499,
      "⚙": 2500,
      "⚛": 2501,
      "⚠": 2502,
      "⚡": 2503,
      "⚪": 2504,
      "⚫": 2505,
      "⚬": 2506,
      "⚽": 2507,
      "⚾": 2508,
      "⛈": 2509,
      "⛑": 2510,
      "⛓": 2511,
      "⛔": 2512,
      "⛠": 2513,
      "⛮": 2514,
      "⛰": 2515,
      "⛳": 2516,
      "⛷": 2517,
      "⛽": 2518,
      "✂": 2519,
      "✅": 2520,
      "✈": 2521,
      "✉": 2522,
      "✊": 2523,
      "✋": 2524,
      "✌": 2525,
      "✍": 2526,
      "✎": 2527,
      "✏": 2528,
      "✓": 2529,
      "✔": 2530,
      "✕": 2531,
      "✖": 2532,
      "✗": 2533,
      "✘": 2534,
      "✚": 2535,
      "✛": 2536,
      "✝": 2537,
      "✠": 2538,
      "✢": 2539,
      "✥": 2540,
      "✦": 2541,
      "✧": 2542,
      "✨": 2543,
      "✩": 2544,
      "✪": 2545,
      "✮": 2546,
      "✯": 2547,
      "✰": 2548,
      "✱": 2549,
      "✳": 2550,
      "✴": 2551,
      "✵": 2552,
      "✶": 2553,
      "✻": 2554,
      "✽": 2555,
      "✿": 2556,
      "❀": 2557,
      "❂": 2558,
      "❄": 2559,
      "❇": 2560,
      "❈": 2561,
      "❉": 2562,
      "❊": 2563,
      "❌": 2564,
      "❍": 2565,
      "❎": 2566,
      "❏": 2567,
      "❑": 2568,
      "❒": 2569,
      "❓": 2570,
      "❔": 2571,
      "❕": 2572,
      "❖": 2573,
      "❗": 2574,
      "❙": 2575,
      "❚": 2576,
      "❛": 2577,
      "❜": 2578,
      "❝": 2579,
      "❞": 2580,
      "❡": 2581,
      "❣": 2582,
      "❤": 2583,
      "❦": 2584,
      "❧": 2585,
      "❮": 2586,
      "❯": 2587,
      "❱": 2588,
      "❶": 2589,
      "➁": 2590,
      "➔": 2591,
      "➕": 2592,
      "➖": 2593,
      "➗": 2594,
      "➚": 2595,
      "➜": 2596,
      "➝": 2597,
      "➞": 2598,
      "➠": 2599,
      "➡": 2600,
      "➢": 2601,
      "➣": 2602,
      "➤": 2603,
      "➥": 2604,
      "➦": 2605,
      "➧": 2606,
      "➨": 2607,
      "➫": 2608,
      "➭": 2609,
      "➰": 2610,
      "➲": 2611,
      "➼": 2612,
      "⟋": 2613,
      "⟨": 2614,
      "⟩": 2615,
      "⟶": 2616,
      "⟹": 2617,
      "⟺": 2618,
      "⠀": 2619,
      "⠓": 2620,
      "⢠": 2621,
      "⤵": 2622,
      "⤷": 2623,
      "⤻": 2624,
      "⦁": 2625,
      "⦟": 2626,
      "⦿": 2627,
      "⧖": 2628,
      "⨉": 2629,
      "⨯": 2630,
      "⩽": 2631,
      "⩾": 2632,
      "⪕": 2633,
      "⫹": 2634,
      "⫺": 2635,
      "⫻": 2636,
      "⫽": 2637,
      "⫾": 2638,
      "⬁": 2639,
      "⬃": 2640,
      "⬅": 2641,
      "⬆": 2642,
      "⬇": 2643,
      "⬍": 2644,
      "⬎": 2645,
      "⬘": 2646,
      "⬛": 2647,
      "⬜": 2648,
      "⭀": 2649,
      "⭐": 2650,
      "⮙": 2651,
      "⮚": 2652,
      "Ɐ": 2653,
      "Ɒ": 2654,
      "ⱱ": 2655,
      "ⱼ": 2656,
      "ⲁ": 2657,
      "ⲇ": 2658,
      "ⲉ": 2659,
      "ⲑ": 2660,
      "ⲓ": 2661,
      "ⲟ": 2662,
      "ⲣ": 2663,
      "ⲥ": 2664,
      "ⲫ": 2665,
      "ⲱ": 2666,
      "ⳕ": 2667,
      "ⴚ": 2668,
      "⸜": 2669,
      "⺈": 2670,
      "⺤": 2671,
      "⾙": 2672,
      "、": 2673,
      "。": 2674,
      "〃": 2675,
      "々": 2676,
      "〇": 2677,
      "〈": 2678,
      "〉": 2679,
      "《": 2680,
      "》": 2681,
      "「": 2682,
      "」": 2683,
      "『": 2684,
      "』": 2685,
      "【": 2686,
      "】": 2687,
      "〒": 2688,
      "〔": 2689,
      "〕": 2690,
      "〖": 2691,
      "〗": 2692,
      "〙": 2693,
      "〚": 2694,
      "〛": 2695,
      "〜": 2696,
      "〝": 2697,
      "ぁ": 2698,
      "あ": 2699,
      "い": 2700,
      "う": 2701,
      "え": 2702,
      "お": 2703,
      "か": 2704,
      "が": 2705,
      "き": 2706,
      "ぎ": 2707,
      "く": 2708,
      "ぐ": 2709,
      "け": 2710,
      "げ": 2711,
      "こ": 2712,
      "ご": 2713,
      "さ": 2714,
      "ざ": 2715,
      "し": 2716,
      "じ": 2717,
      "す": 2718,
      "ず": 2719,
      "せ": 2720,
      "ぜ": 2721,
      "そ": 2722,
      "ぞ": 2723,
      "た": 2724,
      "だ": 2725,
      "ち": 2726,
      "っ": 2727,
      "つ": 2728,
      "づ": 2729,
      "て": 2730,
      "で": 2731,
      "と": 2732,
      "ど": 2733,
      "な": 2734,
      "に": 2735,
      "ぬ": 2736,
      "ね": 2737,
      "の": 2738,
      "は": 2739,
      "ば": 2740,
      "ぱ": 2741,
      "ひ": 2742,
      "び": 2743,
      "ぴ": 2744,
      "ふ": 2745,
      "ぶ": 2746,
      "ぷ": 2747,
      "へ": 2748,
      "べ": 2749,
      "ぺ": 2750,
      "ほ": 2751,
      "ぼ": 2752,
      "ぽ": 2753,
      "ま": 2754,
      "み": 2755,
      "む": 2756,
      "め": 2757,
      "も": 2758,
      "ゃ": 2759,
      "や": 2760,
      "ゅ": 2761,
      "ゆ": 2762,
      "ょ": 2763,
      "よ": 2764,
      "ら": 2765,
      "り": 2766,
      "る": 2767,
      "れ": 2768,
      "ろ": 2769,
      "わ": 2770,
      "を": 2771,
      "ん": 2772,
      "゚": 2773,
      "゜": 2774,
      "ゞ": 2775,
      "ァ": 2776,
      "ア": 2777,
      "ィ": 2778,
      "イ": 2779,
      "ウ": 2780,
      "ェ": 2781,
      "エ": 2782,
      "ォ": 2783,
      "オ": 2784,
      "カ": 2785,
      "ガ": 2786,
      "キ": 2787,
      "ギ": 2788,
      "ク": 2789,
      "グ": 2790,
      "ケ": 2791,
      "ゲ": 2792,
      "コ": 2793,
      "ゴ": 2794,
      "サ": 2795,
      "ザ": 2796,
      "シ": 2797,
      "ジ": 2798,
      "ス": 2799,
      "ズ": 2800,
      "セ": 2801,
      "ゼ": 2802,
      "ソ": 2803,
      "ゾ": 2804,
      "タ": 2805,
      "ダ": 2806,
      "チ": 2807,
      "ッ": 2808,
      "ツ": 2809,
      "ヅ": 2810,
      "テ": 2811,
      "デ": 2812,
      "ト": 2813,
      "ド": 2814,
      "ナ": 2815,
      "ニ": 2816,
      "ヌ": 2817,
      "ネ": 2818,
      "ノ": 2819,
      "ハ": 2820,
      "バ": 2821,
      "パ": 2822,
      "ヒ": 2823,
      "ビ": 2824,
      "ピ": 2825,
      "フ": 2826,
      "ブ": 2827,
      "プ": 2828,
      "ヘ": 2829,
      "ベ": 2830,
      "ペ": 2831,
      "ホ": 2832,
      "ボ": 2833,
      "ポ": 2834,
      "マ": 2835,
      "ミ": 2836,
      "ム": 2837,
      "メ": 2838,
      "モ": 2839,
      "ャ": 2840,
      "ヤ": 2841,
      "ュ": 2842,
      "ユ": 2843,
      "ョ": 2844,
      "ヨ": 2845,
      "ラ": 2846,
      "リ": 2847,
      "ル": 2848,
      "レ": 2849,
      "ロ": 2850,
      "ヮ": 2851,
      "ワ": 2852,
      "ン": 2853,
      "ヴ": 2854,
      "ヶ": 2855,
      "・": 2856,
      "ー": 2857,
      "ヽ": 2858,
      "ㄌ": 2859,
      "ㄖ": 2860,
      "ㄧ": 2861,
      "ㄱ": 2862,
      "ㄷ": 2863,
      "ㅋ": 2864,
      "ㅎ": 2865,
      "ㅠ": 2866,
      "ㅤ": 2867,
      "ㆆ": 2868,
      "ㆍ": 2869,
      "㈥": 2870,
      "㎚": 2871,
      "㎛": 2872,
      "㎜": 2873,
      "㎝": 2874,
      "㎡": 2875,
      "㎤": 2876,
      "㐄": 2877,
      "㐅": 2878,
      "㙍": 2879,
      "㣇": 2880,
      "㮪": 2881,
      "㱻": 2882,
      "㴠": 2883,
      "㶥": 2884,
      "䀀": 2885,
      "䀓": 2886,
      "䘑": 2887,
      "䫣": 2888,
      "䵧": 2889,
      "一": 2890,
      "丁": 2891,
      "七": 2892,
      "丄": 2893,
      "万": 2894,
      "三": 2895,
      "上": 2896,
      "下": 2897,
      "不": 2898,
      "与": 2899,
      "丑": 2900,
      "专": 2901,
      "且": 2902,
      "世": 2903,
      "丙": 2904,
      "业": 2905,
      "东": 2906,
      "丝": 2907,
      "両": 2908,
      "丢": 2909,
      "两": 2910,
      "严": 2911,
      "並": 2912,
      "丨": 2913,
      "个": 2914,
      "中": 2915,
      "丰": 2916,
      "串": 2917,
      "临": 2918,
      "丶": 2919,
      "丸": 2920,
      "丹": 2921,
      "为": 2922,
      "主": 2923,
      "举": 2924,
      "丿": 2925,
      "乃": 2926,
      "久": 2927,
      "么": 2928,
      "义": 2929,
      "之": 2930,
      "乌": 2931,
      "乎": 2932,
      "乐": 2933,
      "乗": 2934,
      "乙": 2935,
      "九": 2936,
      "也": 2937,
      "习": 2938,
      "乡": 2939,
      "书": 2940,
      "买": 2941,
      "乱": 2942,
      "乳": 2943,
      "乾": 2944,
      "亅": 2945,
      "了": 2946,
      "予": 2947,
      "争": 2948,
      "事": 2949,
      "二": 2950,
      "于": 2951,
      "云": 2952,
      "互": 2953,
      "五": 2954,
      "井": 2955,
      "亚": 2956,
      "些": 2957,
      "亜": 2958,
      "亞": 2959,
      "亡": 2960,
      "交": 2961,
      "亥": 2962,
      "亦": 2963,
      "产": 2964,
      "亨": 2965,
      "享": 2966,
      "京": 2967,
      "亮": 2968,
      "亲": 2969,
      "人": 2970,
      "亻": 2971,
      "亿": 2972,
      "什": 2973,
      "仁": 2974,
      "仅": 2975,
      "今": 2976,
      "介": 2977,
      "仍": 2978,
      "从": 2979,
      "仏": 2980,
      "仔": 2981,
      "仕": 2982,
      "他": 2983,
      "付": 2984,
      "仙": 2985,
      "代": 2986,
      "令": 2987,
      "以": 2988,
      "仪": 2989,
      "们": 2990,
      "仮": 2991,
      "仰": 2992,
      "仲": 2993,
      "件": 2994,
      "价": 2995,
      "任": 2996,
      "份": 2997,
      "仿": 2998,
      "企": 2999,
      "伊": 3000,
      "伍": 3001,
      "伎": 3002,
      "伏": 3003,
      "伐": 3004,
      "休": 3005,
      "众": 3006,
      "优": 3007,
      "伙": 3008,
      "会": 3009,
      "伝": 3010,
      "伞": 3011,
      "伟": 3012,
      "传": 3013,
      "伤": 3014,
      "伦": 3015,
      "伪": 3016,
      "伯": 3017,
      "估": 3018,
      "伴": 3019,
      "伸": 3020,
      "似": 3021,
      "伽": 3022,
      "但": 3023,
      "位": 3024,
      "低": 3025,
      "住": 3026,
      "佐": 3027,
      "体": 3028,
      "佔": 3029,
      "何": 3030,
      "佗": 3031,
      "余": 3032,
      "佛": 3033,
      "作": 3034,
      "你": 3035,
      "佣": 3036,
      "佩": 3037,
      "佳": 3038,
      "使": 3039,
      "來": 3040,
      "例": 3041,
      "侚": 3042,
      "供": 3043,
      "依": 3044,
      "価": 3045,
      "侧": 3046,
      "侬": 3047,
      "侯": 3048,
      "侵": 3049,
      "侶": 3050,
      "便": 3051,
      "係": 3052,
      "促": 3053,
      "俊": 3054,
      "保": 3055,
      "信": 3056,
      "修": 3057,
      "俯": 3058,
      "俱": 3059,
      "俿": 3060,
      "倄": 3061,
      "個": 3062,
      "倍": 3063,
      "們": 3064,
      "倒": 3065,
      "候": 3066,
      "借": 3067,
      "倣": 3068,
      "値": 3069,
      "倶": 3070,
      "值": 3071,
      "倾": 3072,
      "假": 3073,
      "偉": 3074,
      "偏": 3075,
      "做": 3076,
      "停": 3077,
      "健": 3078,
      "側": 3079,
      "偶": 3080,
      "偽": 3081,
      "傅": 3082,
      "傍": 3083,
      "傘": 3084,
      "備": 3085,
      "储": 3086,
      "催": 3087,
      "傳": 3088,
      "傾": 3089,
      "僅": 3090,
      "働": 3091,
      "像": 3092,
      "僕": 3093,
      "價": 3094,
      "儀": 3095,
      "儚": 3096,
      "優": 3097,
      "儲": 3098,
      "儼": 3099,
      "儿": 3100,
      "允": 3101,
      "元": 3102,
      "充": 3103,
      "兆": 3104,
      "先": 3105,
      "光": 3106,
      "克": 3107,
      "免": 3108,
      "兎": 3109,
      "児": 3110,
      "兒": 3111,
      "党": 3112,
      "入": 3113,
      "內": 3114,
      "全": 3115,
      "兩": 3116,
      "八": 3117,
      "公": 3118,
      "六": 3119,
      "兰": 3120,
      "共": 3121,
      "兲": 3122,
      "关": 3123,
      "兴": 3124,
      "兵": 3125,
      "其": 3126,
      "具": 3127,
      "典": 3128,
      "养": 3129,
      "兼": 3130,
      "内": 3131,
      "円": 3132,
      "册": 3133,
      "再": 3134,
      "冒": 3135,
      "冗": 3136,
      "写": 3137,
      "军": 3138,
      "农": 3139,
      "冠": 3140,
      "冥": 3141,
      "冬": 3142,
      "冯": 3143,
      "冰": 3144,
      "冱": 3145,
      "冲": 3146,
      "决": 3147,
      "况": 3148,
      "冷": 3149,
      "冻": 3150,
      "准": 3151,
      "凉": 3152,
      "凋": 3153,
      "凍": 3154,
      "减": 3155,
      "凑": 3156,
      "凝": 3157,
      "几": 3158,
      "凡": 3159,
      "凤": 3160,
      "処": 3161,
      "凱": 3162,
      "凹": 3163,
      "出": 3164,
      "击": 3165,
      "函": 3166,
      "刀": 3167,
      "刁": 3168,
      "刃": 3169,
      "分": 3170,
      "切": 3171,
      "刑": 3172,
      "划": 3173,
      "列": 3174,
      "刘": 3175,
      "则": 3176,
      "刚": 3177,
      "创": 3178,
      "初": 3179,
      "删": 3180,
      "判": 3181,
      "別": 3182,
      "刨": 3183,
      "利": 3184,
      "别": 3185,
      "刮": 3186,
      "到": 3187,
      "制": 3188,
      "刷": 3189,
      "券": 3190,
      "刻": 3191,
      "剂": 3192,
      "則": 3193,
      "削": 3194,
      "前": 3195,
      "剑": 3196,
      "剛": 3197,
      "剣": 3198,
      "剤": 3199,
      "剥": 3200,
      "剧": 3201,
      "剩": 3202,
      "剪": 3203,
      "副": 3204,
      "剰": 3205,
      "割": 3206,
      "創": 3207,
      "劃": 3208,
      "劍": 3209,
      "力": 3210,
      "办": 3211,
      "功": 3212,
      "加": 3213,
      "务": 3214,
      "劣": 3215,
      "动": 3216,
      "助": 3217,
      "努": 3218,
      "劳": 3219,
      "効": 3220,
      "势": 3221,
      "勁": 3222,
      "勇": 3223,
      "勉": 3224,
      "勒": 3225,
      "動": 3226,
      "務": 3227,
      "勝": 3228,
      "勢": 3229,
      "勧": 3230,
      "勳": 3231,
      "勵": 3232,
      "勹": 3233,
      "勻": 3234,
      "勿": 3235,
      "包": 3236,
      "化": 3237,
      "北": 3238,
      "匠": 3239,
      "匹": 3240,
      "区": 3241,
      "医": 3242,
      "匿": 3243,
      "區": 3244,
      "十": 3245,
      "千": 3246,
      "升": 3247,
      "午": 3248,
      "半": 3249,
      "华": 3250,
      "协": 3251,
      "卒": 3252,
      "卓": 3253,
      "協": 3254,
      "单": 3255,
      "南": 3256,
      "単": 3257,
      "博": 3258,
      "卜": 3259,
      "占": 3260,
      "卡": 3261,
      "卦": 3262,
      "卧": 3263,
      "卩": 3264,
      "卫": 3265,
      "卯": 3266,
      "印": 3267,
      "危": 3268,
      "即": 3269,
      "却": 3270,
      "卵": 3271,
      "卷": 3272,
      "厂": 3273,
      "厅": 3274,
      "历": 3275,
      "厉": 3276,
      "压": 3277,
      "厕": 3278,
      "厘": 3279,
      "厚": 3280,
      "原": 3281,
      "厦": 3282,
      "厨": 3283,
      "厳": 3284,
      "去": 3285,
      "县": 3286,
      "参": 3287,
      "參": 3288,
      "又": 3289,
      "叉": 3290,
      "及": 3291,
      "友": 3292,
      "双": 3293,
      "反": 3294,
      "収": 3295,
      "发": 3296,
      "取": 3297,
      "受": 3298,
      "变": 3299,
      "叛": 3300,
      "口": 3301,
      "古": 3302,
      "句": 3303,
      "另": 3304,
      "叩": 3305,
      "只": 3306,
      "叫": 3307,
      "召": 3308,
      "可": 3309,
      "台": 3310,
      "史": 3311,
      "右": 3312,
      "叶": 3313,
      "号": 3314,
      "司": 3315,
      "叼": 3316,
      "吁": 3317,
      "吃": 3318,
      "各": 3319,
      "合": 3320,
      "吉": 3321,
      "同": 3322,
      "名": 3323,
      "后": 3324,
      "向": 3325,
      "吕": 3326,
      "吗": 3327,
      "君": 3328,
      "吞": 3329,
      "吠": 3330,
      "否": 3331,
      "含": 3332,
      "听": 3333,
      "吭": 3334,
      "启": 3335,
      "吴": 3336,
      "吸": 3337,
      "呀": 3338,
      "呈": 3339,
      "告": 3340,
      "员": 3341,
      "呢": 3342,
      "周": 3343,
      "味": 3344,
      "呼": 3345,
      "命": 3346,
      "和": 3347,
      "咖": 3348,
      "咨": 3349,
      "哀": 3350,
      "品": 3351,
      "哈": 3352,
      "哉": 3353,
      "响": 3354,
      "員": 3355,
      "哥": 3356,
      "哪": 3357,
      "哭": 3358,
      "唄": 3359,
      "唇": 3360,
      "唐": 3361,
      "售": 3362,
      "唯": 3363,
      "唱": 3364,
      "商": 3365,
      "啊": 3366,
      "問": 3367,
      "啟": 3368,
      "啡": 3369,
      "喂": 3370,
      "善": 3371,
      "喜": 3372,
      "喝": 3373,
      "喬": 3374,
      "單": 3375,
      "営": 3376,
      "喻": 3377,
      "嗅": 3378,
      "嗎": 3379,
      "嗣": 3380,
      "嘉": 3381,
      "嘔": 3382,
      "嘗": 3383,
      "嘿": 3384,
      "噌": 3385,
      "噛": 3386,
      "器": 3387,
      "噴": 3388,
      "囃": 3389,
      "囘": 3390,
      "四": 3391,
      "回": 3392,
      "因": 3393,
      "团": 3394,
      "団": 3395,
      "园": 3396,
      "困": 3397,
      "囲": 3398,
      "図": 3399,
      "围": 3400,
      "固": 3401,
      "国": 3402,
      "图": 3403,
      "圃": 3404,
      "圆": 3405,
      "圈": 3406,
      "國": 3407,
      "圍": 3408,
      "園": 3409,
      "圖": 3410,
      "團": 3411,
      "土": 3412,
      "圣": 3413,
      "圧": 3414,
      "在": 3415,
      "地": 3416,
      "场": 3417,
      "圾": 3418,
      "址": 3419,
      "坂": 3420,
      "均": 3421,
      "坊": 3422,
      "坏": 3423,
      "坐": 3424,
      "块": 3425,
      "坚": 3426,
      "坛": 3427,
      "坠": 3428,
      "坡": 3429,
      "坤": 3430,
      "坦": 3431,
      "垂": 3432,
      "垃": 3433,
      "型": 3434,
      "垒": 3435,
      "垢": 3436,
      "垣": 3437,
      "埋": 3438,
      "城": 3439,
      "域": 3440,
      "執": 3441,
      "培": 3442,
      "基": 3443,
      "堂": 3444,
      "堅": 3445,
      "堆": 3446,
      "堡": 3447,
      "報": 3448,
      "場": 3449,
      "堵": 3450,
      "堺": 3451,
      "塊": 3452,
      "塑": 3453,
      "塔": 3454,
      "塗": 3455,
      "塞": 3456,
      "塩": 3457,
      "填": 3458,
      "塵": 3459,
      "境": 3460,
      "墓": 3461,
      "増": 3462,
      "增": 3463,
      "壁": 3464,
      "壓": 3465,
      "壙": 3466,
      "壞": 3467,
      "壤": 3468,
      "士": 3469,
      "壮": 3470,
      "声": 3471,
      "売": 3472,
      "壶": 3473,
      "壺": 3474,
      "壽": 3475,
      "处": 3476,
      "备": 3477,
      "変": 3478,
      "复": 3479,
      "夏": 3480,
      "夒": 3481,
      "夕": 3482,
      "外": 3483,
      "多": 3484,
      "夜": 3485,
      "够": 3486,
      "夠": 3487,
      "夢": 3488,
      "大": 3489,
      "天": 3490,
      "太": 3491,
      "夫": 3492,
      "夯": 3493,
      "失": 3494,
      "头": 3495,
      "奇": 3496,
      "奈": 3497,
      "奋": 3498,
      "奏": 3499,
      "奔": 3500,
      "奖": 3501,
      "套": 3502,
      "奠": 3503,
      "奥": 3504,
      "女": 3505,
      "奶": 3506,
      "她": 3507,
      "好": 3508,
      "如": 3509,
      "妇": 3510,
      "妈": 3511,
      "妖": 3512,
      "妙": 3513,
      "妝": 3514,
      "妨": 3515,
      "妹": 3516,
      "妻": 3517,
      "姆": 3518,
      "始": 3519,
      "姐": 3520,
      "姓": 3521,
      "委": 3522,
      "姚": 3523,
      "姥": 3524,
      "姨": 3525,
      "姿": 3526,
      "威": 3527,
      "娘": 3528,
      "娛": 3529,
      "娱": 3530,
      "婧": 3531,
      "媒": 3532,
      "媛": 3533,
      "嬌": 3534,
      "子": 3535,
      "孔": 3536,
      "孕": 3537,
      "字": 3538,
      "存": 3539,
      "孙": 3540,
      "孝": 3541,
      "孟": 3542,
      "季": 3543,
      "孤": 3544,
      "学": 3545,
      "孩": 3546,
      "孪": 3547,
      "學": 3548,
      "孿": 3549,
      "宁": 3550,
      "它": 3551,
      "宇": 3552,
      "守": 3553,
      "安": 3554,
      "宋": 3555,
      "完": 3556,
      "宏": 3557,
      "宗": 3558,
      "官": 3559,
      "定": 3560,
      "宜": 3561,
      "宝": 3562,
      "实": 3563,
      "実": 3564,
      "审": 3565,
      "客": 3566,
      "宣": 3567,
      "室": 3568,
      "宫": 3569,
      "宮": 3570,
      "害": 3571,
      "宴": 3572,
      "宵": 3573,
      "家": 3574,
      "容": 3575,
      "宽": 3576,
      "宿": 3577,
      "寂": 3578,
      "寄": 3579,
      "寅": 3580,
      "密": 3581,
      "富": 3582,
      "寒": 3583,
      "察": 3584,
      "實": 3585,
      "寧": 3586,
      "審": 3587,
      "寫": 3588,
      "寵": 3589,
      "寶": 3590,
      "寸": 3591,
      "对": 3592,
      "寺": 3593,
      "寻": 3594,
      "导": 3595,
      "対": 3596,
      "寿": 3597,
      "封": 3598,
      "専": 3599,
      "射": 3600,
      "将": 3601,
      "將": 3602,
      "專": 3603,
      "尋": 3604,
      "對": 3605,
      "導": 3606,
      "小": 3607,
      "少": 3608,
      "尓": 3609,
      "尔": 3610,
      "尖": 3611,
      "尘": 3612,
      "尚": 3613,
      "尝": 3614,
      "尤": 3615,
      "尩": 3616,
      "就": 3617,
      "尺": 3618,
      "尼": 3619,
      "尽": 3620,
      "尾": 3621,
      "尿": 3622,
      "局": 3623,
      "层": 3624,
      "居": 3625,
      "屈": 3626,
      "届": 3627,
      "屋": 3628,
      "屏": 3629,
      "展": 3630,
      "属": 3631,
      "層": 3632,
      "屬": 3633,
      "山": 3634,
      "屿": 3635,
      "岁": 3636,
      "岐": 3637,
      "岑": 3638,
      "岛": 3639,
      "岡": 3640,
      "岩": 3641,
      "岸": 3642,
      "峡": 3643,
      "峣": 3644,
      "峯": 3645,
      "峰": 3646,
      "島": 3647,
      "崇": 3648,
      "崎": 3649,
      "崔": 3650,
      "崩": 3651,
      "嵁": 3652,
      "嵌": 3653,
      "嶺": 3654,
      "嶼": 3655,
      "巅": 3656,
      "川": 3657,
      "州": 3658,
      "工": 3659,
      "左": 3660,
      "巧": 3661,
      "巨": 3662,
      "差": 3663,
      "己": 3664,
      "已": 3665,
      "巳": 3666,
      "巴": 3667,
      "巻": 3668,
      "币": 3669,
      "市": 3670,
      "布": 3671,
      "师": 3672,
      "希": 3673,
      "帝": 3674,
      "带": 3675,
      "帧": 3676,
      "師": 3677,
      "帮": 3678,
      "帯": 3679,
      "帶": 3680,
      "常": 3681,
      "幅": 3682,
      "幕": 3683,
      "幣": 3684,
      "幫": 3685,
      "干": 3686,
      "平": 3687,
      "年": 3688,
      "并": 3689,
      "幸": 3690,
      "幼": 3691,
      "幾": 3692,
      "广": 3693,
      "広": 3694,
      "庆": 3695,
      "床": 3696,
      "序": 3697,
      "庐": 3698,
      "庒": 3699,
      "库": 3700,
      "应": 3701,
      "底": 3702,
      "店": 3703,
      "府": 3704,
      "庞": 3705,
      "度": 3706,
      "座": 3707,
      "庫": 3708,
      "庭": 3709,
      "康": 3710,
      "廃": 3711,
      "廉": 3712,
      "廢": 3713,
      "廣": 3714,
      "廳": 3715,
      "延": 3716,
      "建": 3717,
      "开": 3718,
      "异": 3719,
      "弃": 3720,
      "弊": 3721,
      "式": 3722,
      "弓": 3723,
      "引": 3724,
      "弟": 3725,
      "张": 3726,
      "弥": 3727,
      "弧": 3728,
      "弩": 3729,
      "弱": 3730,
      "張": 3731,
      "強": 3732,
      "弹": 3733,
      "强": 3734,
      "弾": 3735,
      "彈": 3736,
      "归": 3737,
      "当": 3738,
      "录": 3739,
      "彡": 3740,
      "形": 3741,
      "彦": 3742,
      "彩": 3743,
      "彬": 3744,
      "影": 3745,
      "彳": 3746,
      "彷": 3747,
      "役": 3748,
      "彻": 3749,
      "彼": 3750,
      "彿": 3751,
      "往": 3752,
      "征": 3753,
      "径": 3754,
      "待": 3755,
      "很": 3756,
      "律": 3757,
      "後": 3758,
      "徐": 3759,
      "徑": 3760,
      "徒": 3761,
      "従": 3762,
      "得": 3763,
      "從": 3764,
      "御": 3765,
      "復": 3766,
      "循": 3767,
      "微": 3768,
      "徴": 3769,
      "德": 3770,
      "心": 3771,
      "必": 3772,
      "忆": 3773,
      "忍": 3774,
      "志": 3775,
      "忘": 3776,
      "応": 3777,
      "忠": 3778,
      "快": 3779,
      "念": 3780,
      "忽": 3781,
      "怀": 3782,
      "态": 3783,
      "怎": 3784,
      "怕": 3785,
      "怜": 3786,
      "思": 3787,
      "急": 3788,
      "性": 3789,
      "怪": 3790,
      "总": 3791,
      "恆": 3792,
      "恋": 3793,
      "恐": 3794,
      "恒": 3795,
      "恢": 3796,
      "恥": 3797,
      "恭": 3798,
      "息": 3799,
      "恰": 3800,
      "恵": 3801,
      "恼": 3802,
      "悉": 3803,
      "悚": 3804,
      "悟": 3805,
      "患": 3806,
      "您": 3807,
      "悪": 3808,
      "悲": 3809,
      "悼": 3810,
      "情": 3811,
      "惊": 3812,
      "惑": 3813,
      "惠": 3814,
      "惡": 3815,
      "惣": 3816,
      "惯": 3817,
      "惰": 3818,
      "想": 3819,
      "愈": 3820,
      "意": 3821,
      "愛": 3822,
      "感": 3823,
      "愿": 3824,
      "慈": 3825,
      "態": 3826,
      "慎": 3827,
      "慢": 3828,
      "慣": 3829,
      "慧": 3830,
      "慮": 3831,
      "慰": 3832,
      "慶": 3833,
      "憶": 3834,
      "憾": 3835,
      "應": 3836,
      "懷": 3837,
      "懸": 3838,
      "懼": 3839,
      "戈": 3840,
      "戌": 3841,
      "戏": 3842,
      "成": 3843,
      "我": 3844,
      "戒": 3845,
      "或": 3846,
      "战": 3847,
      "戟": 3848,
      "戦": 3849,
      "截": 3850,
      "戰": 3851,
      "戲": 3852,
      "戶": 3853,
      "户": 3854,
      "戸": 3855,
      "戻": 3856,
      "房": 3857,
      "所": 3858,
      "扁": 3859,
      "扇": 3860,
      "手": 3861,
      "才": 3862,
      "扎": 3863,
      "打": 3864,
      "払": 3865,
      "托": 3866,
      "扣": 3867,
      "执": 3868,
      "扩": 3869,
      "扫": 3870,
      "扬": 3871,
      "扮": 3872,
      "扰": 3873,
      "扱": 3874,
      "扶": 3875,
      "批": 3876,
      "找": 3877,
      "承": 3878,
      "技": 3879,
      "抄": 3880,
      "把": 3881,
      "抑": 3882,
      "抓": 3883,
      "投": 3884,
      "抗": 3885,
      "折": 3886,
      "抛": 3887,
      "抜": 3888,
      "択": 3889,
      "护": 3890,
      "报": 3891,
      "披": 3892,
      "抵": 3893,
      "押": 3894,
      "抽": 3895,
      "担": 3896,
      "拆": 3897,
      "拇": 3898,
      "拉": 3899,
      "拋": 3900,
      "拌": 3901,
      "拍": 3902,
      "拒": 3903,
      "拓": 3904,
      "拘": 3905,
      "招": 3906,
      "拜": 3907,
      "拟": 3908,
      "拡": 3909,
      "择": 3910,
      "括": 3911,
      "拭": 3912,
      "拯": 3913,
      "拳": 3914,
      "拶": 3915,
      "拷": 3916,
      "拾": 3917,
      "拿": 3918,
      "持": 3919,
      "指": 3920,
      "按": 3921,
      "挑": 3922,
      "挙": 3923,
      "挟": 3924,
      "挥": 3925,
      "挨": 3926,
      "挪": 3927,
      "振": 3928,
      "挽": 3929,
      "捉": 3930,
      "捕": 3931,
      "损": 3932,
      "换": 3933,
      "捨": 3934,
      "据": 3935,
      "捷": 3936,
      "捺": 3937,
      "掃": 3938,
      "授": 3939,
      "掉": 3940,
      "掌": 3941,
      "掏": 3942,
      "排": 3943,
      "掖": 3944,
      "掛": 3945,
      "採": 3946,
      "探": 3947,
      "接": 3948,
      "控": 3949,
      "推": 3950,
      "措": 3951,
      "掳": 3952,
      "掴": 3953,
      "掺": 3954,
      "掾": 3955,
      "描": 3956,
      "提": 3957,
      "插": 3958,
      "揚": 3959,
      "換": 3960,
      "握": 3961,
      "揭": 3962,
      "揮": 3963,
      "援": 3964,
      "損": 3965,
      "搏": 3966,
      "搜": 3967,
      "搞": 3968,
      "搬": 3969,
      "携": 3970,
      "摂": 3971,
      "摄": 3972,
      "摆": 3973,
      "摘": 3974,
      "摩": 3975,
      "摺": 3976,
      "撃": 3977,
      "撉": 3978,
      "播": 3979,
      "撮": 3980,
      "撰": 3981,
      "撹": 3982,
      "擁": 3983,
      "擅": 3984,
      "擇": 3985,
      "擊": 3986,
      "擋": 3987,
      "操": 3988,
      "據": 3989,
      "擞": 3990,
      "擦": 3991,
      "擬": 3992,
      "擴": 3993,
      "攀": 3994,
      "攜": 3995,
      "支": 3996,
      "攵": 3997,
      "收": 3998,
      "改": 3999,
      "攻": 4000,
      "放": 4001,
      "政": 4002,
      "故": 4003,
      "效": 4004,
      "敎": 4005,
      "敏": 4006,
      "救": 4007,
      "敗": 4008,
      "教": 4009,
      "散": 4010,
      "数": 4011,
      "敲": 4012,
      "整": 4013,
      "敷": 4014,
      "數": 4015,
      "文": 4016,
      "斑": 4017,
      "斗": 4018,
      "料": 4019,
      "斜": 4020,
      "斤": 4021,
      "斥": 4022,
      "斧": 4023,
      "斩": 4024,
      "断": 4025,
      "斯": 4026,
      "新": 4027,
      "斷": 4028,
      "方": 4029,
      "於": 4030,
      "施": 4031,
      "旁": 4032,
      "旅": 4033,
      "旋": 4034,
      "族": 4035,
      "无": 4036,
      "既": 4037,
      "日": 4038,
      "旦": 4039,
      "旧": 4040,
      "旨": 4041,
      "早": 4042,
      "旭": 4043,
      "时": 4044,
      "昆": 4045,
      "昇": 4046,
      "昌": 4047,
      "明": 4048,
      "易": 4049,
      "昔": 4050,
      "星": 4051,
      "映": 4052,
      "春": 4053,
      "昨": 4054,
      "昭": 4055,
      "是": 4056,
      "昼": 4057,
      "显": 4058,
      "時": 4059,
      "晕": 4060,
      "晗": 4061,
      "晚": 4062,
      "晨": 4063,
      "晩": 4064,
      "普": 4065,
      "景": 4066,
      "晴": 4067,
      "晶": 4068,
      "智": 4069,
      "暂": 4070,
      "暈": 4071,
      "暗": 4072,
      "暢": 4073,
      "暫": 4074,
      "暴": 4075,
      "曜": 4076,
      "曰": 4077,
      "曲": 4078,
      "更": 4079,
      "書": 4080,
      "曼": 4081,
      "曾": 4082,
      "替": 4083,
      "最": 4084,
      "會": 4085,
      "月": 4086,
      "有": 4087,
      "朋": 4088,
      "服": 4089,
      "朗": 4090,
      "望": 4091,
      "朝": 4092,
      "期": 4093,
      "木": 4094,
      "未": 4095,
      "末": 4096,
      "本": 4097,
      "术": 4098,
      "朱": 4099,
      "机": 4100,
      "杀": 4101,
      "杂": 4102,
      "权": 4103,
      "杆": 4104,
      "杉": 4105,
      "李": 4106,
      "材": 4107,
      "村": 4108,
      "杜": 4109,
      "束": 4110,
      "条": 4111,
      "来": 4112,
      "杨": 4113,
      "杭": 4114,
      "杯": 4115,
      "杰": 4116,
      "東": 4117,
      "松": 4118,
      "板": 4119,
      "极": 4120,
      "构": 4121,
      "析": 4122,
      "枕": 4123,
      "林": 4124,
      "枚": 4125,
      "果": 4126,
      "枠": 4127,
      "枢": 4128,
      "枪": 4129,
      "枫": 4130,
      "枯": 4131,
      "架": 4132,
      "柄": 4133,
      "柏": 4134,
      "某": 4135,
      "染": 4136,
      "柔": 4137,
      "柚": 4138,
      "查": 4139,
      "柱": 4140,
      "柴": 4141,
      "査": 4142,
      "柿": 4143,
      "标": 4144,
      "栏": 4145,
      "树": 4146,
      "校": 4147,
      "栩": 4148,
      "株": 4149,
      "样": 4150,
      "核": 4151,
      "根": 4152,
      "格": 4153,
      "栽": 4154,
      "桁": 4155,
      "框": 4156,
      "案": 4157,
      "桌": 4158,
      "桑": 4159,
      "档": 4160,
      "桨": 4161,
      "桫": 4162,
      "桶": 4163,
      "梅": 4164,
      "條": 4165,
      "梦": 4166,
      "梯": 4167,
      "械": 4168,
      "检": 4169,
      "棄": 4170,
      "棋": 4171,
      "棒": 4172,
      "棠": 4173,
      "森": 4174,
      "棵": 4175,
      "椅": 4176,
      "植": 4177,
      "椒": 4178,
      "検": 4179,
      "椿": 4180,
      "楊": 4181,
      "楚": 4182,
      "業": 4183,
      "極": 4184,
      "楷": 4185,
      "楼": 4186,
      "楽": 4187,
      "概": 4188,
      "榮": 4189,
      "構": 4190,
      "様": 4191,
      "槨": 4192,
      "槳": 4193,
      "槽": 4194,
      "樂": 4195,
      "樋": 4196,
      "標": 4197,
      "樞": 4198,
      "模": 4199,
      "樣": 4200,
      "権": 4201,
      "横": 4202,
      "樸": 4203,
      "樹": 4204,
      "樽": 4205,
      "橆": 4206,
      "橋": 4207,
      "機": 4208,
      "橹": 4209,
      "檇": 4210,
      "檒": 4211,
      "檔": 4212,
      "檙": 4213,
      "檚": 4214,
      "檛": 4215,
      "檝": 4216,
      "檢": 4217,
      "櫓": 4218,
      "欄": 4219,
      "欠": 4220,
      "次": 4221,
      "欢": 4222,
      "欧": 4223,
      "欲": 4224,
      "款": 4225,
      "歄": 4226,
      "歌": 4227,
      "歡": 4228,
      "止": 4229,
      "正": 4230,
      "此": 4231,
      "步": 4232,
      "武": 4233,
      "歧": 4234,
      "歩": 4235,
      "歲": 4236,
      "歴": 4237,
      "歷": 4238,
      "歸": 4239,
      "死": 4240,
      "歼": 4241,
      "殉": 4242,
      "殊": 4243,
      "残": 4244,
      "殖": 4245,
      "段": 4246,
      "殿": 4247,
      "毁": 4248,
      "母": 4249,
      "毎": 4250,
      "每": 4251,
      "毒": 4252,
      "比": 4253,
      "毛": 4254,
      "氏": 4255,
      "民": 4256,
      "氓": 4257,
      "气": 4258,
      "気": 4259,
      "氢": 4260,
      "氣": 4261,
      "氧": 4262,
      "氨": 4263,
      "氫": 4264,
      "水": 4265,
      "氷": 4266,
      "永": 4267,
      "汁": 4268,
      "求": 4269,
      "汇": 4270,
      "汉": 4271,
      "汕": 4272,
      "汘": 4273,
      "汝": 4274,
      "江": 4275,
      "池": 4276,
      "污": 4277,
      "汤": 4278,
      "決": 4279,
      "汽": 4280,
      "沁": 4281,
      "沃": 4282,
      "沈": 4283,
      "沉": 4284,
      "沒": 4285,
      "沙": 4286,
      "沟": 4287,
      "没": 4288,
      "沢": 4289,
      "沫": 4290,
      "河": 4291,
      "油": 4292,
      "治": 4293,
      "沼": 4294,
      "沿": 4295,
      "況": 4296,
      "泄": 4297,
      "泉": 4298,
      "法": 4299,
      "泛": 4300,
      "泡": 4301,
      "波": 4302,
      "泣": 4303,
      "泥": 4304,
      "注": 4305,
      "泰": 4306,
      "泳": 4307,
      "洀": 4308,
      "洁": 4309,
      "洋": 4310,
      "洗": 4311,
      "洛": 4312,
      "洞": 4313,
      "津": 4314,
      "洪": 4315,
      "洲": 4316,
      "活": 4317,
      "派": 4318,
      "流": 4319,
      "浄": 4320,
      "测": 4321,
      "济": 4322,
      "浏": 4323,
      "浓": 4324,
      "浙": 4325,
      "浦": 4326,
      "浩": 4327,
      "浪": 4328,
      "浮": 4329,
      "浴": 4330,
      "海": 4331,
      "浸": 4332,
      "涂": 4333,
      "消": 4334,
      "涉": 4335,
      "涓": 4336,
      "涛": 4337,
      "润": 4338,
      "涨": 4339,
      "涯": 4340,
      "液": 4341,
      "涼": 4342,
      "淇": 4343,
      "淋": 4344,
      "淘": 4345,
      "淡": 4346,
      "淧": 4347,
      "淨": 4348,
      "深": 4349,
      "淲": 4350,
      "混": 4351,
      "添": 4352,
      "渂": 4353,
      "清": 4354,
      "済": 4355,
      "渉": 4356,
      "渐": 4357,
      "渗": 4358,
      "渚": 4359,
      "減": 4360,
      "渟": 4361,
      "渡": 4362,
      "渢": 4363,
      "渥": 4364,
      "渦": 4365,
      "温": 4366,
      "測": 4367,
      "港": 4368,
      "渲": 4369,
      "渴": 4370,
      "游": 4371,
      "湖": 4372,
      "湯": 4373,
      "湾": 4374,
      "満": 4375,
      "源": 4376,
      "準": 4377,
      "溝": 4378,
      "溢": 4379,
      "溪": 4380,
      "溫": 4381,
      "溴": 4382,
      "溶": 4383,
      "滋": 4384,
      "滑": 4385,
      "满": 4386,
      "滤": 4387,
      "滨": 4388,
      "滴": 4389,
      "滿": 4390,
      "漀": 4391,
      "漏": 4392,
      "演": 4393,
      "漢": 4394,
      "漬": 4395,
      "潔": 4396,
      "潞": 4397,
      "潤": 4398,
      "潭": 4399,
      "潮": 4400,
      "潵": 4401,
      "澄": 4402,
      "澳": 4403,
      "激": 4404,
      "濃": 4405,
      "濟": 4406,
      "濫": 4407,
      "濾": 4408,
      "瀑": 4409,
      "瀬": 4410,
      "灣": 4411,
      "火": 4412,
      "灭": 4413,
      "灯": 4414,
      "灰": 4415,
      "炉": 4416,
      "炎": 4417,
      "炒": 4418,
      "炖": 4419,
      "炭": 4420,
      "炮": 4421,
      "炸": 4422,
      "点": 4423,
      "為": 4424,
      "炼": 4425,
      "烈": 4426,
      "烏": 4427,
      "烘": 4428,
      "烟": 4429,
      "烤": 4430,
      "烧": 4431,
      "热": 4432,
      "烯": 4433,
      "烷": 4434,
      "焊": 4435,
      "焗": 4436,
      "焙": 4437,
      "無": 4438,
      "焦": 4439,
      "然": 4440,
      "焼": 4441,
      "煎": 4442,
      "煤": 4443,
      "照": 4444,
      "煮": 4445,
      "熊": 4446,
      "熙": 4447,
      "熟": 4448,
      "熱": 4449,
      "燃": 4450,
      "燈": 4451,
      "燒": 4452,
      "燕": 4453,
      "營": 4454,
      "燥": 4455,
      "爀": 4456,
      "爆": 4457,
      "爍": 4458,
      "爪": 4459,
      "爬": 4460,
      "爭": 4461,
      "爱": 4462,
      "爲": 4463,
      "父": 4464,
      "爸": 4465,
      "爾": 4466,
      "牆": 4467,
      "片": 4468,
      "版": 4469,
      "牌": 4470,
      "牛": 4471,
      "物": 4472,
      "特": 4473,
      "牽": 4474,
      "犀": 4475,
      "犬": 4476,
      "犭": 4477,
      "犯": 4478,
      "状": 4479,
      "狀": 4480,
      "狍": 4481,
      "狗": 4482,
      "独": 4483,
      "狭": 4484,
      "狱": 4485,
      "狼": 4486,
      "猜": 4487,
      "猩": 4488,
      "猪": 4489,
      "猫": 4490,
      "献": 4491,
      "猴": 4492,
      "猿": 4493,
      "獨": 4494,
      "獲": 4495,
      "獷": 4496,
      "獸": 4497,
      "獻": 4498,
      "玄": 4499,
      "率": 4500,
      "玉": 4501,
      "王": 4502,
      "玩": 4503,
      "环": 4504,
      "现": 4505,
      "珍": 4506,
      "珠": 4507,
      "班": 4508,
      "現": 4509,
      "球": 4510,
      "理": 4511,
      "琉": 4512,
      "琢": 4513,
      "琴": 4514,
      "瑜": 4515,
      "瑞": 4516,
      "瑩": 4517,
      "瑪": 4518,
      "瑾": 4519,
      "璐": 4520,
      "環": 4521,
      "瓜": 4522,
      "瓦": 4523,
      "瓶": 4524,
      "甚": 4525,
      "甜": 4526,
      "生": 4527,
      "產": 4528,
      "産": 4529,
      "用": 4530,
      "甫": 4531,
      "甯": 4532,
      "田": 4533,
      "由": 4534,
      "甲": 4535,
      "申": 4536,
      "电": 4537,
      "男": 4538,
      "甸": 4539,
      "画": 4540,
      "界": 4541,
      "留": 4542,
      "畜": 4543,
      "畝": 4544,
      "略": 4545,
      "番": 4546,
      "畫": 4547,
      "異": 4548,
      "當": 4549,
      "畿": 4550,
      "疆": 4551,
      "疎": 4552,
      "疏": 4553,
      "疑": 4554,
      "疗": 4555,
      "疫": 4556,
      "疲": 4557,
      "疼": 4558,
      "疾": 4559,
      "病": 4560,
      "症": 4561,
      "痛": 4562,
      "痞": 4563,
      "痪": 4564,
      "瘦": 4565,
      "瘫": 4566,
      "療": 4567,
      "癌": 4568,
      "癒": 4569,
      "癶": 4570,
      "発": 4571,
      "登": 4572,
      "發": 4573,
      "白": 4574,
      "百": 4575,
      "的": 4576,
      "皇": 4577,
      "皮": 4578,
      "盆": 4579,
      "盈": 4580,
      "益": 4581,
      "监": 4582,
      "盔": 4583,
      "盖": 4584,
      "盗": 4585,
      "盘": 4586,
      "盟": 4587,
      "盡": 4588,
      "監": 4589,
      "盤": 4590,
      "目": 4591,
      "直": 4592,
      "相": 4593,
      "盾": 4594,
      "省": 4595,
      "眂": 4596,
      "眉": 4597,
      "看": 4598,
      "眞": 4599,
      "真": 4600,
      "眠": 4601,
      "眼": 4602,
      "眾": 4603,
      "着": 4604,
      "睡": 4605,
      "瞭": 4606,
      "瞳": 4607,
      "矛": 4608,
      "知": 4609,
      "矩": 4610,
      "矫": 4611,
      "短": 4612,
      "石": 4613,
      "码": 4614,
      "砂": 4615,
      "砍": 4616,
      "研": 4617,
      "砖": 4618,
      "破": 4619,
      "础": 4620,
      "硅": 4621,
      "硏": 4622,
      "硕": 4623,
      "硝": 4624,
      "硫": 4625,
      "硬": 4626,
      "确": 4627,
      "碍": 4628,
      "碎": 4629,
      "碳": 4630,
      "確": 4631,
      "碼": 4632,
      "磁": 4633,
      "磅": 4634,
      "磋": 4635,
      "磚": 4636,
      "磨": 4637,
      "礁": 4638,
      "礎": 4639,
      "示": 4640,
      "礼": 4641,
      "社": 4642,
      "祐": 4643,
      "祝": 4644,
      "神": 4645,
      "票": 4646,
      "祭": 4647,
      "祸": 4648,
      "禁": 4649,
      "禄": 4650,
      "福": 4651,
      "禪": 4652,
      "禮": 4653,
      "禺": 4654,
      "离": 4655,
      "禽": 4656,
      "禾": 4657,
      "秀": 4658,
      "私": 4659,
      "秋": 4660,
      "种": 4661,
      "科": 4662,
      "秒": 4663,
      "秘": 4664,
      "秩": 4665,
      "积": 4666,
      "称": 4667,
      "移": 4668,
      "稀": 4669,
      "程": 4670,
      "税": 4671,
      "種": 4672,
      "稱": 4673,
      "稳": 4674,
      "稿": 4675,
      "積": 4676,
      "穩": 4677,
      "穴": 4678,
      "究": 4679,
      "穷": 4680,
      "空": 4681,
      "穿": 4682,
      "突": 4683,
      "窄": 4684,
      "窒": 4685,
      "窗": 4686,
      "窝": 4687,
      "窪": 4688,
      "窮": 4689,
      "窶": 4690,
      "竇": 4691,
      "立": 4692,
      "站": 4693,
      "竞": 4694,
      "章": 4695,
      "童": 4696,
      "端": 4697,
      "競": 4698,
      "竹": 4699,
      "竿": 4700,
      "笑": 4701,
      "笔": 4702,
      "笛": 4703,
      "符": 4704,
      "笨": 4705,
      "第": 4706,
      "筆": 4707,
      "等": 4708,
      "筋": 4709,
      "答": 4710,
      "策": 4711,
      "筝": 4712,
      "签": 4713,
      "简": 4714,
      "箇": 4715,
      "算": 4716,
      "管": 4717,
      "箭": 4718,
      "箱": 4719,
      "節": 4720,
      "範": 4721,
      "篆": 4722,
      "篇": 4723,
      "築": 4724,
      "簇": 4725,
      "簡": 4726,
      "簽": 4727,
      "簾": 4728,
      "籍": 4729,
      "籠": 4730,
      "米": 4731,
      "类": 4732,
      "粉": 4733,
      "粋": 4734,
      "粒": 4735,
      "粗": 4736,
      "粘": 4737,
      "粤": 4738,
      "粥": 4739,
      "粱": 4740,
      "粵": 4741,
      "粽": 4742,
      "精": 4743,
      "糉": 4744,
      "糊": 4745,
      "糕": 4746,
      "糖": 4747,
      "糸": 4748,
      "糹": 4749,
      "系": 4750,
      "紀": 4751,
      "約": 4752,
      "紅": 4753,
      "紊": 4754,
      "紋": 4755,
      "納": 4756,
      "紐": 4757,
      "純": 4758,
      "紗": 4759,
      "紙": 4760,
      "級": 4761,
      "紞": 4762,
      "素": 4763,
      "索": 4764,
      "紧": 4765,
      "紫": 4766,
      "細": 4767,
      "紹": 4768,
      "終": 4769,
      "組": 4770,
      "経": 4771,
      "結": 4772,
      "絕": 4773,
      "絞": 4774,
      "絡": 4775,
      "絣": 4776,
      "給": 4777,
      "統": 4778,
      "絲": 4779,
      "絶": 4780,
      "經": 4781,
      "継": 4782,
      "続": 4783,
      "維": 4784,
      "綱": 4785,
      "網": 4786,
      "緊": 4787,
      "総": 4788,
      "緒": 4789,
      "線": 4790,
      "締": 4791,
      "編": 4792,
      "緩": 4793,
      "練": 4794,
      "縞": 4795,
      "縫": 4796,
      "縮": 4797,
      "總": 4798,
      "繁": 4799,
      "織": 4800,
      "繪": 4801,
      "繭": 4802,
      "繰": 4803,
      "繼": 4804,
      "續": 4805,
      "纖": 4806,
      "纟": 4807,
      "红": 4808,
      "纤": 4809,
      "约": 4810,
      "级": 4811,
      "纪": 4812,
      "纯": 4813,
      "纲": 4814,
      "纳": 4815,
      "纵": 4816,
      "纷": 4817,
      "纸": 4818,
      "纽": 4819,
      "线": 4820,
      "练": 4821,
      "组": 4822,
      "细": 4823,
      "织": 4824,
      "终": 4825,
      "绍": 4826,
      "经": 4827,
      "结": 4828,
      "绘": 4829,
      "给": 4830,
      "络": 4831,
      "绝": 4832,
      "统": 4833,
      "继": 4834,
      "绩": 4835,
      "绪": 4836,
      "续": 4837,
      "绳": 4838,
      "维": 4839,
      "综": 4840,
      "缆": 4841,
      "缓": 4842,
      "编": 4843,
      "缘": 4844,
      "缝": 4845,
      "缨": 4846,
      "缩": 4847,
      "缶": 4848,
      "缸": 4849,
      "缺": 4850,
      "罐": 4851,
      "网": 4852,
      "罗": 4853,
      "罪": 4854,
      "置": 4855,
      "署": 4856,
      "羁": 4857,
      "羅": 4858,
      "羊": 4859,
      "美": 4860,
      "羟": 4861,
      "群": 4862,
      "羧": 4863,
      "義": 4864,
      "羹": 4865,
      "羽": 4866,
      "翅": 4867,
      "習": 4868,
      "翔": 4869,
      "翘": 4870,
      "翠": 4871,
      "翡": 4872,
      "翻": 4873,
      "翼": 4874,
      "老": 4875,
      "考": 4876,
      "者": 4877,
      "耆": 4878,
      "而": 4879,
      "耐": 4880,
      "耗": 4881,
      "耳": 4882,
      "耵": 4883,
      "职": 4884,
      "聍": 4885,
      "联": 4886,
      "聖": 4887,
      "聘": 4888,
      "聚": 4889,
      "聞": 4890,
      "聮": 4891,
      "聯": 4892,
      "聲": 4893,
      "聴": 4894,
      "職": 4895,
      "聽": 4896,
      "肉": 4897,
      "肖": 4898,
      "肝": 4899,
      "肠": 4900,
      "股": 4901,
      "肢": 4902,
      "肥": 4903,
      "肪": 4904,
      "肯": 4905,
      "育": 4906,
      "肴": 4907,
      "肺": 4908,
      "肾": 4909,
      "胆": 4910,
      "背": 4911,
      "胎": 4912,
      "胖": 4913,
      "胚": 4914,
      "胜": 4915,
      "胞": 4916,
      "胡": 4917,
      "胱": 4918,
      "胴": 4919,
      "胶": 4920,
      "胸": 4921,
      "能": 4922,
      "脂": 4923,
      "脅": 4924,
      "脆": 4925,
      "脈": 4926,
      "脏": 4927,
      "脑": 4928,
      "脚": 4929,
      "脫": 4930,
      "脱": 4931,
      "脳": 4932,
      "脹": 4933,
      "腐": 4934,
      "腥": 4935,
      "腦": 4936,
      "腰": 4937,
      "腳": 4938,
      "腸": 4939,
      "腹": 4940,
      "腺": 4941,
      "腻": 4942,
      "腾": 4943,
      "膀": 4944,
      "膜": 4945,
      "膨": 4946,
      "膽": 4947,
      "臂": 4948,
      "臉": 4949,
      "臥": 4950,
      "臨": 4951,
      "自": 4952,
      "臭": 4953,
      "至": 4954,
      "致": 4955,
      "臺": 4956,
      "與": 4957,
      "興": 4958,
      "舉": 4959,
      "舊": 4960,
      "舌": 4961,
      "舍": 4962,
      "舗": 4963,
      "舞": 4964,
      "舟": 4965,
      "航": 4966,
      "般": 4967,
      "艦": 4968,
      "艮": 4969,
      "良": 4970,
      "色": 4971,
      "艳": 4972,
      "艺": 4973,
      "艾": 4974,
      "节": 4975,
      "芝": 4976,
      "芦": 4977,
      "芬": 4978,
      "花": 4979,
      "芳": 4980,
      "芸": 4981,
      "芹": 4982,
      "芽": 4983,
      "苋": 4984,
      "苏": 4985,
      "苔": 4986,
      "苗": 4987,
      "若": 4988,
      "苦": 4989,
      "英": 4990,
      "苷": 4991,
      "茂": 4992,
      "范": 4993,
      "茄": 4994,
      "茅": 4995,
      "茜": 4996,
      "茫": 4997,
      "茵": 4998,
      "茶": 4999,
      "草": 5000,
      "荐": 5001,
      "荒": 5002,
      "荠": 5003,
      "荣": 5004,
      "荫": 5005,
      "药": 5006,
      "荷": 5007,
      "荼": 5008,
      "莎": 5009,
      "莖": 5010,
      "莫": 5011,
      "获": 5012,
      "菇": 5013,
      "菊": 5014,
      "菌": 5015,
      "菓": 5016,
      "菜": 5017,
      "菠": 5018,
      "華": 5019,
      "菲": 5020,
      "萄": 5021,
      "萌": 5022,
      "萍": 5023,
      "萝": 5024,
      "营": 5025,
      "萨": 5026,
      "萬": 5027,
      "落": 5028,
      "葉": 5029,
      "著": 5030,
      "葛": 5031,
      "葡": 5032,
      "董": 5033,
      "葫": 5034,
      "葬": 5035,
      "葵": 5036,
      "蒂": 5037,
      "蒙": 5038,
      "蒜": 5039,
      "蒲": 5040,
      "蒸": 5041,
      "蒼": 5042,
      "蓀": 5043,
      "蓑": 5044,
      "蓝": 5045,
      "蔓": 5046,
      "蔬": 5047,
      "蔵": 5048,
      "蕉": 5049,
      "蕎": 5050,
      "蕭": 5051,
      "蕾": 5052,
      "薇": 5053,
      "薏": 5054,
      "薦": 5055,
      "薫": 5056,
      "薬": 5057,
      "薯": 5058,
      "藏": 5059,
      "藝": 5060,
      "藤": 5061,
      "藥": 5062,
      "藻": 5063,
      "藿": 5064,
      "蘇": 5065,
      "蘑": 5066,
      "蘭": 5067,
      "虎": 5068,
      "虑": 5069,
      "處": 5070,
      "虚": 5071,
      "號": 5072,
      "虫": 5073,
      "虽": 5074,
      "虾": 5075,
      "蚀": 5076,
      "蚓": 5077,
      "蚕": 5078,
      "蚵": 5079,
      "蛇": 5080,
      "蛋": 5081,
      "蛙": 5082,
      "蛸": 5083,
      "蛹": 5084,
      "蛾": 5085,
      "蜂": 5086,
      "蜜": 5087,
      "蜥": 5088,
      "蝕": 5089,
      "蝴": 5090,
      "蝶": 5091,
      "蝸": 5092,
      "融": 5093,
      "螞": 5094,
      "螺": 5095,
      "蟬": 5096,
      "蟲": 5097,
      "蟻": 5098,
      "蠔": 5099,
      "血": 5100,
      "行": 5101,
      "術": 5102,
      "街": 5103,
      "衝": 5104,
      "衡": 5105,
      "衣": 5106,
      "补": 5107,
      "表": 5108,
      "衰": 5109,
      "袁": 5110,
      "袋": 5111,
      "被": 5112,
      "裁": 5113,
      "裂": 5114,
      "装": 5115,
      "裏": 5116,
      "裕": 5117,
      "裙": 5118,
      "補": 5119,
      "裡": 5120,
      "裸": 5121,
      "裹": 5122,
      "製": 5123,
      "複": 5124,
      "褪": 5125,
      "褶": 5126,
      "襲": 5127,
      "西": 5128,
      "要": 5129,
      "覆": 5130,
      "見": 5131,
      "規": 5132,
      "視": 5133,
      "覚": 5134,
      "覧": 5135,
      "親": 5136,
      "観": 5137,
      "覺": 5138,
      "觀": 5139,
      "见": 5140,
      "观": 5141,
      "规": 5142,
      "视": 5143,
      "览": 5144,
      "觉": 5145,
      "角": 5146,
      "解": 5147,
      "触": 5148,
      "觸": 5149,
      "言": 5150,
      "訂": 5151,
      "計": 5152,
      "訊": 5153,
      "討": 5154,
      "訓": 5155,
      "託": 5156,
      "記": 5157,
      "訪": 5158,
      "設": 5159,
      "許": 5160,
      "訳": 5161,
      "訶": 5162,
      "診": 5163,
      "証": 5164,
      "評": 5165,
      "詞": 5166,
      "詢": 5167,
      "試": 5168,
      "詩": 5169,
      "詰": 5170,
      "話": 5171,
      "該": 5172,
      "詳": 5173,
      "詹": 5174,
      "誌": 5175,
      "認": 5176,
      "誕": 5177,
      "誘": 5178,
      "語": 5179,
      "誣": 5180,
      "誤": 5181,
      "說": 5182,
      "説": 5183,
      "読": 5184,
      "誰": 5185,
      "課": 5186,
      "調": 5187,
      "請": 5188,
      "論": 5189,
      "諧": 5190,
      "諮": 5191,
      "諸": 5192,
      "講": 5193,
      "謝": 5194,
      "證": 5195,
      "識": 5196,
      "警": 5197,
      "譯": 5198,
      "議": 5199,
      "譲": 5200,
      "護": 5201,
      "譽": 5202,
      "讀": 5203,
      "變": 5204,
      "讓": 5205,
      "计": 5206,
      "订": 5207,
      "认": 5208,
      "讨": 5209,
      "让": 5210,
      "训": 5211,
      "议": 5212,
      "讯": 5213,
      "记": 5214,
      "讲": 5215,
      "许": 5216,
      "论": 5217,
      "设": 5218,
      "访": 5219,
      "证": 5220,
      "评": 5221,
      "识": 5222,
      "词": 5223,
      "译": 5224,
      "试": 5225,
      "诗": 5226,
      "话": 5227,
      "询": 5228,
      "该": 5229,
      "详": 5230,
      "语": 5231,
      "误": 5232,
      "诱": 5233,
      "说": 5234,
      "请": 5235,
      "诸": 5236,
      "诺": 5237,
      "读": 5238,
      "课": 5239,
      "谁": 5240,
      "调": 5241,
      "谈": 5242,
      "谋": 5243,
      "谐": 5244,
      "谓": 5245,
      "谢": 5246,
      "谨": 5247,
      "谬": 5248,
      "谱": 5249,
      "谷": 5250,
      "豆": 5251,
      "豇": 5252,
      "豊": 5253,
      "豐": 5254,
      "豔": 5255,
      "豕": 5256,
      "豚": 5257,
      "象": 5258,
      "貓": 5259,
      "貝": 5260,
      "負": 5261,
      "財": 5262,
      "貢": 5263,
      "貨": 5264,
      "販": 5265,
      "貫": 5266,
      "責": 5267,
      "貴": 5268,
      "買": 5269,
      "貸": 5270,
      "費": 5271,
      "賀": 5272,
      "資": 5273,
      "賓": 5274,
      "賞": 5275,
      "賣": 5276,
      "質": 5277,
      "賬": 5278,
      "賭": 5279,
      "賴": 5280,
      "購": 5281,
      "賽": 5282,
      "贏": 5283,
      "贖": 5284,
      "贝": 5285,
      "负": 5286,
      "财": 5287,
      "责": 5288,
      "贤": 5289,
      "败": 5290,
      "账": 5291,
      "货": 5292,
      "质": 5293,
      "贫": 5294,
      "购": 5295,
      "贯": 5296,
      "贴": 5297,
      "贵": 5298,
      "贷": 5299,
      "贸": 5300,
      "费": 5301,
      "资": 5302,
      "赋": 5303,
      "赌": 5304,
      "赖": 5305,
      "赚": 5306,
      "赛": 5307,
      "赝": 5308,
      "赞": 5309,
      "赣": 5310,
      "赤": 5311,
      "赫": 5312,
      "走": 5313,
      "赵": 5314,
      "起": 5315,
      "超": 5316,
      "越": 5317,
      "趋": 5318,
      "趣": 5319,
      "足": 5320,
      "跃": 5321,
      "跌": 5322,
      "跑": 5323,
      "距": 5324,
      "跟": 5325,
      "跡": 5326,
      "跨": 5327,
      "路": 5328,
      "跳": 5329,
      "踇": 5330,
      "踊": 5331,
      "踏": 5332,
      "踦": 5333,
      "踪": 5334,
      "蹈": 5335,
      "蹲": 5336,
      "身": 5337,
      "車": 5338,
      "軌": 5339,
      "軍": 5340,
      "軟": 5341,
      "転": 5342,
      "軸": 5343,
      "軽": 5344,
      "較": 5345,
      "載": 5346,
      "輔": 5347,
      "輕": 5348,
      "輪": 5349,
      "輯": 5350,
      "輸": 5351,
      "輿": 5352,
      "轉": 5353,
      "车": 5354,
      "轨": 5355,
      "转": 5356,
      "轮": 5357,
      "软": 5358,
      "轴": 5359,
      "轻": 5360,
      "载": 5361,
      "较": 5362,
      "辆": 5363,
      "辉": 5364,
      "辐": 5365,
      "辑": 5366,
      "输": 5367,
      "辛": 5368,
      "辞": 5369,
      "辣": 5370,
      "辦": 5371,
      "辨": 5372,
      "辯": 5373,
      "辰": 5374,
      "边": 5375,
      "辺": 5376,
      "込": 5377,
      "辽": 5378,
      "达": 5379,
      "迄": 5380,
      "迅": 5381,
      "过": 5382,
      "迎": 5383,
      "运": 5384,
      "近": 5385,
      "返": 5386,
      "还": 5387,
      "这": 5388,
      "进": 5389,
      "远": 5390,
      "违": 5391,
      "连": 5392,
      "迟": 5393,
      "迦": 5394,
      "迪": 5395,
      "述": 5396,
      "迴": 5397,
      "迷": 5398,
      "迹": 5399,
      "追": 5400,
      "退": 5401,
      "送": 5402,
      "适": 5403,
      "逆": 5404,
      "选": 5405,
      "透": 5406,
      "逐": 5407,
      "递": 5408,
      "途": 5409,
      "這": 5410,
      "通": 5411,
      "速": 5412,
      "造": 5413,
      "連": 5414,
      "週": 5415,
      "進": 5416,
      "逸": 5417,
      "逻": 5418,
      "逼": 5419,
      "遅": 5420,
      "遇": 5421,
      "遊": 5422,
      "運": 5423,
      "遍": 5424,
      "過": 5425,
      "道": 5426,
      "達": 5427,
      "違": 5428,
      "遗": 5429,
      "遜": 5430,
      "遞": 5431,
      "遠": 5432,
      "遥": 5433,
      "適": 5434,
      "遭": 5435,
      "遮": 5436,
      "遵": 5437,
      "遷": 5438,
      "選": 5439,
      "遺": 5440,
      "遼": 5441,
      "避": 5442,
      "還": 5443,
      "邊": 5444,
      "邓": 5445,
      "那": 5446,
      "邦": 5447,
      "邪": 5448,
      "邬": 5449,
      "邮": 5450,
      "邹": 5451,
      "郎": 5452,
      "郑": 5453,
      "郜": 5454,
      "部": 5455,
      "郵": 5456,
      "都": 5457,
      "鄉": 5458,
      "酉": 5459,
      "配": 5460,
      "酒": 5461,
      "酢": 5462,
      "酥": 5463,
      "酱": 5464,
      "酶": 5465,
      "酷": 5466,
      "酸": 5467,
      "醇": 5468,
      "醉": 5469,
      "醛": 5470,
      "醤": 5471,
      "醫": 5472,
      "醬": 5473,
      "采": 5474,
      "释": 5475,
      "釋": 5476,
      "里": 5477,
      "重": 5478,
      "野": 5479,
      "量": 5480,
      "金": 5481,
      "針": 5482,
      "鈣": 5483,
      "鈥": 5484,
      "鈦": 5485,
      "鈩": 5486,
      "鈽": 5487,
      "鉄": 5488,
      "鉦": 5489,
      "鉴": 5490,
      "鉾": 5491,
      "銃": 5492,
      "銆": 5493,
      "銘": 5494,
      "銜": 5495,
      "銷": 5496,
      "鋒": 5497,
      "鋭": 5498,
      "鋼": 5499,
      "錄": 5500,
      "錕": 5501,
      "錢": 5502,
      "錯": 5503,
      "録": 5504,
      "鍋": 5505,
      "鍵": 5506,
      "鎖": 5507,
      "鎮": 5508,
      "鏄": 5509,
      "鏍": 5510,
      "鏡": 5511,
      "鏵": 5512,
      "鐘": 5513,
      "鐸": 5514,
      "鑊": 5515,
      "鑑": 5516,
      "鑫": 5517,
      "鑽": 5518,
      "钅": 5519,
      "针": 5520,
      "钟": 5521,
      "钦": 5522,
      "钧": 5523,
      "钱": 5524,
      "钻": 5525,
      "铁": 5526,
      "铅": 5527,
      "铜": 5528,
      "银": 5529,
      "铺": 5530,
      "链": 5531,
      "销": 5532,
      "锁": 5533,
      "锐": 5534,
      "错": 5535,
      "锦": 5536,
      "键": 5537,
      "锻": 5538,
      "镇": 5539,
      "镜": 5540,
      "镬": 5541,
      "長": 5542,
      "长": 5543,
      "門": 5544,
      "閃": 5545,
      "閉": 5546,
      "開": 5547,
      "閒": 5548,
      "間": 5549,
      "関": 5550,
      "閱": 5551,
      "閲": 5552,
      "閳": 5553,
      "閿": 5554,
      "關": 5555,
      "门": 5556,
      "闭": 5557,
      "问": 5558,
      "闲": 5559,
      "间": 5560,
      "闸": 5561,
      "闻": 5562,
      "闽": 5563,
      "阀": 5564,
      "阅": 5565,
      "阐": 5566,
      "阔": 5567,
      "队": 5568,
      "阪": 5569,
      "阱": 5570,
      "防": 5571,
      "阳": 5572,
      "阴": 5573,
      "阶": 5574,
      "阻": 5575,
      "阿": 5576,
      "附": 5577,
      "际": 5578,
      "陆": 5579,
      "陈": 5580,
      "陌": 5581,
      "降": 5582,
      "限": 5583,
      "陕": 5584,
      "院": 5585,
      "除": 5586,
      "险": 5587,
      "陰": 5588,
      "陳": 5589,
      "陷": 5590,
      "陸": 5591,
      "険": 5592,
      "隆": 5593,
      "隊": 5594,
      "階": 5595,
      "随": 5596,
      "隐": 5597,
      "隔": 5598,
      "隙": 5599,
      "際": 5600,
      "障": 5601,
      "隧": 5602,
      "隨": 5603,
      "險": 5604,
      "隱": 5605,
      "难": 5606,
      "雁": 5607,
      "雄": 5608,
      "雅": 5609,
      "集": 5610,
      "雇": 5611,
      "雑": 5612,
      "雕": 5613,
      "雙": 5614,
      "雜": 5615,
      "雞": 5616,
      "離": 5617,
      "難": 5618,
      "雨": 5619,
      "雪": 5620,
      "雰": 5621,
      "雲": 5622,
      "零": 5623,
      "雷": 5624,
      "電": 5625,
      "雾": 5626,
      "需": 5627,
      "霆": 5628,
      "霊": 5629,
      "霍": 5630,
      "霜": 5631,
      "霞": 5632,
      "露": 5633,
      "靈": 5634,
      "靉": 5635,
      "靑": 5636,
      "青": 5637,
      "静": 5638,
      "靜": 5639,
      "非": 5640,
      "靠": 5641,
      "面": 5642,
      "革": 5643,
      "靶": 5644,
      "韓": 5645,
      "韩": 5646,
      "韭": 5647,
      "音": 5648,
      "響": 5649,
      "頁": 5650,
      "頂": 5651,
      "項": 5652,
      "順": 5653,
      "須": 5654,
      "預": 5655,
      "領": 5656,
      "頭": 5657,
      "頻": 5658,
      "頼": 5659,
      "顆": 5660,
      "題": 5661,
      "顔": 5662,
      "顕": 5663,
      "願": 5664,
      "類": 5665,
      "顧": 5666,
      "顯": 5667,
      "页": 5668,
      "顶": 5669,
      "项": 5670,
      "顺": 5671,
      "须": 5672,
      "顽": 5673,
      "顿": 5674,
      "颂": 5675,
      "预": 5676,
      "领": 5677,
      "频": 5678,
      "颖": 5679,
      "颗": 5680,
      "题": 5681,
      "颜": 5682,
      "额": 5683,
      "風": 5684,
      "风": 5685,
      "飛": 5686,
      "飞": 5687,
      "食": 5688,
      "飣": 5689,
      "飯": 5690,
      "飼": 5691,
      "飽": 5692,
      "飾": 5693,
      "餃": 5694,
      "餅": 5695,
      "養": 5696,
      "餐": 5697,
      "餡": 5698,
      "館": 5699,
      "饣": 5700,
      "饥": 5701,
      "饨": 5702,
      "饭": 5703,
      "饮": 5704,
      "饰": 5705,
      "饱": 5706,
      "饺": 5707,
      "饼": 5708,
      "饽": 5709,
      "饿": 5710,
      "馄": 5711,
      "馆": 5712,
      "馈": 5713,
      "馒": 5714,
      "首": 5715,
      "香": 5716,
      "馬": 5717,
      "馴": 5718,
      "駆": 5719,
      "験": 5720,
      "騰": 5721,
      "驅": 5722,
      "驗": 5723,
      "驚": 5724,
      "马": 5725,
      "驰": 5726,
      "驱": 5727,
      "验": 5728,
      "骑": 5729,
      "骗": 5730,
      "骤": 5731,
      "骨": 5732,
      "體": 5733,
      "高": 5734,
      "鬆": 5735,
      "鬥": 5736,
      "鬼": 5737,
      "魅": 5738,
      "魔": 5739,
      "魚": 5740,
      "魯": 5741,
      "鮒": 5742,
      "鮨": 5743,
      "鮮": 5744,
      "鮶": 5745,
      "鰹": 5746,
      "鱈": 5747,
      "鱻": 5748,
      "鱼": 5749,
      "鲁": 5750,
      "鳮": 5751,
      "鳳": 5752,
      "鳴": 5753,
      "鴻": 5754,
      "鴿": 5755,
      "鷗": 5756,
      "鸟": 5757,
      "鸡": 5758,
      "鸣": 5759,
      "鸭": 5760,
      "鹃": 5761,
      "鹲": 5762,
      "鹹": 5763,
      "鹿": 5764,
      "麒": 5765,
      "麗": 5766,
      "麟": 5767,
      "麦": 5768,
      "麩": 5769,
      "麵": 5770,
      "麺": 5771,
      "麻": 5772,
      "麼": 5773,
      "麽": 5774,
      "黃": 5775,
      "黄": 5776,
      "黑": 5777,
      "黒": 5778,
      "默": 5779,
      "點": 5780,
      "鼓": 5781,
      "鼠": 5782,
      "鼻": 5783,
      "齋": 5784,
      "龄": 5785,
      "龍": 5786,
      "龙": 5787,
      "ꙡ": 5788,
      "ꚍ": 5789,
      "ꚕ": 5790,
      "ꜰ": 5791,
      "꞉": 5792,
      "ꟷ": 5793,
      "꥜": 5794,
      "ꦗ": 5795,
      "ꦮ": 5796,
      "가": 5797,
      "각": 5798,
      "간": 5799,
      "갈": 5800,
      "감": 5801,
      "값": 5802,
      "강": 5803,
      "갖": 5804,
      "같": 5805,
      "개": 5806,
      "객": 5807,
      "갤": 5808,
      "갭": 5809,
      "거": 5810,
      "건": 5811,
      "걸": 5812,
      "검": 5813,
      "것": 5814,
      "게": 5815,
      "겠": 5816,
      "겨": 5817,
      "격": 5818,
      "견": 5819,
      "결": 5820,
      "겹": 5821,
      "경": 5822,
      "계": 5823,
      "고": 5824,
      "곡": 5825,
      "곤": 5826,
      "골": 5827,
      "곱": 5828,
      "곳": 5829,
      "공": 5830,
      "과": 5831,
      "곽": 5832,
      "관": 5833,
      "괄": 5834,
      "광": 5835,
      "교": 5836,
      "구": 5837,
      "국": 5838,
      "군": 5839,
      "굴": 5840,
      "굽": 5841,
      "굿": 5842,
      "궁": 5843,
      "귀": 5844,
      "규": 5845,
      "균": 5846,
      "그": 5847,
      "극": 5848,
      "근": 5849,
      "글": 5850,
      "금": 5851,
      "급": 5852,
      "긋": 5853,
      "기": 5854,
      "긴": 5855,
      "길": 5856,
      "김": 5857,
      "까": 5858,
      "깝": 5859,
      "께": 5860,
      "껦": 5861,
      "껻": 5862,
      "꽁": 5863,
      "꽃": 5864,
      "꽯": 5865,
      "꾸": 5866,
      "끝": 5867,
      "끼": 5868,
      "나": 5869,
      "난": 5870,
      "날": 5871,
      "남": 5872,
      "났": 5873,
      "낭": 5874,
      "낮": 5875,
      "내": 5876,
      "냉": 5877,
      "냐": 5878,
      "냥": 5879,
      "너": 5880,
      "널": 5881,
      "넓": 5882,
      "넘": 5883,
      "넣": 5884,
      "네": 5885,
      "넬": 5886,
      "넷": 5887,
      "녀": 5888,
      "년": 5889,
      "념": 5890,
      "녕": 5891,
      "노": 5892,
      "녹": 5893,
      "논": 5894,
      "놀": 5895,
      "농": 5896,
      "높": 5897,
      "누": 5898,
      "눇": 5899,
      "눈": 5900,
      "눉": 5901,
      "뉴": 5902,
      "늄": 5903,
      "느": 5904,
      "는": 5905,
      "늘": 5906,
      "능": 5907,
      "니": 5908,
      "닌": 5909,
      "닐": 5910,
      "님": 5911,
      "닝": 5912,
      "다": 5913,
      "단": 5914,
      "달": 5915,
      "닭": 5916,
      "답": 5917,
      "닷": 5918,
      "당": 5919,
      "대": 5920,
      "댓": 5921,
      "더": 5922,
      "던": 5923,
      "덜": 5924,
      "덤": 5925,
      "덩": 5926,
      "덮": 5927,
      "데": 5928,
      "덴": 5929,
      "델": 5930,
      "도": 5931,
      "독": 5932,
      "돈": 5933,
      "동": 5934,
      "돼": 5935,
      "되": 5936,
      "된": 5937,
      "될": 5938,
      "됨": 5939,
      "두": 5940,
      "둔": 5941,
      "둘": 5942,
      "듀": 5943,
      "듈": 5944,
      "드": 5945,
      "득": 5946,
      "든": 5947,
      "듣": 5948,
      "들": 5949,
      "듯": 5950,
      "등": 5951,
      "디": 5952,
      "딕": 5953,
      "딧": 5954,
      "딩": 5955,
      "따": 5956,
      "딱": 5957,
      "딸": 5958,
      "때": 5959,
      "떐": 5960,
      "떠": 5961,
      "떡": 5962,
      "떤": 5963,
      "떨": 5964,
      "떻": 5965,
      "떼": 5966,
      "또": 5967,
      "뚃": 5968,
      "뚝": 5969,
      "뛰": 5970,
      "뜻": 5971,
      "띄": 5972,
      "라": 5973,
      "락": 5974,
      "란": 5975,
      "람": 5976,
      "랍": 5977,
      "랐": 5978,
      "랑": 5979,
      "래": 5980,
      "랙": 5981,
      "랜": 5982,
      "램": 5983,
      "략": 5984,
      "량": 5985,
      "러": 5986,
      "럭": 5987,
      "런": 5988,
      "럼": 5989,
      "럽": 5990,
      "렇": 5991,
      "레": 5992,
      "렌": 5993,
      "렛": 5994,
      "려": 5995,
      "력": 5996,
      "련": 5997,
      "렵": 5998,
      "령": 5999,
      "례": 6000,
      "로": 6001,
      "록": 6002,
      "론": 6003,
      "롬": 6004,
      "롭": 6005,
      "롯": 6006,
      "롱": 6007,
      "료": 6008,
      "룡": 6009,
      "루": 6010,
      "룰": 6011,
      "룸": 6012,
      "류": 6013,
      "르": 6014,
      "른": 6015,
      "를": 6016,
      "름": 6017,
      "리": 6018,
      "릭": 6019,
      "린": 6020,
      "릴": 6021,
      "림": 6022,
      "립": 6023,
      "릿": 6024,
      "링": 6025,
      "마": 6026,
      "막": 6027,
      "만": 6028,
      "많": 6029,
      "말": 6030,
      "맙": 6031,
      "맛": 6032,
      "맞": 6033,
      "매": 6034,
      "맷": 6035,
      "머": 6036,
      "먹": 6037,
      "먼": 6038,
      "멈": 6039,
      "메": 6040,
      "멘": 6041,
      "며": 6042,
      "면": 6043,
      "멸": 6044,
      "명": 6045,
      "몇": 6046,
      "모": 6047,
      "목": 6048,
      "몰": 6049,
      "몸": 6050,
      "무": 6051,
      "묵": 6052,
      "문": 6053,
      "물": 6054,
      "므": 6055,
      "미": 6056,
      "믹": 6057,
      "밀": 6058,
      "밍": 6059,
      "및": 6060,
      "밑": 6061,
      "바": 6062,
      "박": 6063,
      "반": 6064,
      "발": 6065,
      "밤": 6066,
      "밥": 6067,
      "방": 6068,
      "배": 6069,
      "백": 6070,
      "밴": 6071,
      "밸": 6072,
      "뱉": 6073,
      "버": 6074,
      "번": 6075,
      "범": 6076,
      "법": 6077,
      "벗": 6078,
      "베": 6079,
      "벤": 6080,
      "벨": 6081,
      "벳": 6082,
      "변": 6083,
      "별": 6084,
      "병": 6085,
      "보": 6086,
      "복": 6087,
      "볶": 6088,
      "본": 6089,
      "볼": 6090,
      "봉": 6091,
      "봤": 6092,
      "뵐": 6093,
      "부": 6094,
      "분": 6095,
      "불": 6096,
      "붉": 6097,
      "붕": 6098,
      "붙": 6099,
      "뷰": 6100,
      "브": 6101,
      "블": 6102,
      "비": 6103,
      "빅": 6104,
      "빈": 6105,
      "빔": 6106,
      "빙": 6107,
      "빠": 6108,
      "빵": 6109,
      "뻜": 6110,
      "뿌": 6111,
      "쁘": 6112,
      "사": 6113,
      "산": 6114,
      "살": 6115,
      "삼": 6116,
      "삽": 6117,
      "상": 6118,
      "색": 6119,
      "샌": 6120,
      "생": 6121,
      "샵": 6122,
      "서": 6123,
      "석": 6124,
      "선": 6125,
      "설": 6126,
      "섬": 6127,
      "섭": 6128,
      "섯": 6129,
      "성": 6130,
      "세": 6131,
      "섹": 6132,
      "센": 6133,
      "셀": 6134,
      "셔": 6135,
      "션": 6136,
      "소": 6137,
      "속": 6138,
      "손": 6139,
      "솔": 6140,
      "송": 6141,
      "쇄": 6142,
      "쇼": 6143,
      "수": 6144,
      "숙": 6145,
      "순": 6146,
      "술": 6147,
      "숫": 6148,
      "숭": 6149,
      "스": 6150,
      "슬": 6151,
      "슭": 6152,
      "슴": 6153,
      "습": 6154,
      "슸": 6155,
      "싌": 6156,
      "시": 6157,
      "식": 6158,
      "신": 6159,
      "실": 6160,
      "심": 6161,
      "십": 6162,
      "싱": 6163,
      "싸": 6164,
      "쌀": 6165,
      "쌍": 6166,
      "쌐": 6167,
      "써": 6168,
      "쏢": 6169,
      "쓰": 6170,
      "쓴": 6171,
      "씨": 6172,
      "씩": 6173,
      "씬": 6174,
      "씰": 6175,
      "씹": 6176,
      "아": 6177,
      "악": 6178,
      "안": 6179,
      "않": 6180,
      "알": 6181,
      "압": 6182,
      "앙": 6183,
      "애": 6184,
      "액": 6185,
      "야": 6186,
      "약": 6187,
      "양": 6188,
      "어": 6189,
      "억": 6190,
      "언": 6191,
      "엄": 6192,
      "업": 6193,
      "없": 6194,
      "었": 6195,
      "에": 6196,
      "엔": 6197,
      "엠": 6198,
      "여": 6199,
      "역": 6200,
      "연": 6201,
      "열": 6202,
      "염": 6203,
      "였": 6204,
      "영": 6205,
      "예": 6206,
      "옛": 6207,
      "오": 6208,
      "온": 6209,
      "올": 6210,
      "와": 6211,
      "완": 6212,
      "왕": 6213,
      "왜": 6214,
      "왤": 6215,
      "외": 6216,
      "요": 6217,
      "욕": 6218,
      "용": 6219,
      "우": 6220,
      "운": 6221,
      "울": 6222,
      "움": 6223,
      "웃": 6224,
      "워": 6225,
      "원": 6226,
      "월": 6227,
      "웨": 6228,
      "웬": 6229,
      "웹": 6230,
      "위": 6231,
      "윌": 6232,
      "유": 6233,
      "육": 6234,
      "윤": 6235,
      "율": 6236,
      "융": 6237,
      "으": 6238,
      "은": 6239,
      "을": 6240,
      "음": 6241,
      "응": 6242,
      "의": 6243,
      "이": 6244,
      "익": 6245,
      "인": 6246,
      "일": 6247,
      "읽": 6248,
      "임": 6249,
      "입": 6250,
      "있": 6251,
      "잉": 6252,
      "자": 6253,
      "작": 6254,
      "잘": 6255,
      "잠": 6256,
      "잡": 6257,
      "잤": 6258,
      "장": 6259,
      "재": 6260,
      "잭": 6261,
      "쟁": 6262,
      "저": 6263,
      "적": 6264,
      "전": 6265,
      "절": 6266,
      "점": 6267,
      "접": 6268,
      "정": 6269,
      "제": 6270,
      "젝": 6271,
      "져": 6272,
      "조": 6273,
      "족": 6274,
      "존": 6275,
      "좁": 6276,
      "종": 6277,
      "좋": 6278,
      "좌": 6279,
      "주": 6280,
      "죽": 6281,
      "준": 6282,
      "중": 6283,
      "즈": 6284,
      "즉": 6285,
      "즐": 6286,
      "증": 6287,
      "지": 6288,
      "직": 6289,
      "진": 6290,
      "질": 6291,
      "집": 6292,
      "징": 6293,
      "짜": 6294,
      "짱": 6295,
      "째": 6296,
      "쮱": 6297,
      "차": 6298,
      "착": 6299,
      "찰": 6300,
      "참": 6301,
      "찹": 6302,
      "창": 6303,
      "찾": 6304,
      "채": 6305,
      "책": 6306,
      "챔": 6307,
      "처": 6308,
      "천": 6309,
      "첨": 6310,
      "첩": 6311,
      "첫": 6312,
      "청": 6313,
      "체": 6314,
      "초": 6315,
      "최": 6316,
      "추": 6317,
      "축": 6318,
      "춘": 6319,
      "출": 6320,
      "춥": 6321,
      "충": 6322,
      "춰": 6323,
      "취": 6324,
      "츠": 6325,
      "측": 6326,
      "층": 6327,
      "치": 6328,
      "친": 6329,
      "침": 6330,
      "칭": 6331,
      "카": 6332,
      "캐": 6333,
      "캠": 6334,
      "커": 6335,
      "컨": 6336,
      "컬": 6337,
      "컴": 6338,
      "컵": 6339,
      "케": 6340,
      "코": 6341,
      "콘": 6342,
      "콜": 6343,
      "쿠": 6344,
      "크": 6345,
      "큰": 6346,
      "클": 6347,
      "큼": 6348,
      "키": 6349,
      "킨": 6350,
      "킴": 6351,
      "타": 6352,
      "탁": 6353,
      "탄": 6354,
      "탈": 6355,
      "탐": 6356,
      "태": 6357,
      "택": 6358,
      "탱": 6359,
      "터": 6360,
      "턴": 6361,
      "텅": 6362,
      "테": 6363,
      "텐": 6364,
      "템": 6365,
      "토": 6366,
      "통": 6367,
      "투": 6368,
      "튀": 6369,
      "트": 6370,
      "특": 6371,
      "틀": 6372,
      "티": 6373,
      "팀": 6374,
      "팅": 6375,
      "파": 6376,
      "판": 6377,
      "팥": 6378,
      "패": 6379,
      "팰": 6380,
      "퍶": 6381,
      "퍼": 6382,
      "펄": 6383,
      "페": 6384,
      "펫": 6385,
      "펴": 6386,
      "편": 6387,
      "평": 6388,
      "폐": 6389,
      "포": 6390,
      "폭": 6391,
      "폰": 6392,
      "표": 6393,
      "푸": 6394,
      "품": 6395,
      "퓨": 6396,
      "프": 6397,
      "플": 6398,
      "픔": 6399,
      "피": 6400,
      "픽": 6401,
      "핀": 6402,
      "필": 6403,
      "핍": 6404,
      "핑": 6405,
      "하": 6406,
      "학": 6407,
      "한": 6408,
      "할": 6409,
      "함": 6410,
      "합": 6411,
      "항": 6412,
      "해": 6413,
      "했": 6414,
      "행": 6415,
      "햏": 6416,
      "향": 6417,
      "허": 6418,
      "헌": 6419,
      "험": 6420,
      "헤": 6421,
      "혁": 6422,
      "현": 6423,
      "혈": 6424,
      "협": 6425,
      "형": 6426,
      "호": 6427,
      "혹": 6428,
      "혼": 6429,
      "홀": 6430,
      "홈": 6431,
      "홍": 6432,
      "화": 6433,
      "환": 6434,
      "활": 6435,
      "황": 6436,
      "회": 6437,
      "획": 6438,
      "횟": 6439,
      "효": 6440,
      "후": 6441,
      "훈": 6442,
      "훗": 6443,
      "훨": 6444,
      "휘": 6445,
      "흐": 6446,
      "흑": 6447,
      "흥": 6448,
      "희": 6449,
      "흰": 6450,
      "히": 6451,
      "힉": 6452,
      "힐": 6453,
      "": 6454,
      "": 6455,
      "": 6456,
      "": 6457,
      "": 6458,
      "": 6459,
      "": 6460,
      "": 6461,
      "": 6462,
      "": 6463,
      "": 6464,
      "": 6465,
      "": 6466,
      "": 6467,
      "": 6468,
      "": 6469,
      "": 6470,
      "": 6471,
      "": 6472,
      "": 6473,
      "": 6474,
      "": 6475,
      "": 6476,
      "": 6477,
      "": 6478,
      "": 6479,
      "": 6480,
      "": 6481,
      "": 6482,
      "": 6483,
      "": 6484,
      "": 6485,
      "": 6486,
      "": 6487,
      "": 6488,
      "": 6489,
      "": 6490,
      "": 6491,
      "": 6492,
      "": 6493,
      "": 6494,
      "": 6495,
      "": 6496,
      "": 6497,
      "": 6498,
      "": 6499,
      "": 6500,
      "": 6501,
      "": 6502,
      "": 6503,
      "": 6504,
      "": 6505,
      "": 6506,
      "": 6507,
      "": 6508,
      "": 6509,
      "": 6510,
      "": 6511,
      "": 6512,
      "": 6513,
      "": 6514,
      "": 6515,
      "": 6516,
      "": 6517,
      "": 6518,
      "": 6519,
      "": 6520,
      "": 6521,
      "": 6522,
      "": 6523,
      "": 6524,
      "": 6525,
      "": 6526,
      "": 6527,
      "": 6528,
      "": 6529,
      "": 6530,
      "": 6531,
      "": 6532,
      "": 6533,
      "": 6534,
      "": 6535,
      "": 6536,
      "": 6537,
      "": 6538,
      "": 6539,
      "": 6540,
      "": 6541,
      "": 6542,
      "": 6543,
      "": 6544,
      "": 6545,
      "": 6546,
      "": 6547,
      "": 6548,
      "": 6549,
      "": 6550,
      "": 6551,
      "": 6552,
      "": 6553,
      "": 6554,
      "": 6555,
      "": 6556,
      "": 6557,
      "": 6558,
      "": 6559,
      "": 6560,
      "": 6561,
      "": 6562,
      "": 6563,
      "": 6564,
      "": 6565,
      "": 6566,
      "": 6567,
      "": 6568,
      "": 6569,
      "": 6570,
      "": 6571,
      "": 6572,
      "": 6573,
      "": 6574,
      "": 6575,
      "": 6576,
      "": 6577,
      "": 6578,
      "": 6579,
      "": 6580,
      "": 6581,
      "": 6582,
      "": 6583,
      "": 6584,
      "": 6585,
      "": 6586,
      "": 6587,
      "": 6588,
      "": 6589,
      "": 6590,
      "": 6591,
      "": 6592,
      "": 6593,
      "": 6594,
      "": 6595,
      "": 6596,
      "": 6597,
      "": 6598,
      "": 6599,
      "": 6600,
      "": 6601,
      "": 6602,
      "": 6603,
      "": 6604,
      "": 6605,
      "": 6606,
      "": 6607,
      "": 6608,
      "": 6609,
      "": 6610,
      "": 6611,
      "": 6612,
      "": 6613,
      "": 6614,
      "": 6615,
      "": 6616,
      "": 6617,
      "": 6618,
      "": 6619,
      "": 6620,
      "": 6621,
      "": 6622,
      "": 6623,
      "": 6624,
      "": 6625,
      "": 6626,
      "": 6627,
      "": 6628,
      "": 6629,
      "": 6630,
      "": 6631,
      "": 6632,
      "": 6633,
      "": 6634,
      "": 6635,
      "": 6636,
      "": 6637,
      "": 6638,
      "": 6639,
      "": 6640,
      "": 6641,
      "": 6642,
      "": 6643,
      "": 6644,
      "": 6645,
      "": 6646,
      "": 6647,
      "": 6648,
      "": 6649,
      "": 6650,
      "": 6651,
      "": 6652,
      "": 6653,
      "": 6654,
      "": 6655,
      "": 6656,
      "": 6657,
      "": 6658,
      "": 6659,
      "": 6660,
      "": 6661,
      "": 6662,
      "": 6663,
      "": 6664,
      "": 6665,
      "": 6666,
      "": 6667,
      "": 6668,
      "": 6669,
      "": 6670,
      "": 6671,
      "": 6672,
      "": 6673,
      "": 6674,
      "": 6675,
      "": 6676,
      "": 6677,
      "": 6678,
      "": 6679,
      "": 6680,
      "": 6681,
      "": 6682,
      "": 6683,
      "": 6684,
      "": 6685,
      "": 6686,
      "": 6687,
      "": 6688,
      "": 6689,
      "": 6690,
      "": 6691,
      "": 6692,
      "": 6693,
      "": 6694,
      "": 6695,
      "": 6696,
      "": 6697,
      "": 6698,
      "": 6699,
      "": 6700,
      "": 6701,
      "": 6702,
      "": 6703,
      "": 6704,
      "": 6705,
      "": 6706,
      "": 6707,
      "": 6708,
      "": 6709,
      "": 6710,
      "": 6711,
      "": 6712,
      "": 6713,
      "": 6714,
      "": 6715,
      "": 6716,
      "": 6717,
      "": 6718,
      "": 6719,
      "": 6720,
      "": 6721,
      "": 6722,
      "": 6723,
      "": 6724,
      "": 6725,
      "": 6726,
      "": 6727,
      "": 6728,
      "ﬀ": 6729,
      "ﬁ": 6730,
      "ﬂ": 6731,
      "ﬃ": 6732,
      "ﬄ": 6733,
      "﬩": 6734,
      "ﯸ": 6735,
      "ﷺ": 6736,
      "︀": 6737,
      "︎": 6738,
      "️": 6739,
      "︟": 6740,
      "︱": 6741,
      "︵": 6742,
      "﹘": 6743,
      "﹥": 6744,
      "ﺎ": 6745,
      "ﺑ": 6746,
      "ﺔ": 6747,
      "ﺤ": 6748,
      "ﺪ": 6749,
      "ﺳ": 6750,
      "ﺶ": 6751,
      "ﺻ": 6752,
      "ﻊ": 6753,
      "ﻋ": 6754,
      "ﻓ": 6755,
      "ﻟ": 6756,
      "ﻠ": 6757,
      "ﻢ": 6758,
      "ﻣ": 6759,
      "ﻤ": 6760,
      "ﻧ": 6761,
      "ﻨ": 6762,
      "ﻮ": 6763,
      "ﻲ": 6764,
      "ﻳ": 6765,
      "ﻻ": 6766,
      "！": 6767,
      "＆": 6768,
      "（": 6769,
      "）": 6770,
      "，": 6771,
      "－": 6772,
      "／": 6773,
      "１": 6774,
      "２": 6775,
      "３": 6776,
      "：": 6777,
      "；": 6778,
      "？": 6779,
      "～": 6780,
      "ｦ": 6781,
      "￼": 6782,
      "�": 6783,
      "𐎠": 6784,
      "𐎡": 6785,
      "𐎢": 6786,
      "𐎧": 6787,
      "𐎫": 6788,
      "𐎭": 6789,
      "𐎱": 6790,
      "𐎹": 6791,
      "𐎺": 6792,
      "𐎻": 6793,
      "𐎼": 6794,
      "𐎿": 6795,
      "𐏁": 6796,
      "𒀯": 6797,
      "𒀳": 6798,
      "𔃷": 6799,
      "𝐀": 6800,
      "𝐁": 6801,
      "𝐂": 6802,
      "𝐃": 6803,
      "𝐄": 6804,
      "𝐅": 6805,
      "𝐆": 6806,
      "𝐇": 6807,
      "𝐈": 6808,
      "𝐋": 6809,
      "𝐌": 6810,
      "𝐍": 6811,
      "𝐎": 6812,
      "𝐏": 6813,
      "𝐑": 6814,
      "𝐒": 6815,
      "𝐓": 6816,
      "𝐔": 6817,
      "𝐘": 6818,
      "𝐚": 6819,
      "𝐛": 6820,
      "𝐜": 6821,
      "𝐝": 6822,
      "𝐞": 6823,
      "𝐟": 6824,
      "𝐠": 6825,
      "𝐡": 6826,
      "𝐢": 6827,
      "𝐣": 6828,
      "𝐤": 6829,
      "𝐥": 6830,
      "𝐦": 6831,
      "𝐧": 6832,
      "𝐨": 6833,
      "𝐩": 6834,
      "𝐪": 6835,
      "𝐫": 6836,
      "𝐬": 6837,
      "𝐭": 6838,
      "𝐮": 6839,
      "𝐯": 6840,
      "𝐰": 6841,
      "𝐱": 6842,
      "𝐲": 6843,
      "𝐴": 6844,
      "𝐵": 6845,
      "𝐶": 6846,
      "𝐷": 6847,
      "𝐸": 6848,
      "𝐹": 6849,
      "𝐺": 6850,
      "𝐻": 6851,
      "𝐼": 6852,
      "𝐾": 6853,
      "𝐿": 6854,
      "𝑀": 6855,
      "𝑁": 6856,
      "𝑂": 6857,
      "𝑃": 6858,
      "𝑄": 6859,
      "𝑅": 6860,
      "𝑆": 6861,
      "𝑇": 6862,
      "𝑉": 6863,
      "𝑊": 6864,
      "𝑋": 6865,
      "𝑌": 6866,
      "𝑍": 6867,
      "𝑎": 6868,
      "𝑏": 6869,
      "𝑐": 6870,
      "𝑑": 6871,
      "𝑒": 6872,
      "𝑓": 6873,
      "𝑔": 6874,
      "𝑕": 6875,
      "𝑖": 6876,
      "𝑗": 6877,
      "𝑘": 6878,
      "𝑙": 6879,
      "𝑚": 6880,
      "𝑛": 6881,
      "𝑜": 6882,
      "𝑝": 6883,
      "𝑞": 6884,
      "𝑟": 6885,
      "𝑠": 6886,
      "𝑡": 6887,
      "𝑢": 6888,
      "𝑣": 6889,
      "𝑤": 6890,
      "𝑥": 6891,
      "𝑦": 6892,
      "𝑧": 6893,
      "𝑫": 6894,
      "𝑭": 6895,
      "𝑮": 6896,
      "𝑰": 6897,
      "𝑲": 6898,
      "𝑶": 6899,
      "𝑺": 6900,
      "𝑿": 6901,
      "𝒃": 6902,
      "𝒄": 6903,
      "𝒅": 6904,
      "𝒈": 6905,
      "𝒊": 6906,
      "𝒌": 6907,
      "𝒎": 6908,
      "𝒔": 6909,
      "𝒕": 6910,
      "𝒖": 6911,
      "𝒗": 6912,
      "𝒘": 6913,
      "𝒙": 6914,
      "𝒢": 6915,
      "𝒫": 6916,
      "𝒯": 6917,
      "𝒱": 6918,
      "𝒵": 6919,
      "𝒸": 6920,
      "𝒾": 6921,
      "𝓀": 6922,
      "𝓁": 6923,
      "𝓙": 6924,
      "𝓣": 6925,
      "𝓮": 6926,
      "𝓱": 6927,
      "𝓶": 6928,
      "𝓷": 6929,
      "𝓸": 6930,
      "𝓼": 6931,
      "𝔂": 6932,
      "𝔓": 6933,
      "𝔣": 6934,
      "𝔽": 6935,
      "𝕏": 6936,
      "𝗔": 6937,
      "𝗕": 6938,
      "𝗗": 6939,
      "𝗘": 6940,
      "𝗚": 6941,
      "𝗜": 6942,
      "𝗟": 6943,
      "𝗢": 6944,
      "𝗥": 6945,
      "𝗧": 6946,
      "𝗮": 6947,
      "𝗰": 6948,
      "𝗲": 6949,
      "𝗴": 6950,
      "𝗵": 6951,
      "𝗶": 6952,
      "𝗸": 6953,
      "𝗹": 6954,
      "𝗻": 6955,
      "𝗽": 6956,
      "𝘀": 6957,
      "𝘁": 6958,
      "𝘈": 6959,
      "𝘕": 6960,
      "𝘙": 6961,
      "𝘚": 6962,
      "𝘢": 6963,
      "𝘣": 6964,
      "𝘤": 6965,
      "𝘦": 6966,
      "𝘧": 6967,
      "𝘨": 6968,
      "𝘩": 6969,
      "𝘪": 6970,
      "𝘭": 6971,
      "𝘮": 6972,
      "𝘯": 6973,
      "𝘰": 6974,
      "𝘳": 6975,
      "𝘴": 6976,
      "𝘵": 6977,
      "𝘶": 6978,
      "𝘷": 6979,
      "𝘸": 6980,
      "𝘹": 6981,
      "𝘺": 6982,
      "𝙇": 6983,
      "𝙖": 6984,
      "𝙗": 6985,
      "𝙘": 6986,
      "𝙞": 6987,
      "𝙡": 6988,
      "𝙤": 6989,
      "𝙨": 6990,
      "𝙩": 6991,
      "𝙪": 6992,
      "𝙰": 6993,
      "𝙲": 6994,
      "𝙵": 6995,
      "𝙷": 6996,
      "𝙸": 6997,
      "𝚁": 6998,
      "𝚂": 6999,
      "𝚃": 7000,
      "𝚆": 7001,
      "𝚫": 7002,
      "𝛍": 7003,
      "𝛗": 7004,
      "𝛚": 7005,
      "𝛟": 7006,
      "𝛳": 7007,
      "𝛶": 7008,
      "𝛺": 7009,
      "𝛼": 7010,
      "𝛽": 7011,
      "𝛾": 7012,
      "𝛿": 7013,
      "𝜃": 7014,
      "𝜅": 7015,
      "𝜆": 7016,
      "𝜇": 7017,
      "𝜈": 7018,
      "𝜋": 7019,
      "𝜌": 7020,
      "𝜎": 7021,
      "𝜏": 7022,
      "𝜑": 7023,
      "𝜓": 7024,
      "𝜔": 7025,
      "𝜕": 7026,
      "𝜙": 7027,
      "𝜽": 7028,
      "𝝁": 7029,
      "𝝅": 7030,
      "𝝯": 7031,
      "𝟎": 7032,
      "𝟏": 7033,
      "𝟐": 7034,
      "𝟒": 7035,
      "𝟓": 7036,
      "𝟖": 7037,
      "𝟬": 7038,
      "𝟭": 7039,
      "🃏": 7040,
      "🅐": 7041,
      "🅓": 7042,
      "🅔": 7043,
      "🅡": 7044,
      "🅣": 7045,
      "🅱": 7046,
      "🆗": 7047,
      "🆘": 7048,
      "🇦": 7049,
      "🇧": 7050,
      "🇨": 7051,
      "🇩": 7052,
      "🇪": 7053,
      "🇫": 7054,
      "🇬": 7055,
      "🇭": 7056,
      "🇮": 7057,
      "🇯": 7058,
      "🇰": 7059,
      "🇱": 7060,
      "🇲": 7061,
      "🇳": 7062,
      "🇴": 7063,
      "🇵": 7064,
      "🇷": 7065,
      "🇸": 7066,
      "🇹": 7067,
      "🇺": 7068,
      "🇻": 7069,
      "🇽": 7070,
      "🇾": 7071,
      "🇿": 7072,
      "🌄": 7073,
      "🌅": 7074,
      "🌆": 7075,
      "🌈": 7076,
      "🌉": 7077,
      "🌊": 7078,
      "🌋": 7079,
      "🌌": 7080,
      "🌍": 7081,
      "🌎": 7082,
      "🌏": 7083,
      "🌐": 7084,
      "🌑": 7085,
      "🌒": 7086,
      "🌓": 7087,
      "🌔": 7088,
      "🌕": 7089,
      "🌗": 7090,
      "🌙": 7091,
      "🌚": 7092,
      "🌞": 7093,
      "🌟": 7094,
      "🌠": 7095,
      "🌡": 7096,
      "🌤": 7097,
      "🌥": 7098,
      "🌧": 7099,
      "🌨": 7100,
      "🌩": 7101,
      "🌪": 7102,
      "🌬": 7103,
      "🌮": 7104,
      "🌯": 7105,
      "🌱": 7106,
      "🌲": 7107,
      "🌳": 7108,
      "🌴": 7109,
      "🌵": 7110,
      "🌶": 7111,
      "🌷": 7112,
      "🌸": 7113,
      "🌹": 7114,
      "🌺": 7115,
      "🌻": 7116,
      "🌼": 7117,
      "🌽": 7118,
      "🌾": 7119,
      "🌿": 7120,
      "🍀": 7121,
      "🍁": 7122,
      "🍂": 7123,
      "🍃": 7124,
      "🍄": 7125,
      "🍅": 7126,
      "🍇": 7127,
      "🍉": 7128,
      "🍊": 7129,
      "🍋": 7130,
      "🍍": 7131,
      "🍎": 7132,
      "🍏": 7133,
      "🍑": 7134,
      "🍒": 7135,
      "🍓": 7136,
      "🍔": 7137,
      "🍕": 7138,
      "🍖": 7139,
      "🍗": 7140,
      "🍛": 7141,
      "🍜": 7142,
      "🍝": 7143,
      "🍠": 7144,
      "🍤": 7145,
      "🍥": 7146,
      "🍦": 7147,
      "🍨": 7148,
      "🍩": 7149,
      "🍪": 7150,
      "🍫": 7151,
      "🍬": 7152,
      "🍭": 7153,
      "🍮": 7154,
      "🍯": 7155,
      "🍰": 7156,
      "🍲": 7157,
      "🍳": 7158,
      "🍴": 7159,
      "🍵": 7160,
      "🍷": 7161,
      "🍸": 7162,
      "🍹": 7163,
      "🍺": 7164,
      "🍻": 7165,
      "🍼": 7166,
      "🍽": 7167,
      "🍿": 7168,
      "🎀": 7169,
      "🎁": 7170,
      "🎂": 7171,
      "🎃": 7172,
      "🎄": 7173,
      "🎆": 7174,
      "🎈": 7175,
      "🎉": 7176,
      "🎊": 7177,
      "🎋": 7178,
      "🎒": 7179,
      "🎓": 7180,
      "🎖": 7181,
      "🎙": 7182,
      "🎚": 7183,
      "🎞": 7184,
      "🎟": 7185,
      "🎢": 7186,
      "🎣": 7187,
      "🎤": 7188,
      "🎥": 7189,
      "🎧": 7190,
      "🎨": 7191,
      "🎩": 7192,
      "🎬": 7193,
      "🎭": 7194,
      "🎮": 7195,
      "🎯": 7196,
      "🎱": 7197,
      "🎲": 7198,
      "🎵": 7199,
      "🎶": 7200,
      "🎸": 7201,
      "🎹": 7202,
      "🎻": 7203,
      "🎼": 7204,
      "🎿": 7205,
      "🏀": 7206,
      "🏁": 7207,
      "🏂": 7208,
      "🏃": 7209,
      "🏄": 7210,
      "🏅": 7211,
      "🏆": 7212,
      "🏇": 7213,
      "🏈": 7214,
      "🏉": 7215,
      "🏊": 7216,
      "🏋": 7217,
      "🏎": 7218,
      "🏐": 7219,
      "🏓": 7220,
      "🏔": 7221,
      "🏖": 7222,
      "🏗": 7223,
      "🏘": 7224,
      "🏙": 7225,
      "🏛": 7226,
      "🏜": 7227,
      "🏝": 7228,
      "🏞": 7229,
      "🏟": 7230,
      "🏠": 7231,
      "🏡": 7232,
      "🏥": 7233,
      "🏨": 7234,
      "🏫": 7235,
      "🏭": 7236,
      "🏰": 7237,
      "🏳": 7238,
      "🏴": 7239,
      "🏷": 7240,
      "🏹": 7241,
      "🏺": 7242,
      "🏻": 7243,
      "🏼": 7244,
      "🏽": 7245,
      "🏾": 7246,
      "🏿": 7247,
      "🐀": 7248,
      "🐁": 7249,
      "🐄": 7250,
      "🐅": 7251,
      "🐆": 7252,
      "🐇": 7253,
      "🐈": 7254,
      "🐊": 7255,
      "🐋": 7256,
      "🐌": 7257,
      "🐍": 7258,
      "🐎": 7259,
      "🐐": 7260,
      "🐒": 7261,
      "🐓": 7262,
      "🐔": 7263,
      "🐕": 7264,
      "🐖": 7265,
      "🐘": 7266,
      "🐛": 7267,
      "🐜": 7268,
      "🐝": 7269,
      "🐟": 7270,
      "🐠": 7271,
      "🐡": 7272,
      "🐢": 7273,
      "🐣": 7274,
      "🐤": 7275,
      "🐦": 7276,
      "🐧": 7277,
      "🐨": 7278,
      "🐩": 7279,
      "🐬": 7280,
      "🐭": 7281,
      "🐮": 7282,
      "🐯": 7283,
      "🐰": 7284,
      "🐱": 7285,
      "🐲": 7286,
      "🐴": 7287,
      "🐵": 7288,
      "🐶": 7289,
      "🐷": 7290,
      "🐸": 7291,
      "🐹": 7292,
      "🐺": 7293,
      "🐻": 7294,
      "🐼": 7295,
      "🐽": 7296,
      "🐾": 7297,
      "👀": 7298,
      "👁": 7299,
      "👂": 7300,
      "👃": 7301,
      "👄": 7302,
      "👅": 7303,
      "👆": 7304,
      "👇": 7305,
      "👈": 7306,
      "👉": 7307,
      "👊": 7308,
      "👋": 7309,
      "👌": 7310,
      "👍": 7311,
      "👎": 7312,
      "👏": 7313,
      "👐": 7314,
      "👑": 7315,
      "👓": 7316,
      "👔": 7317,
      "👕": 7318,
      "👗": 7319,
      "👚": 7320,
      "👟": 7321,
      "👠": 7322,
      "👣": 7323,
      "👤": 7324,
      "👥": 7325,
      "👦": 7326,
      "👧": 7327,
      "👨": 7328,
      "👩": 7329,
      "👪": 7330,
      "👫": 7331,
      "👯": 7332,
      "👱": 7333,
      "👳": 7334,
      "👵": 7335,
      "👶": 7336,
      "👷": 7337,
      "👸": 7338,
      "👹": 7339,
      "👻": 7340,
      "👾": 7341,
      "💀": 7342,
      "💁": 7343,
      "💃": 7344,
      "💄": 7345,
      "💅": 7346,
      "💆": 7347,
      "💈": 7348,
      "💉": 7349,
      "💊": 7350,
      "💋": 7351,
      "💌": 7352,
      "💍": 7353,
      "💎": 7354,
      "💐": 7355,
      "💒": 7356,
      "💓": 7357,
      "💔": 7358,
      "💕": 7359,
      "💖": 7360,
      "💗": 7361,
      "💘": 7362,
      "💙": 7363,
      "💚": 7364,
      "💛": 7365,
      "💜": 7366,
      "💝": 7367,
      "💞": 7368,
      "💟": 7369,
      "💡": 7370,
      "💤": 7371,
      "💥": 7372,
      "💦": 7373,
      "💧": 7374,
      "💨": 7375,
      "💩": 7376,
      "💪": 7377,
      "💫": 7378,
      "💬": 7379,
      "💭": 7380,
      "💯": 7381,
      "💰": 7382,
      "💵": 7383,
      "💸": 7384,
      "💹": 7385,
      "💻": 7386,
      "💼": 7387,
      "💽": 7388,
      "💾": 7389,
      "📁": 7390,
      "📂": 7391,
      "📃": 7392,
      "📄": 7393,
      "📅": 7394,
      "📈": 7395,
      "📉": 7396,
      "📊": 7397,
      "📋": 7398,
      "📌": 7399,
      "📍": 7400,
      "📏": 7401,
      "📐": 7402,
      "📑": 7403,
      "📒": 7404,
      "📓": 7405,
      "📔": 7406,
      "📕": 7407,
      "📖": 7408,
      "📗": 7409,
      "📘": 7410,
      "📙": 7411,
      "📚": 7412,
      "📛": 7413,
      "📜": 7414,
      "📝": 7415,
      "📞": 7416,
      "📟": 7417,
      "📡": 7418,
      "📢": 7419,
      "📣": 7420,
      "📤": 7421,
      "📥": 7422,
      "📦": 7423,
      "📧": 7424,
      "📨": 7425,
      "📩": 7426,
      "📬": 7427,
      "📮": 7428,
      "📰": 7429,
      "📱": 7430,
      "📲": 7431,
      "📷": 7432,
      "📸": 7433,
      "📹": 7434,
      "📺": 7435,
      "📼": 7436,
      "📽": 7437,
      "📿": 7438,
      "🔀": 7439,
      "🔂": 7440,
      "🔄": 7441,
      "🔆": 7442,
      "🔇": 7443,
      "🔊": 7444,
      "🔋": 7445,
      "🔌": 7446,
      "🔍": 7447,
      "🔎": 7448,
      "🔐": 7449,
      "🔑": 7450,
      "🔒": 7451,
      "🔓": 7452,
      "🔔": 7453,
      "🔖": 7454,
      "🔗": 7455,
      "🔘": 7456,
      "🔚": 7457,
      "🔜": 7458,
      "🔝": 7459,
      "🔞": 7460,
      "🔢": 7461,
      "🔤": 7462,
      "🔥": 7463,
      "🔦": 7464,
      "🔧": 7465,
      "🔨": 7466,
      "🔩": 7467,
      "🔪": 7468,
      "🔫": 7469,
      "🔬": 7470,
      "🔭": 7471,
      "🔮": 7472,
      "🔰": 7473,
      "🔱": 7474,
      "🔲": 7475,
      "🔴": 7476,
      "🔵": 7477,
      "🔶": 7478,
      "🔸": 7479,
      "🔹": 7480,
      "🔺": 7481,
      "🔻": 7482,
      "🔼": 7483,
      "🔽": 7484,
      "🕊": 7485,
      "🕑": 7486,
      "🕒": 7487,
      "🕔": 7488,
      "🕯": 7489,
      "🕰": 7490,
      "🕳": 7491,
      "🕵": 7492,
      "🕶": 7493,
      "🕷": 7494,
      "🕸": 7495,
      "🕹": 7496,
      "🕺": 7497,
      "🖇": 7498,
      "🖊": 7499,
      "🖋": 7500,
      "🖌": 7501,
      "🖍": 7502,
      "🖐": 7503,
      "🖖": 7504,
      "🖤": 7505,
      "🖥": 7506,
      "🖨": 7507,
      "🖱": 7508,
      "🖹": 7509,
      "🖼": 7510,
      "🗂": 7511,
      "🗓": 7512,
      "🗖": 7513,
      "🗝": 7514,
      "🗡": 7515,
      "🗣": 7516,
      "🗺": 7517,
      "🗻": 7518,
      "😀": 7519,
      "😁": 7520,
      "😂": 7521,
      "😃": 7522,
      "😄": 7523,
      "😅": 7524,
      "😆": 7525,
      "😇": 7526,
      "😈": 7527,
      "😉": 7528,
      "😊": 7529,
      "😋": 7530,
      "😌": 7531,
      "😍": 7532,
      "😎": 7533,
      "😏": 7534,
      "😐": 7535,
      "😑": 7536,
      "😒": 7537,
      "😓": 7538,
      "😔": 7539,
      "😕": 7540,
      "😖": 7541,
      "😗": 7542,
      "😘": 7543,
      "😙": 7544,
      "😛": 7545,
      "😜": 7546,
      "😝": 7547,
      "😞": 7548,
      "😟": 7549,
      "😠": 7550,
      "😡": 7551,
      "😢": 7552,
      "😣": 7553,
      "😤": 7554,
      "😥": 7555,
      "😦": 7556,
      "😨": 7557,
      "😩": 7558,
      "😪": 7559,
      "😫": 7560,
      "😬": 7561,
      "😭": 7562,
      "😮": 7563,
      "😯": 7564,
      "😰": 7565,
      "😱": 7566,
      "😲": 7567,
      "😳": 7568,
      "😴": 7569,
      "😵": 7570,
      "😶": 7571,
      "😷": 7572,
      "😸": 7573,
      "😹": 7574,
      "😺": 7575,
      "😻": 7576,
      "😼": 7577,
      "😽": 7578,
      "😾": 7579,
      "😿": 7580,
      "🙀": 7581,
      "🙁": 7582,
      "🙂": 7583,
      "🙃": 7584,
      "🙄": 7585,
      "🙅": 7586,
      "🙆": 7587,
      "🙈": 7588,
      "🙋": 7589,
      "🙌": 7590,
      "🙍": 7591,
      "🙏": 7592,
      "🚀": 7593,
      "🚁": 7594,
      "🚄": 7595,
      "🚅": 7596,
      "🚆": 7597,
      "🚉": 7598,
      "🚍": 7599,
      "🚑": 7600,
      "🚒": 7601,
      "🚗": 7602,
      "🚙": 7603,
      "🚚": 7604,
      "🚜": 7605,
      "🚢": 7606,
      "🚣": 7607,
      "🚦": 7608,
      "🚧": 7609,
      "🚨": 7610,
      "🚩": 7611,
      "🚪": 7612,
      "🚫": 7613,
      "🚬": 7614,
      "🚭": 7615,
      "🚮": 7616,
      "🚰": 7617,
      "🚱": 7618,
      "🚲": 7619,
      "🚴": 7620,
      "🚵": 7621,
      "🚶": 7622,
      "🚿": 7623,
      "🛁": 7624,
      "🛈": 7625,
      "🛋": 7626,
      "🛌": 7627,
      "🛍": 7628,
      "🛏": 7629,
      "🛑": 7630,
      "🛒": 7631,
      "🛠": 7632,
      "🛡": 7633,
      "🛢": 7634,
      "🛣": 7635,
      "🛩": 7636,
      "🛰": 7637,
      "🛶": 7638,
      "🛸": 7639,
      "🜨": 7640,
      "🟠": 7641,
      "🟡": 7642,
      "🟢": 7643,
      "🟣": 7644,
      "🟥": 7645,
      "🟩": 7646,
      "🟫": 7647,
      "🡪": 7648,
      "🢬": 7649,
      "🢭": 7650,
      "🤌": 7651,
      "🤍": 7652,
      "🤎": 7653,
      "🤐": 7654,
      "🤓": 7655,
      "🤔": 7656,
      "🤖": 7657,
      "🤗": 7658,
      "🤘": 7659,
      "🤙": 7660,
      "🤚": 7661,
      "🤝": 7662,
      "🤞": 7663,
      "🤟": 7664,
      "🤠": 7665,
      "🤡": 7666,
      "🤢": 7667,
      "🤣": 7668,
      "🤤": 7669,
      "🤦": 7670,
      "🤧": 7671,
      "🤨": 7672,
      "🤩": 7673,
      "🤪": 7674,
      "🤫": 7675,
      "🤬": 7676,
      "🤭": 7677,
      "🤮": 7678,
      "🤯": 7679,
      "🤰": 7680,
      "🤲": 7681,
      "🤴": 7682,
      "🤷": 7683,
      "🤸": 7684,
      "🤿": 7685,
      "🥂": 7686,
      "🥃": 7687,
      "🥅": 7688,
      "🥇": 7689,
      "🥊": 7690,
      "🥐": 7691,
      "🥑": 7692,
      "🥒": 7693,
      "🥔": 7694,
      "🥕": 7695,
      "🥖": 7696,
      "🥗": 7697,
      "🥘": 7698,
      "🥚": 7699,
      "🥛": 7700,
      "🥜": 7701,
      "🥝": 7702,
      "🥟": 7703,
      "🥢": 7704,
      "🥣": 7705,
      "🥤": 7706,
      "🥥": 7707,
      "🥦": 7708,
      "🥧": 7709,
      "🥩": 7710,
      "🥫": 7711,
      "🥬": 7712,
      "🥭": 7713,
      "🥮": 7714,
      "🥯": 7715,
      "🥰": 7716,
      "🥱": 7717,
      "🥲": 7718,
      "🥳": 7719,
      "🥵": 7720,
      "🥶": 7721,
      "🥹": 7722,
      "🥺": 7723,
      "🥽": 7724,
      "🥾": 7725,
      "🦀": 7726,
      "🦁": 7727,
      "🦃": 7728,
      "🦄": 7729,
      "🦅": 7730,
      "🦆": 7731,
      "🦇": 7732,
      "🦈": 7733,
      "🦉": 7734,
      "🦊": 7735,
      "🦋": 7736,
      "🦌": 7737,
      "🦍": 7738,
      "🦎": 7739,
      "🦑": 7740,
      "🦒": 7741,
      "🦗": 7742,
      "🦜": 7743,
      "🦞": 7744,
      "🦟": 7745,
      "🦠": 7746,
      "🦢": 7747,
      "🦩": 7748,
      "🦮": 7749,
      "🦷": 7750,
      "🦸": 7751,
      "🦺": 7752,
      "🦾": 7753,
      "🧀": 7754,
      "🧁": 7755,
      "🧄": 7756,
      "🧅": 7757,
      "🧊": 7758,
      "🧐": 7759,
      "🧑": 7760,
      "🧒": 7761,
      "🧗": 7762,
      "🧘": 7763,
      "🧙": 7764,
      "🧚": 7765,
      "🧠": 7766,
      "🧡": 7767,
      "🧣": 7768,
      "🧥": 7769,
      "🧦": 7770,
      "🧩": 7771,
      "🧪": 7772,
      "🧫": 7773,
      "🧬": 7774,
      "🧮": 7775,
      "🧰": 7776,
      "🧱": 7777,
      "🧲": 7778,
      "🧳": 7779,
      "🧴": 7780,
      "🧵": 7781,
      "🧶": 7782,
      "🧹": 7783,
      "🧺": 7784,
      "🧻": 7785,
      "🧼": 7786,
      "🧾": 7787,
      "🩲": 7788,
      "🩳": 7789,
      "🩹": 7790,
      "🩺": 7791,
      "🪐": 7792,
      "🪑": 7793,
      "🪞": 7794,
      "🪟": 7795,
      "🪨": 7796,
      "🪮": 7797,
      "🪴": 7798,
      "🪹": 7799,
      "🪺": 7800,
      "🫀": 7801,
      "🫐": 7802,
      "🫠": 7803,
      "🫡": 7804,
      "🫤": 7805,
      "𠂉": 7806,
      "󈝸": 7807,
      "󈝿": 7808,
      "󈞵": 7809,
      "󱜂": 7810,
      "󱜉": 7811,
      "󲀃": 7812,
      "󸀠": 7813,
      "􀀀": 7814,
      "􀁵": 7815,
      "􀂃": 7816,
      "􀃙": 7817,
      "􀆩": 7818,
      "th": 7819,
      "in": 7820,
      "an": 7821,
      "er": 7822,
      "on": 7823,
      "re": 7824,
      "the": 7825,
      "at": 7826,
      "en": 7827,
      "es": 7828,
      "or": 7829,
      "al": 7830,
      "ou": 7831,
      "ing": 7832,
      "is": 7833,
      "to": 7834,
      "and": 7835,
      "ed": 7836,
      "ti": 7837,
      "ar": 7838,
      "of": 7839,
      "as": 7840,
      "it": 7841,
      "le": 7842,
      "ro": 7843,
      "st": 7844,
      "ic": 7845,
      "ac": 7846,
      "se": 7847,
      "ve": 7848,
      "ent": 7849,
      "he": 7850,
      "ly": 7851,
      "om": 7852,
      "be": 7853,
      "ion": 7854,
      "il": 7855,
      "ch": 7856,
      "for": 7857,
      "lo": 7858,
      "de": 7859,
      "you": 7860,
      "tion": 7861,
      "are": 7862,
      "su": 7863,
      "ig": 7864,
      "ol": 7865,
      "ation": 7866,
      "ce": 7867,
      "am": 7868,
      "that": 7869,
      "ter": 7870,
      "ad": 7871,
      "wh": 7872,
      "ver": 7873,
      "ir": 7874,
      "ow": 7875,
      "ab": 7876,
      "pro": 7877,
      "ec": 7878,
      "ay": 7879,
      "ge": 7880,
      "ith": 7881,
      "ts": 7882,
      "im": 7883,
      "mo": 7884,
      "us": 7885,
      "id": 7886,
      "con": 7887,
      "tr": 7888,
      "un": 7889,
      "ur": 7890,
      "with": 7891,
      "ul": 7892,
      "com": 7893,
      "The": 7894,
      "ke": 7895,
      "ap": 7896,
      "me": 7897,
      "ex": 7898,
      "pl": 7899,
      "ot": 7900,
      "di": 7901,
      "res": 7902,
      "can": 7903,
      "ther": 7904,
      "we": 7905,
      "ut": 7906,
      "per": 7907,
      "li": 7908,
      "ain": 7909,
      "ess": 7910,
      "ate": 7911,
      "ne": 7912,
      "igh": 7913,
      "ment": 7914,
      "te": 7915,
      "ha": 7916,
      "sp": 7917,
      "so": 7918,
      "qu": 7919,
      "all": 7920,
      "od": 7921,
      "ill": 7922,
      "your": 7923,
      "sh": 7924,
      "ll": 7925,
      "out": 7926,
      "ld": 7927,
      "ers": 7928,
      "ity": 7929,
      "op": 7930,
      "um": 7931,
      "oun": 7932,
      "Th": 7933,
      "uc": 7934,
      "rom": 7935,
      "our": 7936,
      "do": 7937,
      "ant": 7938,
      "ag": 7939,
      "ff": 7940,
      "tic": 7941,
      "po": 7942,
      "have": 7943,
      "one": 7944,
      "from": 7945,
      "ere": 7946,
      "si": 7947,
      "by": 7948,
      "Wh": 7949,
      "fe": 7950,
      "ri": 7951,
      "pe": 7952,
      "ally": 7953,
      "est": 7954,
      "ome": 7955,
      "ma": 7956,
      "co": 7957,
      "not": 7958,
      "ure": 7959,
      "cl": 7960,
      "gr": 7961,
      "wor": 7962,
      "ight": 7963,
      "if": 7964,
      "An": 7965,
      "this": 7966,
      "low": 7967,
      "In": 7968,
      "ine": 7969,
      "em": 7970,
      "use": 7971,
      "ould": 7972,
      "age": 7973,
      "able": 7974,
      "end": 7975,
      "ist": 7976,
      "gh": 7977,
      "et": 7978,
      "ard": 7979,
      "ci": 7980,
      "vi": 7981,
      "ind": 7982,
      "ust": 7983,
      "ich": 7984,
      "fo": 7985,
      "will": 7986,
      "any": 7987,
      "ach": 7988,
      "they": 7989,
      "their": 7990,
      "was": 7991,
      "cre": 7992,
      "up": 7993,
      "ound": 7994,
      "ort": 7995,
      "ect": 7996,
      "king": 7997,
      "but": 7998,
      "par": 7999,
      "ater": 8000,
      "ies": 8001,
      "more": 8002,
      "ough": 8003,
      "sw": 8004,
      "act": 8005,
      "der": 8006,
      "other": 8007,
      "ated": 8008,
      "ear": 8009,
      "no": 8010,
      "el": 8011,
      "estion": 8012,
      "dis": 8013,
      "ud": 8014,
      "form": 8015,
      "ple": 8016,
      "pr": 8017,
      "pre": 8018,
      "go": 8019,
      "has": 8020,
      "bo": 8021,
      "ous": 8022,
      "ence": 8023,
      "av": 8024,
      "its": 8025,
      "ty": 8026,
      "some": 8027,
      "00": 8028,
      "str": 8029,
      "ks": 8030,
      "which": 8031,
      "ting": 8032,
      "Qu": 8033,
      "ance": 8034,
      "ong": 8035,
      "now": 8036,
      "swer": 8037,
      "duc": 8038,
      "ive": 8039,
      "ev": 8040,
      "It": 8041,
      "ign": 8042,
      "br": 8043,
      "ta": 8044,
      "cont": 8045,
      "ca": 8046,
      "ep": 8047,
      "ace": 8048,
      "ical": 8049,
      "sy": 8050,
      "way": 8051,
      "ans": 8052,
      "like": 8053,
      "ass": 8054,
      "ph": 8055,
      "Question": 8056,
      "ble": 8057,
      "ack": 8058,
      "also": 8059,
      "This": 8060,
      "Answer": 8061,
      "What": 8062,
      "port": 8063,
      "gen": 8064,
      "tions": 8065,
      "ations": 8066,
      "very": 8067,
      "lec": 8068,
      "them": 8069,
      "tive": 8070,
      "ial": 8071,
      "ents": 8072,
      "iz": 8073,
      "about": 8074,
      "enti": 8075,
      "pres": 8076,
      "ary": 8077,
      "ish": 8078,
      "ast": 8079,
      "ame": 8080,
      "time": 8081,
      "ase": 8082,
      "ors": 8083,
      "..": 8084,
      "cess": 8085,
      "col": 8086,
      "comm": 8087,
      "get": 8088,
      "when": 8089,
      "ber": 8090,
      "ten": 8091,
      "red": 8092,
      "ip": 8093,
      "log": 8094,
      "spec": 8095,
      "ild": 8096,
      "thing": 8097,
      "ating": 8098,
      "hel": 8099,
      "inter": 8100,
      "ue": 8101,
      "how": 8102,
      "ite": 8103,
      "ful": 8104,
      "over": 8105,
      "rec": 8106,
      "20": 8107,
      "own": 8108,
      "ren": 8109,
      "need": 8110,
      "ser": 8111,
      "than": 8112,
      "diff": 8113,
      "ide": 8114,
      "used": 8115,
      "into": 8116,
      "sa": 8117,
      "ice": 8118,
      "ile": 8119,
      "ang": 8120,
      "may": 8121,
      "art": 8122,
      "ree": 8123,
      "row": 8124,
      "comp": 8125,
      "bl": 8126,
      "ves": 8127,
      "bet": 8128,
      "there": 8129,
      "ra": 8130,
      "ari": 8131,
      "des": 8132,
      "know": 8133,
      "ok": 8134,
      "water": 8135,
      "most": 8136,
      "enc": 8137,
      "work": 8138,
      "als": 8139,
      "help": 8140,
      "stem": 8141,
      "fl": 8142,
      "wo": 8143,
      "cur": 8144,
      "these": 8145,
      "ry": 8146,
      "ties": 8147,
      "car": 8148,
      "cor": 8149,
      "ving": 8150,
      "high": 8151,
      "what": 8152,
      "cho": 8153,
      "man": 8154,
      "fer": 8155,
      "day": 8156,
      "alth": 8157,
      "differ": 8158,
      "year": 8159,
      "rough": 8160,
      "new": 8161,
      "ens": 8162,
      "ob": 8163,
      "How": 8164,
      "If": 8165,
      "ms": 8166,
      "ory": 8167,
      "ext": 8168,
      "min": 8169,
      "who": 8170,
      "reat": 8171,
      "cause": 8172,
      "ular": 8173,
      "ning": 8174,
      "air": 8175,
      "sur": 8176,
      "int": 8177,
      "tim": 8178,
      "sure": 8179,
      "such": 8180,
      "just": 8181,
      "ven": 8182,
      "pos": 8183,
      "ia": 8184,
      "ople": 8185,
      "system": 8186,
      "eff": 8187,
      "fi": 8188,
      "ates": 8189,
      "bu": 8190,
      "under": 8191,
      "ments": 8192,
      "fore": 8193,
      "produc": 8194,
      "my": 8195,
      "only": 8196,
      "make": 8197,
      "les": 8198,
      "incl": 8199,
      "fr": 8200,
      "were": 8201,
      "loc": 8202,
      "should": 8203,
      "vid": 8204,
      "au": 8205,
      "read": 8206,
      "ak": 8207,
      "arch": 8208,
      "old": 8209,
      "been": 8210,
      "lear": 8211,
      "sion": 8212,
      "people": 8213,
      "through": 8214,
      "would": 8215,
      "reg": 8216,
      "ick": 8217,
      "fir": 8218,
      "stand": 8219,
      "stud": 8220,
      "ative": 8221,
      "sc": 8222,
      "plan": 8223,
      "ted": 8224,
      ").": 8225,
      "well": 8226,
      "mon": 8227,
      "ose": 8228,
      "where": 8229,
      "vel": 8230,
      "ange": 8231,
      "eng": 8232,
      "med": 8233,
      "tain": 8234,
      "Ch": 8235,
      "We": 8236,
      "main": 8237,
      "ility": 8238,
      "requ": 8239,
      "less": 8240,
      "many": 8241,
      "ific": 8242,
      "using": 8243,
      "tri": 8244,
      "long": 8245,
      "ise": 8246,
      "mer": 8247,
      "ever": 8248,
      "oc": 8249,
      "ef": 8250,
      "ys": 8251,
      "ew": 8252,
      "val": 8253,
      "ures": 8254,
      "You": 8255,
      "ved": 8256,
      "health": 8257,
      "ss": 8258,
      "lop": 8259,
      "rel": 8260,
      "light": 8261,
      "cons": 8262,
      "19": 8263,
      "af": 8264,
      "tur": 8265,
      "vir": 8266,
      "two": 8267,
      "cer": 8268,
      "St": 8269,
      "sul": 8270,
      "che": 8271,
      "off": 8272,
      "does": 8273,
      "ink": 8274,
      "cent": 8275,
      "peri": 8276,
      "then": 8277,
      "first": 8278,
      "sel": 8279,
      "app": 8280,
      "her": 8281,
      "bas": 8282,
      "velop": 8283,
      "fun": 8284,
      "uring": 8285,
      "ween": 8286,
      "ni": 8287,
      "ual": 8288,
      "io": 8289,
      "anc": 8290,
      "ature": 8291,
      "different": 8292,
      "sol": 8293,
      "erg": 8294,
      "mar": 8295,
      "sim": 8296,
      "sup": 8297,
      "process": 8298,
      "ds": 8299,
      "ons": 8300,
      "10": 8301,
      "They": 8302,
      "between": 8303,
      "vari": 8304,
      "import": 8305,
      "vers": 8306,
      "come": 8307,
      "aw": 8308,
      "vis": 8309,
      "sm": 8310,
      "lar": 8311,
      "eas": 8312,
      "sign": 8313,
      "even": 8314,
      "ture": 8315,
      "back": 8316,
      "tem": 8317,
      "food": 8318,
      "search": 8319,
      "develop": 8320,
      "cr": 8321,
      "grow": 8322,
      "see": 8323,
      "tech": 8324,
      "could": 8325,
      "For": 8326,
      "because": 8327,
      "uch": 8328,
      "ings": 8329,
      "set": 8330,
      "ese": 8331,
      "each": 8332,
      "exp": 8333,
      "top": 8334,
      "--": 8335,
      "fact": 8336,
      "land": 8337,
      "ail": 8338,
      "every": 8339,
      "hy": 8340,
      "cus": 8341,
      "part": 8342,
      "sk": 8343,
      "play": 8344,
      "sti": 8345,
      "ower": 8346,
      "bre": 8347,
      "struc": 8348,
      "don": 8349,
      "cell": 8350,
      "try": 8351,
      "Re": 8352,
      "vol": 8353,
      "fin": 8354,
      "sub": 8355,
      "atter": 8356,
      "dr": 8357,
      "gener": 8358,
      "pers": 8359,
      "tional": 8360,
      "cle": 8361,
      "sing": 8362,
      "ects": 8363,
      "elec": 8364,
      "add": 8365,
      "arm": 8366,
      "vide": 8367,
      "gan": 8368,
      "gs": 8369,
      "hum": 8370,
      "ider": 8371,
      "incre": 8372,
      "life": 8373,
      "num": 8374,
      "To": 8375,
      "ath": 8376,
      "ps": 8377,
      "take": 8378,
      "fol": 8379,
      "ily": 8380,
      "ho": 8381,
      "much": 8382,
      "gu": 8383,
      "resp": 8384,
      "dat": 8385,
      "coun": 8386,
      "logy": 8387,
      "design": 8388,
      "includ": 8389,
      "being": 8390,
      "As": 8391,
      "good": 8392,
      "exam": 8393,
      "ness": 8394,
      "acti": 8395,
      "important": 8396,
      "ck": 8397,
      "had": 8398,
      "line": 8399,
      "ody": 8400,
      "while": 8401,
      "ential": 8402,
      "soci": 8403,
      "child": 8404,
      "ie": 8405,
      "years": 8406,
      "ways": 8407,
      "find": 8408,
      "tal": 8409,
      "research": 8410,
      "down": 8411,
      "his": 8412,
      "ability": 8413,
      "small": 8414,
      "There": 8415,
      "del": 8416,
      "after": 8417,
      "ergy": 8418,
      "ire": 8419,
      "Con": 8420,
      "ici": 8421,
      "viron": 8422,
      "tle": 8423,
      "want": 8424,
      "ages": 8425,
      "allow": 8426,
      "tra": 8427,
      "formation": 8428,
      "ins": 8429,
      "Al": 8430,
      "So": 8431,
      "mal": 8432,
      "level": 8433,
      "found": 8434,
      "),": 8435,
      "power": 8436,
      "When": 8437,
      "gram": 8438,
      "hand": 8439,
      "char": 8440,
      "trans": 8441,
      "resul": 8442,
      "care": 8443,
      "ze": 8444,
      "world": 8445,
      "put": 8446,
      "por": 8447,
      "mem": 8448,
      "ress": 8449,
      "ational": 8450,
      "tor": 8451,
      "ding": 8452,
      "body": 8453,
      "call": 8454,
      "gi": 8455,
      "cri": 8456,
      "uni": 8457,
      "ters": 8458,
      "ines": 8459,
      "ject": 8460,
      "gre": 8461,
      "uce": 8462,
      "plant": 8463,
      "tom": 8464,
      "comple": 8465,
      "...": 8466,
      "ality": 8467,
      "Pro": 8468,
      "ati": 8469,
      "pot": 8470,
      "around": 8471,
      "ists": 8472,
      "place": 8473,
      "before": 8474,
      "ics": 8475,
      "follow": 8476,
      "during": 8477,
      "He": 8478,
      "aterial": 8479,
      "cap": 8480,
      "ger": 8481,
      "En": 8482,
      "ution": 8483,
      "Mo": 8484,
      "cep": 8485,
      "mis": 8486,
      "same": 8487,
      "cul": 8488,
      "atur": 8489,
      "kes": 8490,
      "vironment": 8491,
      "typ": 8492,
      "proble": 8493,
      "self": 8494,
      "partic": 8495,
      "made": 8496,
      "contro": 8497,
      "dep": 8498,
      "ication": 8499,
      "atch": 8500,
      "often": 8501,
      "led": 8502,
      "right": 8503,
      "serv": 8504,
      "those": 8505,
      "side": 8506,
      "clo": 8507,
      "lead": 8508,
      "anim": 8509,
      "energy": 8510,
      "201": 8511,
      "let": 8512,
      "ub": 8513,
      "ner": 8514,
      "keep": 8515,
      "both": 8516,
      "gl": 8517,
      "data": 8518,
      "electr": 8519,
      "dition": 8520,
      "These": 8521,
      "show": 8522,
      "experi": 8523,
      "issu": 8524,
      "ris": 8525,
      "ste": 8526,
      "person": 8527,
      "ices": 8528,
      "sci": 8529,
      "chool": 8530,
      "say": 8531,
      "too": 8532,
      "vent": 8533,
      "material": 8534,
      "ically": 8535,
      "best": 8536,
      ".\"": 8537,
      "provid": 8538,
      "But": 8539,
      "mp": 8540,
      "posi": 8541,
      "organ": 8542,
      "pop": 8543,
      "she": 8544,
      "ship": 8545,
      "sible": 8546,
      "ions": 8547,
      "wr": 8548,
      "cover": 8549,
      "though": 8550,
      "Com": 8551,
      "appro": 8552,
      "nec": 8553,
      "ward": 8554,
      "home": 8555,
      "move": 8556,
      "gg": 8557,
      "Un": 8558,
      "ey": 8559,
      "ude": 8560,
      "ction": 8561,
      "And": 8562,
      "consider": 8563,
      "pu": 8564,
      "face": 8565,
      "cy": 8566,
      "lit": 8567,
      "que": 8568,
      "rect": 8569,
      "times": 8570,
      "ats": 8571,
      "view": 8572,
      "environment": 8573,
      "understand": 8574,
      "sive": 8575,
      "ective": 8576,
      "ually": 8577,
      "tern": 8578,
      "pol": 8579,
      "ake": 8580,
      "imp": 8581,
      "information": 8582,
      "present": 8583,
      "ft": 8584,
      "equ": 8585,
      "spe": 8586,
      "species": 8587,
      "aff": 8588,
      "bal": 8589,
      "Ex": 8590,
      "flow": 8591,
      "ited": 8592,
      "thod": 8593,
      "look": 8594,
      "proper": 8595,
      "Ad": 8596,
      "start": 8597,
      "acter": 8598,
      "ected": 8599,
      "adv": 8600,
      "said": 8601,
      "appl": 8602,
      "ash": 8603,
      "change": 8604,
      "ben": 8605,
      "cal": 8606,
      "jo": 8607,
      "number": 8608,
      "tical": 8609,
      "fam": 8610,
      "ants": 8611,
      "dri": 8612,
      "bon": 8613,
      "200": 8614,
      "grap": 8615,
      "temper": 8616,
      "known": 8617,
      "pur": 8618,
      "respon": 8619,
      "might": 8620,
      "based": 8621,
      "divid": 8622,
      "program": 8623,
      "On": 8624,
      "here": 8625,
      "fish": 8626,
      "prot": 8627,
      "fac": 8628,
      "making": 8629,
      "treat": 8630,
      "specific": 8631,
      "plants": 8632,
      "study": 8633,
      "provide": 8634,
      "ave": 8635,
      "ids": 8636,
      "ord": 8637,
      "ences": 8638,
      "adi": 8639,
      "ason": 8640,
      "head": 8641,
      "type": 8642,
      "build": 8643,
      "safe": 8644,
      "prof": 8645,
      "turn": 8646,
      "better": 8647,
      "However": 8648,
      "os": 8649,
      "lim": 8650,
      "few": 8651,
      "dam": 8652,
      "grou": 8653,
      "without": 8654,
      "ized": 8655,
      "including": 8656,
      "did": 8657,
      "great": 8658,
      "method": 8659,
      "vity": 8660,
      "mi": 8661,
      "mic": 8662,
      "chang": 8663,
      "still": 8664,
      "cu": 8665,
      "Ar": 8666,
      "nor": 8667,
      "point": 8668,
      "ces": 8669,
      "aren": 8670,
      "pho": 8671,
      "students": 8672,
      "rent": 8673,
      "large": 8674,
      "impro": 8675,
      "Be": 8676,
      "ili": 8677,
      ",\"": 8678,
      "run": 8679,
      "Do": 8680,
      "sever": 8681,
      "pain": 8682,
      "test": 8683,
      "ket": 8684,
      "example": 8685,
      "tics": 8686,
      "men": 8687,
      "pri": 8688,
      "ince": 8689,
      "ases": 8690,
      "blo": 8691,
      "natur": 8692,
      "feel": 8693,
      "ele": 8694,
      "icul": 8695,
      "12": 8696,
      "action": 8697,
      "common": 8698,
      "think": 8699,
      "bir": 8700,
      "free": 8701,
      "ush": 8702,
      "anti": 8703,
      "uses": 8704,
      "ently": 8705,
      "bit": 8706,
      "room": 8707,
      "human": 8708,
      "control": 8709,
      "bi": 8710,
      "ared": 8711,
      "perform": 8712,
      "happ": 8713,
      "comes": 8714,
      "Is": 8715,
      "commun": 8716,
      "dro": 8717,
      "dog": 8718,
      "lot": 8719,
      "til": 8720,
      "contain": 8721,
      "create": 8722,
      "Pl": 8723,
      "ety": 8724,
      "again": 8725,
      "benef": 8726,
      "oper": 8727,
      "text": 8728,
      "depend": 8729,
      "ection": 8730,
      "order": 8731,
      "term": 8732,
      "sen": 8733,
      "ather": 8734,
      "ately": 8735,
      "three": 8736,
      "learn": 8737,
      "ouse": 8738,
      "ross": 8739,
      "50": 8740,
      "ize": 8741,
      "raw": 8742,
      "going": 8743,
      "support": 8744,
      "techno": 8745,
      "Can": 8746,
      "ark": 8747,
      "step": 8748,
      "De": 8749,
      "cour": 8750,
      "called": 8751,
      "school": 8752,
      "versity": 8753,
      "flu": 8754,
      "appe": 8755,
      "ency": 8756,
      "atures": 8757,
      "sum": 8758,
      "question": 8759,
      "oking": 8760,
      "class": 8761,
      "sit": 8762,
      "inf": 8763,
      "ox": 8764,
      "things": 8765,
      "dist": 8766,
      "hard": 8767,
      "att": 8768,
      "model": 8769,
      "tail": 8770,
      "real": 8771,
      "possible": 8772,
      "must": 8773,
      "ired": 8774,
      "children": 8775,
      "contin": 8776,
      "sto": 8777,
      "meas": 8778,
      "sour": 8779,
      "ars": 8780,
      "ator": 8781,
      "dec": 8782,
      "Ac": 8783,
      "individ": 8784,
      "bed": 8785,
      "ital": 8786,
      "fort": 8787,
      "cost": 8788,
      "entif": 8789,
      "30": 8790,
      "ground": 8791,
      "state": 8792,
      "range": 8793,
      "area": 8794,
      "usu": 8795,
      "bio": 8796,
      "iness": 8797,
      "esp": 8798,
      "No": 8799,
      "post": 8800,
      "key": 8801,
      "within": 8802,
      "Some": 8803,
      "net": 8804,
      "publ": 8805,
      "000": 8806,
      "ased": 8807,
      "With": 8808,
      "__": 8809,
      "ism": 8810,
      "tre": 8811,
      "eld": 8812,
      "iting": 8813,
      "mul": 8814,
      "clean": 8815,
      "dev": 8816,
      "Co": 8817,
      "By": 8818,
      "current": 8819,
      "sec": 8820,
      "ications": 8821,
      "ug": 8822,
      "train": 8823,
      "tro": 8824,
      "la": 8825,
      "ask": 8826,
      "heat": 8827,
      "wee": 8828,
      "fur": 8829,
      "secon": 8830,
      "ply": 8831,
      "meric": 8832,
      "ones": 8833,
      "why": 8834,
      "Tr": 8835,
      "color": 8836,
      "natural": 8837,
      "quality": 8838,
      "avail": 8839,
      "ape": 8840,
      "something": 8841,
      "inst": 8842,
      "cording": 8843,
      "ns": 8844,
      "really": 8845,
      "include": 8846,
      "signific": 8847,
      "experience": 8848,
      "due": 8849,
      "fil": 8850,
      "18": 8851,
      "ute": 8852,
      "oid": 8853,
      "Americ": 8854,
      "bus": 8855,
      "nu": 8856,
      "tool": 8857,
      "phys": 8858,
      "ills": 8859,
      "another": 8860,
      "following": 8861,
      "open": 8862,
      "photo": 8863,
      "amoun": 8864,
      "space": 8865,
      "sed": 8866,
      "ton": 8867,
      "dies": 8868,
      "systems": 8869,
      "mus": 8870,
      "anal": 8871,
      "cells": 8872,
      "field": 8873,
      "soil": 8874,
      "size": 8875,
      "ances": 8876,
      "cir": 8877,
      "bs": 8878,
      "sal": 8879,
      "lay": 8880,
      "15": 8881,
      "ease": 8882,
      "ights": 8883,
      "ade": 8884,
      "One": 8885,
      "aper": 8886,
      "bers": 8887,
      "become": 8888,
      "thor": 8889,
      "various": 8890,
      "bab": 8891,
      "tell": 8892,
      "exper": 8893,
      "little": 8894,
      "At": 8895,
      "Sh": 8896,
      "fri": 8897,
      "means": 8898,
      "always": 8899,
      "ulation": 8900,
      "pass": 8901,
      "ession": 8902,
      "emp": 8903,
      "blood": 8904,
      "ank": 8905,
      "ring": 8906,
      "ax": 8907,
      "mean": 8908,
      "suc": 8909,
      "non": 8910,
      "invol": 8911,
      "ering": 8912,
      "gin": 8913,
      "That": 8914,
      "ished": 8915,
      "ests": 8916,
      "NA": 8917,
      "teach": 8918,
      "prevent": 8919,
      "needs": 8920,
      "Which": 8921,
      "temperature": 8922,
      "available": 8923,
      "oil": 8924,
      "logical": 8925,
      "pi": 8926,
      "cat": 8927,
      "reduc": 8928,
      "nam": 8929,
      "ref": 8930,
      "types": 8931,
      "hor": 8932,
      "certain": 8933,
      "whe": 8934,
      "cam": 8935,
      "educ": 8936,
      "og": 8937,
      "plac": 8938,
      "tw": 8939,
      "Res": 8940,
      "significant": 8941,
      "itch": 8942,
      "ended": 8943,
      "list": 8944,
      "learning": 8945,
      "hold": 8946,
      "ths": 8947,
      "pati": 8948,
      "rest": 8949,
      "problem": 8950,
      "effective": 8951,
      "ied": 8952,
      "offer": 8953,
      "ues": 8954,
      "New": 8955,
      "ling": 8956,
      "ination": 8957,
      "gard": 8958,
      "stu": 8959,
      "require": 8960,
      "aves": 8961,
      "ateg": 8962,
      "second": 8963,
      "bur": 8964,
      "und": 8965,
      "mag": 8966,
      "usually": 8967,
      "ier": 8968,
      "development": 8969,
      "imm": 8970,
      "expl": 8971,
      "book": 8972,
      "ards": 8973,
      "chan": 8974,
      "big": 8975,
      "weight": 8976,
      "inc": 8977,
      "ditions": 8978,
      "areas": 8979,
      "ale": 8980,
      "clim": 8981,
      "potential": 8982,
      "team": 8983,
      "several": 8984,
      "dig": 8985,
      "access": 8986,
      "house": 8987,
      "indust": 8988,
      "ready": 8989,
      "eds": 8990,
      "comb": 8991,
      "effici": 8992,
      "Pr": 8993,
      "gether": 8994,
      "ides": 8995,
      "tribut": 8996,
      "hist": 8997,
      "prim": 8998,
      "group": 8999,
      "ization": 9000,
      "give": 9001,
      "risk": 9002,
      "ali": 9003,
      "friend": 9004,
      "multi": 9005,
      "mil": 9006,
      "Uni": 9007,
      "cut": 9008,
      "case": 9009,
      "ensure": 9010,
      "surface": 9011,
      "aring": 9012,
      "sis": 9013,
      "havi": 9014,
      "ples": 9015,
      "occur": 9016,
      "disease": 9017,
      "enough": 9018,
      "atic": 9019,
      "animals": 9020,
      "active": 9021,
      "iti": 9022,
      "sof": 9023,
      "makes": 9024,
      "engine": 9025,
      "wind": 9026,
      "hic": 9027,
      "gene": 9028,
      "11": 9029,
      "working": 9030,
      "ilar": 9031,
      "lock": 9032,
      "conditions": 9033,
      "ious": 9034,
      "position": 9035,
      "gar": 9036,
      "wide": 9037,
      "feed": 9038,
      "mill": 9039,
      "beli": 9040,
      "last": 9041,
      "particular": 9042,
      "hour": 9043,
      "Sp": 9044,
      "inal": 9045,
      "aging": 9046,
      "mind": 9047,
      "Di": 9048,
      "lower": 9049,
      "interest": 9050,
      "together": 9051,
      "fully": 9052,
      "technology": 9053,
      "name": 9054,
      "function": 9055,
      "artic": 9056,
      "ying": 9057,
      "lab": 9058,
      "materials": 9059,
      "issues": 9060,
      "necess": 9061,
      "aster": 9062,
      "won": 9063,
      "ped": 9064,
      "bro": 9065,
      "ping": 9066,
      "jects": 9067,
      "pressure": 9068,
      "----": 9069,
      "ict": 9070,
      "sound": 9071,
      "Your": 9072,
      "ially": 9073,
      "away": 9074,
      "improve": 9075,
      "special": 9076,
      "medi": 9077,
      "outh": 9078,
      "works": 9079,
      "since": 9080,
      "green": 9081,
      "amount": 9082,
      "Wor": 9083,
      "kind": 9084,
      "tran": 9085,
      "family": 9086,
      "load": 9087,
      "Bo": 9088,
      "US": 9089,
      "Li": 9090,
      "behavi": 9091,
      "having": 9092,
      "selec": 9093,
      "direct": 9094,
      "likely": 9095,
      "impact": 9096,
      "until": 9097,
      "mix": 9098,
      "complete": 9099,
      "ane": 9100,
      "mical": 9101,
      "descri": 9102,
      "member": 9103,
      "levels": 9104,
      "days": 9105,
      "rele": 9106,
      "ories": 9107,
      "near": 9108,
      "problems": 9109,
      "far": 9110,
      "While": 9111,
      "success": 9112,
      "ond": 9113,
      "cept": 9114,
      "Le": 9115,
      "recomm": 9116,
      "sun": 9117,
      "nutri": 9118,
      "stain": 9119,
      "compu": 9120,
      "techni": 9121,
      "duce": 9122,
      "ables": 9123,
      "products": 9124,
      "production": 9125,
      "asing": 9126,
      "prote": 9127,
      "result": 9128,
      "den": 9129,
      "dom": 9130,
      "strong": 9131,
      "ls": 9132,
      "maintain": 9133,
      "results": 9134,
      "healthy": 9135,
      "acc": 9136,
      "early": 9137,
      "course": 9138,
      "aking": 9139,
      "ove": 9140,
      "AI": 9141,
      "16": 9142,
      "next": 9143,
      "short": 9144,
      "uro": 9145,
      "period": 9146,
      "def": 9147,
      "Or": 9148,
      "along": 9149,
      "eat": 9150,
      "Gr": 9151,
      "chall": 9152,
      "onom": 9153,
      "aim": 9154,
      "essential": 9155,
      "agement": 9156,
      "bot": 9157,
      "increase": 9158,
      "hab": 9159,
      "draw": 9160,
      "jor": 9161,
      "pose": 9162,
      "wood": 9163,
      "uture": 9164,
      "sugg": 9165,
      "University": 9166,
      "conn": 9167,
      "star": 9168,
      "xim": 9169,
      "ible": 9170,
      "oney": 9171,
      "Br": 9172,
      "Cl": 9173,
      "inv": 9174,
      "seem": 9175,
      "local": 9176,
      "value": 9177,
      "ening": 9178,
      "ither": 9179,
      "project": 9180,
      "Col": 9181,
      "others": 9182,
      "ler": 9183,
      "gas": 9184,
      "quick": 9185,
      "easy": 9186,
      "oring": 9187,
      "changes": 9188,
      "ene": 9189,
      "higher": 9190,
      "growth": 9191,
      "hol": 9192,
      "leg": 9193,
      "ced": 9194,
      "clear": 9195,
      "orig": 9196,
      "issue": 9197,
      "rate": 9198,
      "defin": 9199,
      "ches": 9200,
      "loss": 9201,
      "mach": 9202,
      "treatment": 9203,
      "measure": 9204,
      "business": 9205,
      "full": 9206,
      "fall": 9207,
      "une": 9208,
      "tract": 9209,
      "14": 9210,
      "CO": 9211,
      "stead": 9212,
      "doesn": 9213,
      "collec": 9214,
      "approach": 9215,
      "oks": 9216,
      "actually": 9217,
      "met": 9218,
      "least": 9219,
      "ecially": 9220,
      "100": 9221,
      "reduce": 9222,
      "social": 9223,
      "bar": 9224,
      "especially": 9225,
      "frequ": 9226,
      "stre": 9227,
      "sequ": 9228,
      "dry": 9229,
      "reach": 9230,
      "omen": 9231,
      "check": 9232,
      "live": 9233,
      "ental": 9234,
      "role": 9235,
      "bility": 9236,
      "rece": 9237,
      "ken": 9238,
      "lines": 9239,
      "profession": 9240,
      ".,": 9241,
      "similar": 9242,
      "eth": 9243,
      "simple": 9244,
      "hal": 9245,
      "dogs": 9246,
      "associ": 9247,
      "ont": 9248,
      "verse": 9249,
      "astic": 9250,
      "micro": 9251,
      "termin": 9252,
      "glo": 9253,
      "sho": 9254,
      "major": 9255,
      "az": 9256,
      "mit": 9257,
      "25": 9258,
      "reason": 9259,
      "Po": 9260,
      "Sci": 9261,
      "four": 9262,
      "parts": 9263,
      "agr": 9264,
      "eye": 9265,
      "Dr": 9266,
      "stit": 9267,
      "character": 9268,
      "resour": 9269,
      "vious": 9270,
      "posed": 9271,
      "gn": 9272,
      "enter": 9273,
      "remo": 9274,
      "Why": 9275,
      "regular": 9276,
      "All": 9277,
      "paper": 9278,
      "uel": 9279,
      "remain": 9280,
      "war": 9281,
      "avoid": 9282,
      "him": 9283,
      "above": 9284,
      "Se": 9285,
      "future": 9286,
      "unique": 9287,
      "loy": 9288,
      "prac": 9289,
      "given": 9290,
      "chemical": 9291,
      "skin": 9292,
      "electric": 9293,
      "pt": 9294,
      "across": 9295,
      "icate": 9296,
      "har": 9297,
      "white": 9298,
      "done": 9299,
      "law": 9300,
      "ustr": 9301,
      "hi": 9302,
      "ledge": 9303,
      "Go": 9304,
      "ints": 9305,
      "reco": 9306,
      "usion": 9307,
      "cial": 9308,
      "pet": 9309,
      "never": 9310,
      "ster": 9311,
      "according": 9312,
      "ule": 9313,
      "Nor": 9314,
      "atory": 9315,
      "looking": 9316,
      "ope": 9317,
      "against": 9318,
      "pan": 9319,
      "related": 9320,
      "carbon": 9321,
      "begin": 9322,
      "cool": 9323,
      "compon": 9324,
      "ER": 9325,
      "difficul": 9326,
      "report": 9327,
      "produce": 9328,
      "Here": 9329,
      "conf": 9330,
      "diet": 9331,
      "icial": 9332,
      "damage": 9333,
      "round": 9334,
      "sions": 9335,
      "actions": 9336,
      "source": 9337,
      "40": 9338,
      "toms": 9339,
      "direc": 9340,
      "explo": 9341,
      "ains": 9342,
      "smo": 9343,
      "effects": 9344,
      "fied": 9345,
      "ilities": 9346,
      "single": 9347,
      "ses": 9348,
      "joy": 9349,
      "flo": 9350,
      "focus": 9351,
      "batter": 9352,
      "necessary": 9353,
      "close": 9354,
      "ned": 9355,
      "refer": 9356,
      "ball": 9357,
      "Af": 9358,
      "author": 9359,
      "physical": 9360,
      "onic": 9361,
      "either": 9362,
      "speed": 9363,
      "ury": 9364,
      "training": 9365,
      "anced": 9366,
      "Te": 9367,
      "says": 9368,
      "ino": 9369,
      "da": 9370,
      "evol": 9371,
      "ands": 9372,
      "paren": 9373,
      "tar": 9374,
      "helps": 9375,
      "discus": 9376,
      "thin": 9377,
      "sty": 9378,
      "science": 9379,
      "centr": 9380,
      "Not": 9381,
      "popular": 9382,
      "istic": 9383,
      "outs": 9384,
      "grad": 9385,
      "benefits": 9386,
      "week": 9387,
      "syn": 9388,
      "vities": 9389,
      "understanding": 9390,
      "detail": 9391,
      "designed": 9392,
      "Ro": 9393,
      "Ph": 9394,
      "tas": 9395,
      "vision": 9396,
      "complex": 9397,
      "sor": 9398,
      "ules": 9399,
      "climate": 9400,
      "bor": 9401,
      "lin": 9402,
      "Ste": 9403,
      "dy": 9404,
      "perf": 9405,
      "factors": 9406,
      "13": 9407,
      "aged": 9408,
      "left": 9409,
      "acy": 9410,
      "patter": 9411,
      "erc": 9412,
      "board": 9413,
      "resist": 9414,
      "heart": 9415,
      "utes": 9416,
      "relation": 9417,
      "Ap": 9418,
      "symp": 9419,
      "ray": 9420,
      "aps": 9421,
      "avor": 9422,
      "allows": 9423,
      "sle": 9424,
      "bacter": 9425,
      "idence": 9426,
      "game": 9427,
      "coming": 9428,
      "graph": 9429,
      "exist": 9430,
      "warm": 9431,
      "condition": 9432,
      "scre": 9433,
      "ators": 9434,
      "computer": 9435,
      "wal": 9436,
      "17": 9437,
      "stop": 9438,
      "fill": 9439,
      "tili": 9440,
      "once": 9441,
      "aver": 9442,
      "ae": 9443,
      "tif": 9444,
      "among": 9445,
      "addition": 9446,
      "garden": 9447,
      "stress": 9448,
      "Ear": 9449,
      "structure": 9450,
      "det": 9451,
      "pair": 9452,
      "uals": 9453,
      "further": 9454,
      "break": 9455,
      "comfort": 9456,
      "tradi": 9457,
      "uck": 9458,
      "Sy": 9459,
      "whether": 9460,
      "door": 9461,
      "animal": 9462,
      "ires": 9463,
      "enh": 9464,
      "After": 9465,
      "getting": 9466,
      "nit": 9467,
      "angu": 9468,
      "today": 9469,
      "ult": 9470,
      "identif": 9471,
      "black": 9472,
      "product": 9473,
      "youn": 9474,
      "path": 9475,
      "provides": 9476,
      "performance": 9477,
      "ufact": 9478,
      "tend": 9479,
      "matter": 9480,
      "moder": 9481,
      "ques": 9482,
      "image": 9483,
      "Car": 9484,
      "ina": 9485,
      "plement": 9486,
      "24": 9487,
      "IN": 9488,
      "ah": 9489,
      "ensive": 9490,
      "difference": 9491,
      "60": 9492,
      "below": 9493,
      "public": 9494,
      "effect": 9495,
      "skills": 9496,
      "nal": 9497,
      "asp": 9498,
      "force": 9499,
      "knowledge": 9500,
      "ots": 9501,
      "percent": 9502,
      "wards": 9503,
      "normal": 9504,
      "brain": 9505,
      "earch": 9506,
      "Bl": 9507,
      "ian": 9508,
      "pay": 9509,
      "dia": 9510,
      "fit": 9511,
      "Me": 9512,
      "mechan": 9513,
      "hours": 9514,
      "love": 9515,
      "variety": 9516,
      "needed": 9517,
      "eco": 9518,
      "My": 9519,
      "wild": 9520,
      "resh": 9521,
      "consu": 9522,
      "ric": 9523,
      "fru": 9524,
      "sens": 9525,
      "came": 9526,
      "inte": 9527,
      "fat": 9528,
      "tention": 9529,
      "veget": 9530,
      "hot": 9531,
      "entists": 9532,
      "vehic": 9533,
      "sustain": 9534,
      "acks": 9535,
      "doing": 9536,
      "building": 9537,
      "user": 9538,
      "individual": 9539,
      "seen": 9540,
      "taking": 9541,
      "activity": 9542,
      "prefer": 9543,
      "Fr": 9544,
      "Dis": 9545,
      "concer": 9546,
      "ending": 9547,
      "func": 9548,
      "got": 9549,
      "event": 9550,
      "already": 9551,
      "content": 9552,
      "tural": 9553,
      "history": 9554,
      "safety": 9555,
      "acts": 9556,
      "ames": 9557,
      "American": 9558,
      "appear": 9559,
      "box": 9560,
      "tree": 9561,
      "community": 9562,
      "personal": 9563,
      "company": 9564,
      "article": 9565,
      "squ": 9566,
      "initi": 9567,
      "ney": 9568,
      "features": 9569,
      "AR": 9570,
      "reli": 9571,
      "sport": 9572,
      "ging": 9573,
      "ST": 9574,
      "wall": 9575,
      "ato": 9576,
      "protect": 9577,
      "mid": 9578,
      "eral": 9579,
      "stay": 9580,
      "answer": 9581,
      "intro": 9582,
      "pul": 9583,
      "ann": 9584,
      "leaves": 9585,
      "covered": 9586,
      "online": 9587,
      "industry": 9588,
      "Che": 9589,
      "equip": 9590,
      "ysis": 9591,
      "season": 9592,
      "required": 9593,
      "tools": 9594,
      "manufact": 9595,
      "construc": 9596,
      "questions": 9597,
      "count": 9598,
      "Now": 9599,
      "AT": 9600,
      "era": 9601,
      "igure": 9602,
      "bul": 9603,
      "positive": 9604,
      "22": 9605,
      "activities": 9606,
      "lying": 9607,
      "strateg": 9608,
      "Fo": 9609,
      "cra": 9610,
      "Yes": 9611,
      "inside": 9612,
      "She": 9613,
      "ium": 9614,
      "utions": 9615,
      "living": 9616,
      "ision": 9617,
      "correct": 9618,
      "labor": 9619,
      "symptoms": 9620,
      "actice": 9621,
      "lling": 9622,
      "prin": 9623,
      "challeng": 9624,
      "cases": 9625,
      "ump": 9626,
      "growing": 9627,
      "minim": 9628,
      "longer": 9629,
      "suff": 9630,
      "perfect": 9631,
      "Pe": 9632,
      "mark": 9633,
      "**": 9634,
      "Are": 9635,
      "humans": 9636,
      "past": 9637,
      "mention": 9638,
      "methods": 9639,
      "general": 9640,
      "idea": 9641,
      "ised": 9642,
      "stor": 9643,
      "deep": 9644,
      "guide": 9645,
      "sn": 9646,
      "vation": 9647,
      "eve": 9648,
      "ched": 9649,
      "market": 9650,
      "aving": 9651,
      "anger": 9652,
      "install": 9653,
      "compl": 9654,
      "AC": 9655,
      "reng": 9656,
      "researchers": 9657,
      "opport": 9658,
      "tures": 9659,
      "whole": 9660,
      "birds": 9661,
      "fast": 9662,
      "fuel": 9663,
      "ago": 9664,
      "21": 9665,
      "exerc": 9666,
      "environmental": 9667,
      "ption": 9668,
      "nature": 9669,
      "contribut": 9670,
      "tit": 9671,
      "Ne": 9672,
      "inj": 9673,
      "behavior": 9674,
      "advant": 9675,
      "typically": 9676,
      "forms": 9677,
      "Jo": 9678,
      "foot": 9679,
      "months": 9680,
      "pression": 9681,
      "conduc": 9682,
      "shop": 9683,
      "selves": 9684,
      "dio": 9685,
      "Med": 9686,
      "Most": 9687,
      "sl": 9688,
      "enjoy": 9689,
      "sam": 9690,
      "night": 9691,
      "Mar": 9692,
      "jour": 9693,
      "associated": 9694,
      "someone": 9695,
      "unities": 9696,
      "individuals": 9697,
      "cop": 9698,
      "situ": 9699,
      "easily": 9700,
      "isn": 9701,
      "video": 9702,
      "cancer": 9703,
      "langu": 9704,
      "atom": 9705,
      "experim": 9706,
      "molec": 9707,
      "item": 9708,
      "later": 9709,
      "ising": 9710,
      "inary": 9711,
      "cro": 9712,
      "compan": 9713,
      "ges": 9714,
      "trees": 9715,
      "represent": 9716,
      "abl": 9717,
      "izing": 9718,
      "Lo": 9719,
      "mission": 9720,
      "Fe": 9721,
      "199": 9722,
      "promo": 9723,
      "young": 9724,
      "cruc": 9725,
      "solution": 9726,
      "job": 9727,
      "cas": 9728,
      "million": 9729,
      "half": 9730,
      "table": 9731,
      "gover": 9732,
      "econom": 9733,
      "ause": 9734,
      "etc": 9735,
      "AN": 9736,
      "mb": 9737,
      "sea": 9738,
      "word": 9739,
      "ength": 9740,
      "minutes": 9741,
      "management": 9742,
      "bring": 9743,
      "Im": 9744,
      "device": 9745,
      "aling": 9746,
      "Research": 9747,
      "cook": 9748,
      "money": 9749,
      "entire": 9750,
      "setting": 9751,
      "vo": 9752,
      "considered": 9753,
      "service": 9754,
      "bably": 9755,
      "cold": 9756,
      "meet": 9757,
      "rather": 9758,
      "protein": 9759,
      "waste": 9760,
      "sil": 9761,
      "ird": 9762,
      "techniques": 9763,
      "rich": 9764,
      "gain": 9765,
      "ined": 9766,
      "reading": 9767,
      "ident": 9768,
      "consist": 9769,
      "ded": 9770,
      "layer": 9771,
      "ban": 9772,
      "habit": 9773,
      "amin": 9774,
      "winter": 9775,
      "Our": 9776,
      "More": 9777,
      "mass": 9778,
      "resources": 9779,
      "male": 9780,
      "wa": 9781,
      "breed": 9782,
      "neg": 9783,
      "difficult": 9784,
      "creating": 9785,
      "overall": 9786,
      "23": 9787,
      "medical": 9788,
      "streng": 9789,
      "amp": 9790,
      "rain": 9791,
      "patients": 9792,
      "affect": 9793,
      "hind": 9794,
      "average": 9795,
      "primary": 9796,
      "contact": 9797,
      "els": 9798,
      "population": 9799,
      "crucial": 9800,
      "accur": 9801,
      "words": 9802,
      "bad": 9803,
      "separ": 9804,
      "Many": 9805,
      "influ": 9806,
      "amm": 9807,
      "ulations": 9808,
      "RE": 9809,
      "instruc": 9810,
      "rown": 9811,
      "LE": 9812,
      "ery": 9813,
      "however": 9814,
      "80": 9815,
      "developed": 9816,
      "super": 9817,
      "relationship": 9818,
      "Man": 9819,
      "tin": 9820,
      "suit": 9821,
      "zer": 9822,
      "pack": 9823,
      "sense": 9824,
      "Pre": 9825,
      "farm": 9826,
      "region": 9827,
      "acid": 9828,
      "gest": 9829,
      "lex": 9830,
      "custom": 9831,
      "slow": 9832,
      "thought": 9833,
      "pret": 9834,
      "extre": 9835,
      "choose": 9836,
      "yourself": 9837,
      "Per": 9838,
      "professional": 9839,
      "compe": 9840,
      "lor": 9841,
      "ets": 9842,
      "code": 9843,
      "takes": 9844,
      "fric": 9845,
      "throughout": 9846,
      "ior": 9847,
      "tig": 9848,
      "multiple": 9849,
      "base": 9850,
      "women": 9851,
      "quickly": 9852,
      "probably": 9853,
      "gets": 9854,
      "share": 9855,
      "rot": 9856,
      "rad": 9857,
      "options": 9858,
      "May": 9859,
      "zed": 9860,
      "site": 9861,
      "determin": 9862,
      "Of": 9863,
      "includes": 9864,
      "practice": 9865,
      "National": 9866,
      "created": 9867,
      "vit": 9868,
      "practic": 9869,
      "rit": 9870,
      "simply": 9871,
      "outside": 9872,
      "sleep": 9873,
      "tware": 9874,
      "From": 9875,
      "increased": 9876,
      "____": 9877,
      "address": 9878,
      "ilt": 9879,
      "ditional": 9880,
      "py": 9881,
      "Ab": 9882,
      "integr": 9883,
      "unity": 9884,
      "adap": 9885,
      "pie": 9886,
      "travel": 9887,
      "glass": 9888,
      "termine": 9889,
      "optim": 9890,
      "eyes": 9891,
      "mor": 9892,
      "tes": 9893,
      "Use": 9894,
      "kill": 9895,
      "Euro": 9896,
      "five": 9897,
      "feet": 9898,
      "mod": 9899,
      "Des": 9900,
      "NO": 9901,
      "cannot": 9902,
      "almost": 9903,
      "front": 9904,
      "connec": 9905,
      "establ": 9906,
      "services": 9907,
      "option": 9908,
      "cup": 9909,
      "studies": 9910,
      "education": 9911,
      "print": 9912,
      "Health": 9913,
      "United": 9914,
      "deli": 9915,
      "ries": 9916,
      "dem": 9917,
      "akes": 9918,
      "particip": 9919,
      "pes": 9920,
      "modern": 9921,
      "lip": 9922,
      "road": 9923,
      "hydro": 9924,
      "machine": 9925,
      "total": 9926,
      "tric": 9927,
      "causes": 9928,
      "instead": 9929,
      "country": 9930,
      "lives": 9931,
      "ID": 9932,
      "govern": 9933,
      "formed": 9934,
      "pred": 9935,
      "elements": 9936,
      "employ": 9937,
      "servation": 9938,
      "foods": 9939,
      "genetic": 9940,
      "national": 9941,
      "pic": 9942,
      "eg": 9943,
      "wear": 9944,
      "err": 9945,
      "happen": 9946,
      "taken": 9947,
      "traditional": 9948,
      "true": 9949,
      "sometimes": 9950,
      "Once": 9951,
      "increasing": 9952,
      "attention": 9953,
      "extreme": 9954,
      "larger": 9955,
      "altern": 9956,
      "agno": 9957,
      "tries": 9958,
      "pen": 9959,
      "scientists": 9960,
      "weather": 9961,
      "shape": 9962,
      "Europe": 9963,
      "metal": 9964,
      "forest": 9965,
      "global": 9966,
      "ends": 9967,
      "hun": 9968,
      "fire": 9969,
      "Ser": 9970,
      "ON": 9971,
      "ition": 9972,
      "fresh": 9973,
      "story": 9974,
      "watch": 9975,
      "suggest": 9976,
      "fail": 9977,
      "applications": 9978,
      "DNA": 9979,
      "shows": 9980,
      "conver": 9981,
      "IS": 9982,
      "compared": 9983,
      "mental": 9984,
      "determine": 9985,
      "shown": 9986,
      "battery": 9987,
      "Let": 9988,
      "adjust": 9989,
      "basic": 9990,
      "doc": 9991,
      "choice": 9992,
      "ounds": 9993,
      "ows": 9994,
      "everything": 9995,
      "tivity": 9996,
      "icy": 9997,
      "yet": 9998,
      "link": 9999,
      "explain": 10000,
      "continu": 10001,
      "ises": 10002,
      "zy": 10003,
      "\".": 10004,
      "stri": 10005,
      "Earth": 10006,
      "purpose": 10007,
      "thus": 10008,
      "analysis": 10009,
      "prep": 10010,
      "spir": 10011,
      "fix": 10012,
      "blue": 10013,
      "providing": 10014,
      "anything": 10015,
      "lic": 10016,
      "introduc": 10017,
      "lif": 10018,
      "Over": 10019,
      "mom": 10020,
      "caused": 10021,
      "remove": 10022,
      "recei": 10023,
      "ght": 10024,
      "apy": 10025,
      "ams": 10026,
      "ore": 10027,
      "devices": 10028,
      "assess": 10029,
      "relative": 10030,
      "language": 10031,
      "ils": 10032,
      "aut": 10033,
      "components": 10034,
      "offers": 10035,
      "quite": 10036,
      "calcul": 10037,
      "aware": 10038,
      "groups": 10039,
      "tu": 10040,
      "record": 10041,
      "rap": 10042,
      "II": 10043,
      "generally": 10044,
      "Gu": 10045,
      "software": 10046,
      "previous": 10047,
      "survi": 10048,
      "length": 10049,
      "ining": 10050,
      "Inter": 10051,
      "emo": 10052,
      "isms": 10053,
      "summer": 10054,
      "writ": 10055,
      "points": 10056,
      "exact": 10057,
      "zing": 10058,
      "spring": 10059,
      "dark": 10060,
      "bacteria": 10061,
      "mentioned": 10062,
      "plastic": 10063,
      "vention": 10064,
      "ged": 10065,
      "display": 10066,
      "started": 10067,
      "poll": 10068,
      "70": 10069,
      "terms": 10070,
      "hair": 10071,
      "reflec": 10072,
      "regard": 10073,
      "ades": 10074,
      "cean": 10075,
      "buy": 10076,
      "tribu": 10077,
      "Gen": 10078,
      "equipment": 10079,
      "tors": 10080,
      "ime": 10081,
      "ieve": 10082,
      "Bec": 10083,
      "obser": 10084,
      "appropri": 10085,
      "enn": 10086,
      "graphy": 10087,
      "ison": 10088,
      "cles": 10089,
      "dish": 10090,
      "cou": 10091,
      "meat": 10092,
      "hom": 10093,
      "circu": 10094,
      "trying": 10095,
      "istics": 10096,
      "ably": 10097,
      "avy": 10098,
      "digital": 10099,
      "bing": 10100,
      "itor": 10101,
      "subst": 10102,
      "steps": 10103,
      "shap": 10104,
      "ought": 10105,
      "directly": 10106,
      "ports": 10107,
      "piece": 10108,
      "estim": 10109,
      "diseas": 10110,
      "ming": 10111,
      "itself": 10112,
      "bes": 10113,
      "ield": 10114,
      "charge": 10115,
      "placed": 10116,
      "provided": 10117,
      "icated": 10118,
      "properties": 10119,
      "added": 10120,
      "believe": 10121,
      "phone": 10122,
      "corpor": 10123,
      "entific": 10124,
      "stic": 10125,
      "leading": 10126,
      "thern": 10127,
      "kids": 10128,
      "themselves": 10129,
      "requires": 10130,
      "eating": 10131,
      "response": 10132,
      "style": 10133,
      "extra": 10134,
      "tice": 10135,
      "dle": 10136,
      "pa": 10137,
      "alg": 10138,
      "arily": 10139,
      "negative": 10140,
      "review": 10141,
      "claim": 10142,
      "daily": 10143,
      "parents": 10144,
      "achieve": 10145,
      "press": 10146,
      "asons": 10147,
      "yl": 10148,
      "Fir": 10149,
      "Rec": 10150,
      "Also": 10151,
      "particularly": 10152,
      "las": 10153,
      "ley": 10154,
      "return": 10155,
      "produced": 10156,
      "encour": 10157,
      "insec": 10158,
      "maxim": 10159,
      "efficient": 10160,
      "Then": 10161,
      "behind": 10162,
      "bel": 10163,
      "additional": 10164,
      "invest": 10165,
      "diagno": 10166,
      "milk": 10167,
      "mes": 10168,
      "stant": 10169,
      "moist": 10170,
      "ellow": 10171,
      "ES": 10172,
      "smaller": 10173,
      "capac": 10174,
      "Science": 10175,
      "scale": 10176,
      "dou": 10177,
      "swe": 10178,
      "block": 10179,
      "standard": 10180,
      "mess": 10181,
      "colors": 10182,
      "page": 10183,
      "rid": 10184,
      "States": 10185,
      "implement": 10186,
      "assist": 10187,
      "poly": 10188,
      "vate": 10189,
      "tenance": 10190,
      "evolution": 10191,
      "diseases": 10192,
      "stat": 10193,
      "....": 10194,
      "mas": 10195,
      "cats": 10196,
      "location": 10197,
      "eval": 10198,
      "tou": 10199,
      "North": 10200,
      "Ke": 10201,
      "Mon": 10202,
      "School": 10203,
      "wise": 10204,
      "soft": 10205,
      "TH": 10206,
      "tox": 10207,
      "bird": 10208,
      "lands": 10209,
      "inten": 10210,
      "towards": 10211,
      "web": 10212,
      "wash": 10213,
      "harm": 10214,
      "sugar": 10215,
      "recogn": 10216,
      "flowers": 10217,
      "Afric": 10218,
      "balance": 10219,
      "exc": 10220,
      "continue": 10221,
      "According": 10222,
      "wel": 10223,
      "redi": 10224,
      "student": 10225,
      "highly": 10226,
      "docu": 10227,
      "date": 10228,
      "dim": 10229,
      "images": 10230,
      "eggs": 10231,
      "frame": 10232,
      "lat": 10233,
      "ingredi": 10234,
      "aries": 10235,
      "First": 10236,
      "lled": 10237,
      "core": 10238,
      "involved": 10239,
      "evidence": 10240,
      "standing": 10241,
      "signal": 10242,
      "models": 10243,
      "valu": 10244,
      "Cor": 10245,
      "Lear": 10246,
      "weeks": 10247,
      "application": 10248,
      "Other": 10249,
      "AS": 10250,
      "clusion": 10251,
      "threat": 10252,
      "supply": 10253,
      "purch": 10254,
      "worth": 10255,
      "month": 10256,
      "organic": 10257,
      "bsite": 10258,
      "sources": 10259,
      "everyone": 10260,
      "speak": 10261,
      "lies": 10262,
      "vehicle": 10263,
      "decre": 10264,
      "identify": 10265,
      "Although": 10266,
      "center": 10267,
      "recommend": 10268,
      "solar": 10269,
      "Tech": 10270,
      "connect": 10271,
      "oth": 10272,
      "uly": 10273,
      "ips": 10274,
      "tips": 10275,
      "Who": 10276,
      "win": 10277,
      "Don": 10278,
      "prior": 10279,
      "pup": 10280,
      "moving": 10281,
      "liqu": 10282,
      "Water": 10283,
      "teeth": 10284,
      "explore": 10285,
      "section": 10286,
      "identi": 10287,
      "switch": 10288,
      "truc": 10289,
      "seed": 10290,
      "object": 10291,
      "didn": 10292,
      "Au": 10293,
      "conven": 10294,
      "meaning": 10295,
      "else": 10296,
      "target": 10297,
      "Because": 10298,
      "unch": 10299,
      "recent": 10300,
      "goal": 10301,
      "built": 10302,
      "recommended": 10303,
      "items": 10304,
      "radi": 10305,
      "rub": 10306,
      "--------": 10307,
      "ker": 10308,
      "six": 10309,
      "spread": 10310,
      "series": 10311,
      "unit": 10312,
      "exercise": 10313,
      "running": 10314,
      "goes": 10315,
      "seeds": 10316,
      "store": 10317,
      "ister": 10318,
      "prog": 10319,
      "contr": 10320,
      "cry": 10321,
      "replace": 10322,
      "Mic": 10323,
      "easier": 10324,
      "oxy": 10325,
      "Coun": 10326,
      "IC": 10327,
      "constant": 10328,
      "drop": 10329,
      "cycle": 10330,
      "entially": 10331,
      "sand": 10332,
      "enced": 10333,
      "preci": 10334,
      "earth": 10335,
      "appropriate": 10336,
      "ana": 10337,
      "events": 10338,
      "High": 10339,
      "ift": 10340,
      "assi": 10341,
      "stru": 10342,
      "patient": 10343,
      "possi": 10344,
      "analy": 10345,
      "EN": 10346,
      "Ty": 10347,
      "bag": 10348,
      "processes": 10349,
      "limited": 10350,
      "Eng": 10351,
      "Par": 10352,
      "World": 10353,
      "transport": 10354,
      "properly": 10355,
      "media": 10356,
      "Pho": 10357,
      "rup": 10358,
      "ults": 10359,
      "numbers": 10360,
      "infl": 10361,
      "communication": 10362,
      "temperatures": 10363,
      "website": 10364,
      "moun": 10365,
      "ners": 10366,
      "AM": 10367,
      "late": 10368,
      "completely": 10369,
      "greater": 10370,
      "members": 10371,
      "inno": 10372,
      "Under": 10373,
      "Reg": 10374,
      "deal": 10375,
      "useful": 10376,
      "pal": 10377,
      "absor": 10378,
      "AL": 10379,
      "kets": 10380,
      "cross": 10381,
      "sites": 10382,
      "secur": 10383,
      "countries": 10384,
      "death": 10385,
      "talk": 10386,
      "itation": 10387,
      "allowing": 10388,
      "ron": 10389,
      "users": 10390,
      "values": 10391,
      "Stud": 10392,
      "visual": 10393,
      "efficiency": 10394,
      "wonder": 10395,
      "phy": 10396,
      "critical": 10397,
      "ume": 10398,
      "nel": 10399,
      "demon": 10400,
      "Austr": 10401,
      "Addition": 10402,
      "movement": 10403,
      "Ge": 10404,
      "90": 10405,
      "drive": 10406,
      "fruit": 10407,
      "ology": 10408,
      "ites": 10409,
      "insul": 10410,
      "output": 10411,
      "scientific": 10412,
      "ays": 10413,
      "visit": 10414,
      "immune": 10415,
      "via": 10416,
      "plat": 10417,
      "ik": 10418,
      "carry": 10419,
      "serious": 10420,
      "princi": 10421,
      "South": 10422,
      "ities": 10423,
      "lu": 10424,
      "memory": 10425,
      "abilities": 10426,
      "remember": 10427,
      "repe": 10428,
      "camera": 10429,
      "acking": 10430,
      "distance": 10431,
      "lights": 10432,
      "depending": 10433,
      "atives": 10434,
      "Since": 10435,
      "original": 10436,
      "Additionally": 10437,
      "grass": 10438,
      "ulate": 10439,
      "Even": 10440,
      "motor": 10441,
      "Each": 10442,
      "chick": 10443,
      "benefit": 10444,
      "thick": 10445,
      "phas": 10446,
      "hu": 10447,
      "aces": 10448,
      "vary": 10449,
      "tellig": 10450,
      "maintenance": 10451,
      "aks": 10452,
      "dur": 10453,
      "concentr": 10454,
      "projects": 10455,
      "city": 10456,
      "feature": 10457,
      "subject": 10458,
      "contains": 10459,
      "programs": 10460,
      "onto": 10461,
      "writing": 10462,
      "expect": 10463,
      "challenges": 10464,
      "Make": 10465,
      "published": 10466,
      "eces": 10467,
      "IT": 10468,
      "OR": 10469,
      "companies": 10470,
      "Air": 10471,
      "rout": 10472,
      ".)": 10473,
      "ously": 10474,
      "fab": 10475,
      "hands": 10476,
      "ford": 10477,
      "Cons": 10478,
      "bill": 10479,
      "America": 10480,
      "patterns": 10481,
      "demonstr": 10482,
      "ancy": 10483,
      "leave": 10484,
      "price": 10485,
      "oud": 10486,
      "match": 10487,
      "AP": 10488,
      "expected": 10489,
      "costs": 10490,
      "Gre": 10491,
      "Just": 10492,
      "soon": 10493,
      "Read": 10494,
      "commonly": 10495,
      "cooking": 10496,
      "AD": 10497,
      "connected": 10498,
      "vacc": 10499,
      "theory": 10500,
      "volt": 10501,
      "protection": 10502,
      "evalu": 10503,
      "\",": 10504,
      "seems": 10505,
      "ata": 10506,
      "forward": 10507,
      "pick": 10508,
      "Another": 10509,
      "immedi": 10510,
      "developing": 10511,
      "hood": 10512,
      "root": 10513,
      "enhance": 10514,
      "Bu": 10515,
      "autom": 10516,
      "Min": 10517,
      "suring": 10518,
      "danger": 10519,
      "Using": 10520,
      "reasons": 10521,
      "states": 10522,
      "circuit": 10523,
      "fly": 10524,
      "books": 10525,
      "mail": 10526,
      "resistance": 10527,
      "ware": 10528,
      "surround": 10529,
      "partment": 10530,
      "bow": 10531,
      "government": 10532,
      "happens": 10533,
      "asc": 10534,
      "27": 10535,
      "angle": 10536,
      "synthe": 10537,
      "uary": 10538,
      "fine": 10539,
      "tribution": 10540,
      "network": 10541,
      "origin": 10542,
      "pretty": 10543,
      "ost": 10544,
      "infection": 10545,
      "bly": 10546,
      "edge": 10547,
      "stage": 10548,
      "fro": 10549,
      "screen": 10550,
      "indic": 10551,
      "slight": 10552,
      "emis": 10553,
      "tow": 10554,
      "strength": 10555,
      "eved": 10556,
      "psy": 10557,
      "upon": 10558,
      "Step": 10559,
      "vestig": 10560,
      "save": 10561,
      "cies": 10562,
      "faces": 10563,
      "26": 10564,
      "favor": 10565,
      "ecti": 10566,
      "stream": 10567,
      "places": 10568,
      "reci": 10569,
      "PC": 10570,
      "importance": 10571,
      "oxygen": 10572,
      "ense": 10573,
      "28": 10574,
      "sustainable": 10575,
      "security": 10576,
      "sensi": 10577,
      "mosp": 10578,
      "Sol": 10579,
      "proced": 10580,
      "ishing": 10581,
      "ified": 10582,
      "thinking": 10583,
      "sha": 10584,
      "bottom": 10585,
      "becomes": 10586,
      "signs": 10587,
      "objects": 10588,
      "Their": 10589,
      "mption": 10590,
      "file": 10591,
      "mel": 10592,
      "touch": 10593,
      "logies": 10594,
      "construction": 10595,
      "craft": 10596,
      "vest": 10597,
      "ural": 10598,
      "electrical": 10599,
      "mm": 10600,
      "direction": 10601,
      "Ger": 10602,
      "input": 10603,
      "obtain": 10604,
      "posure": 10605,
      "preh": 10606,
      "practices": 10607,
      "stitute": 10608,
      "excess": 10609,
      "baby": 10610,
      "lege": 10611,
      "friendly": 10612,
      "adding": 10613,
      "century": 10614,
      "rare": 10615,
      "commer": 10616,
      "host": 10617,
      "ideas": 10618,
      "located": 10619,
      "umin": 10620,
      "brid": 10621,
      "lens": 10622,
      "auti": 10623,
      "gives": 10624,
      "reducing": 10625,
      "poor": 10626,
      "sex": 10627,
      "drain": 10628,
      "ai": 10629,
      "ections": 10630,
      "excell": 10631,
      "genes": 10632,
      "expensive": 10633,
      "mber": 10634,
      "35": 10635,
      "rial": 10636,
      "mat": 10637,
      "prec": 10638,
      "Every": 10639,
      "Fin": 10640,
      "Photo": 10641,
      "account": 10642,
      "asse": 10643,
      "mother": 10644,
      "hope": 10645,
      "45": 10646,
      "sou": 10647,
      "third": 10648,
      "gold": 10649,
      "bud": 10650,
      "frequency": 10651,
      "responsible": 10652,
      "suitable": 10653,
      "testing": 10654,
      "bran": 10655,
      "lack": 10656,
      "Sim": 10657,
      "involves": 10658,
      "ideal": 10659,
      "Cre": 10660,
      "track": 10661,
      "note": 10662,
      "spect": 10663,
      "yellow": 10664,
      "element": 10665,
      "tiv": 10666,
      "storage": 10667,
      "iction": 10668,
      "aly": 10669,
      "ension": 10670,
      "During": 10671,
      "factor": 10672,
      "hydr": 10673,
      "push": 10674,
      "utili": 10675,
      "ycl": 10676,
      "bodies": 10677,
      "ky": 10678,
      "mbol": 10679,
      "card": 10680,
      "cleaning": 10681,
      "attach": 10682,
      "friends": 10683,
      "band": 10684,
      "giving": 10685,
      "bone": 10686,
      "Get": 10687,
      "music": 10688,
      "culture": 10689,
      "landsc": 10690,
      "solutions": 10691,
      "ru": 10692,
      "nuc": 10693,
      "trig": 10694,
      "pieces": 10695,
      "gree": 10696,
      "zes": 10697,
      "Whe": 10698,
      "nothing": 10699,
      "liquid": 10700,
      "spot": 10701,
      "modi": 10702,
      "sent": 10703,
      "stone": 10704,
      "wire": 10705,
      "arr": 10706,
      "grade": 10707,
      "oles": 10708,
      "requirements": 10709,
      "owners": 10710,
      "org": 10711,
      "iron": 10712,
      "significantly": 10713,
      "Does": 10714,
      "netic": 10715,
      "limit": 10716,
      "took": 10717,
      "gni": 10718,
      "alle": 10719,
      "hearing": 10720,
      "starting": 10721,
      "transfer": 10722,
      "severe": 10723,
      "oo": 10724,
      "final": 10725,
      "hear": 10726,
      "comfortable": 10727,
      "dependent": 10728,
      "cutting": 10729,
      "keeping": 10730,
      "generation": 10731,
      "horse": 10732,
      "pas": 10733,
      "sia": 10734,
      "ensuring": 10735,
      "Sec": 10736,
      "orts": 10737,
      "resid": 10738,
      "Oc": 10739,
      "commit": 10740,
      "roll": 10741,
      "reaction": 10742,
      "concept": 10743,
      "ull": 10744,
      "anks": 10745,
      "imag": 10746,
      "beauti": 10747,
      "applied": 10748,
      "icine": 10749,
      "causing": 10750,
      "3D": 10751,
      "Spec": 10752,
      "walk": 10753,
      "heavy": 10754,
      "salt": 10755,
      "atmosp": 10756,
      "clin": 10757,
      "zz": 10758,
      "detect": 10759,
      "repair": 10760,
      "irt": 10761,
      "ix": 10762,
      "investig": 10763,
      "nia": 10764,
      "nutrients": 10765,
      "stra": 10766,
      "rat": 10767,
      "processing": 10768,
      "compar": 10769,
      "Well": 10770,
      "foc": 10771,
      "Sm": 10772,
      "carri": 10773,
      "</": 10774,
      "oxide": 10775,
      "bey": 10776,
      "cars": 10777,
      "currently": 10778,
      "ju": 10779,
      "diversity": 10780,
      "doors": 10781,
      "ided": 10782,
      "technique": 10783,
      "functions": 10784,
      "powerful": 10785,
      "saw": 10786,
      "ingredients": 10787,
      "games": 10788,
      "dest": 10789,
      "moment": 10790,
      "dead": 10791,
      "SE": 10792,
      "dust": 10793,
      "successful": 10794,
      "nes": 10795,
      "auto": 10796,
      "mouth": 10797,
      "ffer": 10798,
      "news": 10799,
      "Sw": 10800,
      "ales": 10801,
      "apply": 10802,
      "fair": 10803,
      "Cent": 10804,
      "document": 10805,
      "Keep": 10806,
      "crete": 10807,
      "vey": 10808,
      "broad": 10809,
      "exposure": 10810,
      "ung": 10811,
      "interesting": 10812,
      "cks": 10813,
      "betes": 10814,
      "Joh": 10815,
      "Up": 10816,
      "serve": 10817,
      "weak": 10818,
      "liter": 10819,
      "stim": 10820,
      "plate": 10821,
      "fa": 10822,
      "na": 10823,
      "solid": 10824,
      "version": 10825,
      "29": 10826,
      "preser": 10827,
      "combination": 10828,
      "PS": 10829,
      "wrong": 10830,
      "brown": 10831,
      "write": 10832,
      "muscle": 10833,
      "tooth": 10834,
      "agree": 10835,
      "changing": 10836,
      "rock": 10837,
      "birth": 10838,
      "ocean": 10839,
      "Red": 10840,
      "aur": 10841,
      "demand": 10842,
      "situation": 10843,
      "wet": 10844,
      "roof": 10845,
      "dens": 10846,
      "shar": 10847,
      "faster": 10848,
      "operation": 10849,
      "vegetables": 10850,
      "ugs": 10851,
      "lose": 10852,
      "State": 10853,
      "iring": 10854,
      "described": 10855,
      "cli": 10856,
      "agricul": 10857,
      "rapid": 10858,
      "essor": 10859,
      "competi": 10860,
      "wanted": 10861,
      "voltage": 10862,
      "numer": 10863,
      "functional": 10864,
      "Hy": 10865,
      "experiment": 10866,
      "incorpor": 10867,
      "valuable": 10868,
      "exactly": 10869,
      "Am": 10870,
      "decision": 10871,
      "although": 10872,
      "phen": 10873,
      "smooth": 10874,
      "inches": 10875,
      "symbol": 10876,
      "filter": 10877,
      "taste": 10878,
      "straight": 10879,
      "occurs": 10880,
      "pattern": 10881,
      "Prof": 10882,
      "native": 10883,
      "doctor": 10884,
      "vant": 10885,
      "therapy": 10886,
      "Engl": 10887,
      "tren": 10888,
      "enge": 10889,
      "intellig": 10890,
      "cot": 10891,
      "compreh": 10892,
      "mut": 10893,
      "Brit": 10894,
      "anyone": 10895,
      "capacity": 10896,
      "NOT": 10897,
      "Its": 10898,
      "OS": 10899,
      "excellent": 10900,
      "phase": 10901,
      "sus": 10902,
      "ert": 10903,
      "agg": 10904,
      "dynam": 10905,
      "Fur": 10906,
      "brush": 10907,
      "English": 10908,
      "opportunity": 10909,
      "imin": 10910,
      "ony": 10911,
      "tissue": 10912,
      "ashion": 10913,
      "examples": 10914,
      "ancing": 10915,
      "film": 10916,
      "expert": 10917,
      "figure": 10918,
      "ilies": 10919,
      "chain": 10920,
      "quanti": 10921,
      "looks": 10922,
      "therefore": 10923,
      "ero": 10924,
      "butter": 10925,
      "included": 10926,
      "approxim": 10927,
      "reduced": 10928,
      "advantage": 10929,
      "effectively": 10930,
      "ote": 10931,
      "tration": 10932,
      "sures": 10933,
      "flex": 10934,
      "receive": 10935,
      "decl": 10936,
      "consum": 10937,
      "task": 10938,
      "ibility": 10939,
      "sat": 10940,
      "motion": 10941,
      "moisture": 10942,
      "mob": 10943,
      "strategies": 10944,
      "volume": 10945,
      "property": 10946,
      "feeding": 10947,
      "Where": 10948,
      "ened": 10949,
      "avi": 10950,
      "orders": 10951,
      "bound": 10952,
      "journey": 10953,
      "legal": 10954,
      "picture": 10955,
      "xi": 10956,
      "System": 10957,
      "exten": 10958,
      "colour": 10959,
      "ception": 10960,
      "plas": 10961,
      "MS": 10962,
      "structures": 10963,
      "brand": 10964,
      "inner": 10965,
      "contribute": 10966,
      "release": 10967,
      "Food": 10968,
      "beautiful": 10969,
      "techn": 10970,
      "became": 10971,
      "affected": 10972,
      "odes": 10973,
      "ye": 10974,
      "height": 10975,
      "wing": 10976,
      "catch": 10977,
      "lots": 10978,
      "schools": 10979,
      "alone": 10980,
      "Bio": 10981,
      "tank": 10982,
      "fee": 10983,
      "Pres": 10984,
      "collabor": 10985,
      "ada": 10986,
      "older": 10987,
      "ender": 10988,
      "lap": 10989,
      "histor": 10990,
      "advanced": 10991,
      "virus": 10992,
      "chi": 10993,
      "Sa": 10994,
      "thous": 10995,
      "beyond": 10996,
      "details": 10997,
      "chance": 10998,
      "bri": 10999,
      "maximum": 11000,
      "ubl": 11001,
      "extremely": 11002,
      "inflamm": 11003,
      "particles": 11004,
      "pets": 11005,
      "experiences": 11006,
      "middle": 11007,
      "Whether": 11008,
      "pil": 11009,
      "lean": 11010,
      "avig": 11011,
      "noise": 11012,
      "went": 11013,
      "degre": 11014,
      "cohol": 11015,
      "presence": 11016,
      "argu": 11017,
      "ock": 11018,
      "vil": 11019,
      "sess": 11020,
      "handle": 11021,
      "Har": 11022,
      "paint": 11023,
      "steel": 11024,
[...]
