{
  "version": "1.0",
  "truncation": null,
  "padding": null,
  "added_tokens": [
    {
      "id": 0,
      "content": "<PAD>",
      "single_word": false,
      "lstrip": false,
      "rstrip": false,
      "normalized": false,
      "special": true
    },
    {
      "id": 1,
      "content": "<UNK>",
      "single_word": false,
      "lstrip": false,
      "rstrip": false,
      "normalized": false,
      "special": true
    },
    {
      "id": 2,
      "content": "<BOS>",
      "single_word": false,
      "lstrip": false,
      "rstrip": false,
      "normalized": false,
      "special": true
    },
    {
      "id": 3,
      "content": "<EOS>",
      "single_word": false,
      "lstrip": false,
      "rstrip": false,
      "normalized": false,
      "special": true
    }
  ],
  "normalizer": null,
  "pre_tokenizer": {
    "type": "Whitespace"
  },
  "post_processor": null,
  "decoder": null,
  "model": {
    "type": "BPE",
    "dropout": null,
    "unk_token": null,
    "continuing_subword_prefix": null,
    "end_of_word_suffix": null,
    "fuse_unk": false,
    "byte_fallback": false,
    "ignore_merges": false,
    "vocab": {
      "<PAD>": 0,
      "<UNK>": 1,
      "<BOS>": 2,
      "<EOS>": 3,
      "!": 4,
      "\"": 5,
      "#": 6,
      "$": 7,
      "%": 8,
      "&": 9,
      "'": 10,
      "(": 11,
      ")": 12,
      "*": 13,
      "+": 14,
      ",": 15,
      "-": 16,
      ".": 17,
      "/": 18,
      "0": 19,
      "1": 20,
      "2": 21,
      "3": 22,
      "4": 23,
      "5": 24,
      "6": 25,
      "7": 26,
      "8": 27,
      "9": 28,
      ":": 29,
      ";": 30,
      "<": 31,
      "=": 32,
      ">": 33,
      "?": 34,
      "@": 35,
      "A": 36,
      "B": 37,
      "C": 38,
      "D": 39,
      "E": 40,
      "F": 41,
      "G": 42,
      "H": 43,
      "I": 44,
      "J": 45,
      "K": 46,
      "L": 47,
      "M": 48,
      "N": 49,
      "O": 50,
      "P": 51,
      "Q": 52,
      "R": 53,
      "S": 54,
      "T": 55,
      "U": 56,
      "V": 57,
      "W": 58,
      "X": 59,
      "Y": 60,
      "Z": 61,
      "[": 62,
      "\\": 63,
      "]": 64,
      "^": 65,
      "_": 66,
      "`": 67,
      "a": 68,
      "b": 69,
      "c": 70,
      "d": 71,
      "e": 72,
      "f": 73,
      "g": 74,
      "h": 75,
      "i": 76,
      "j": 77,
      "k": 78,
      "l": 79,
      "m": 80,
      "n": 81,
      "o": 82,
      "p": 83,
      "q": 84,
      "r": 85,
      "s": 86,
      "t": 87,
      "u": 88,
      "v": 89,
      "w": 90,
      "x": 91,
      "y": 92,
      "z": 93,
      "{": 94,
      "|": 95,
      "}": 96,
      "~": 97,
      "": 98,
      "": 99,
      "": 100,
      "": 101,
      "¡": 102,
      "¢": 103,
      "£": 104,
      "¤": 105,
      "¥": 106,
      "¦": 107,
      "§": 108,
      "¨": 109,
      "©": 110,
      "ª": 111,
      "«": 112,
      "¬": 113,
      "­": 114,
      "®": 115,
      "¯": 116,
      "°": 117,
      "±": 118,
      "²": 119,
      "³": 120,
      "´": 121,
      "µ": 122,
      "¶": 123,
      "·": 124,
      "¸": 125,
      "¹": 126,
      "º": 127,
      "»": 128,
      "¼": 129,
      "½": 130,
      "¾": 131,
      "¿": 132,
      "À": 133,
      "Á": 134,
      "Â": 135,
      "Ã": 136,
      "Ä": 137,
      "Å": 138,
      "Æ": 139,
      "Ç": 140,
      "È": 141,
      "É": 142,
      "Ê": 143,
      "Ë": 144,
      "Ì": 145,
      "Í": 146,
      "Î": 147,
      "Ï": 148,
      "Ð": 149,
      "Ñ": 150,
      "Ò": 151,
      "Ó": 152,
      "Ô": 153,
      "Õ": 154,
      "Ö": 155,
      "×": 156,
      "Ø": 157,
      "Ù": 158,
      "Ú": 159,
      "Û": 160,
      "Ü": 161,
      "Ý": 162,
      "Þ": 163,
      "ß": 164,
      "à": 165,
      "á": 166,
      "â": 167,
      "ã": 168,
      "ä": 169,
      "å": 170,
      "æ": 171,
      "ç": 172,
      "è": 173,
      "é": 174,
      "ê": 175,
      "ë": 176,
      "ì": 177,
      "í": 178,
      "î": 179,
      "ï": 180,
      "ð": 181,
      "ñ": 182,
      "ò": 183,
      "ó": 184,
      "ô": 185,
      "õ": 186,
      "ö": 187,
      "÷": 188,
      "ø": 189,
      "ù": 190,
      "ú": 191,
      "û": 192,
      "ü": 193,
      "ý": 194,
      "þ": 195,
      "ÿ": 196,
      "Ā": 197,
      "ā": 198,
      "Ă": 199,
      "ă": 200,
      "Ą": 201,
      "ą": 202,
      "Ć": 203,
      "ć": 204,
      "ĉ": 205,
      "Ċ": 206,
      "ċ": 207,
      "Č": 208,
      "č": 209,
      "Ď": 210,
      "ď": 211,
      "Đ": 212,
      "đ": 213,
      "Ē": 214,
      "ē": 215,
      "ĕ": 216,
      "Ė": 217,
      "ė": 218,
      "Ę": 219,
      "ę": 220,
      "Ě": 221,
      "ě": 222,
      "ĝ": 223,
      "Ğ": 224,
      "ğ": 225,
      "Ġ": 226,
      "ġ": 227,
      "ģ": 228,
      "Ĥ": 229,
      "Ħ": 230,
      "ħ": 231,
      "ĩ": 232,
      "Ī": 233,
      "ī": 234,
      "ĭ": 235,
      "Į": 236,
      "į": 237,
      "İ": 238,
      "ı": 239,
      "ĵ": 240,
      "Ĺ": 241,
      "ĺ": 242,
      "ļ": 243,
      "Ľ": 244,
      "ľ": 245,
      "Ł": 246,
      "ł": 247,
      "Ń": 248,
      "ń": 249,
      "ņ": 250,
      "ň": 251,
      "ŋ": 252,
      "Ō": 253,
      "ō": 254,
      "ŏ": 255,
      "Ő": 256,
      "ő": 257,
      "Œ": 258,
      "œ": 259,
      "ŕ": 260,
      "ŗ": 261,
      "Ř": 262,
      "ř": 263,
      "Ś": 264,
      "ś": 265,
      "Ŝ": 266,
      "Ş": 267,
      "ş": 268,
      "Š": 269,
      "š": 270,
      "ţ": 271,
      "Ť": 272,
      "ť": 273,
      "ũ": 274,
      "ū": 275,
      "ŭ": 276,
      "Ů": 277,
      "ů": 278,
      "ų": 279,
      "ŵ": 280,
      "ŷ": 281,
      "Ÿ": 282,
      "Ź": 283,
      "ź": 284,
      "Ż": 285,
      "ż": 286,
      "Ž": 287,
      "ž": 288,
      "Ɓ": 289,
      "Ƅ": 290,
      "ƅ": 291,
      "Ɔ": 292,
      "ƌ": 293,
      "ƍ": 294,
      "Ɛ": 295,
      "ƒ": 296,
      "ƕ": 297,
      "ƙ": 298,
      "Ơ": 299,
      "ơ": 300,
      "ƣ": 301,
      "Ƥ": 302,
      "Ʀ": 303,
      "Ʃ": 304,
      "ư": 305,
      "Ƶ": 306,
      "ǁ": 307,
      "ǎ": 308,
      "ǐ": 309,
      "ǒ": 310,
      "ǔ": 311,
      "ǖ": 312,
      "Ǘ": 313,
      "ǝ": 314,
      "Ǫ": 315,
      "ǫ": 316,
      "ǵ": 317,
      "ǹ": 318,
      "Ǻ": 319,
      "ǻ": 320,
      "ȅ": 321,
      "ȉ": 322,
      "ȏ": 323,
      "ș": 324,
      "ț": 325,
      "ȝ": 326,
      "Ȭ": 327,
      "ȯ": 328,
      "ȳ": 329,
      "ȴ": 330,
      "ȶ": 331,
      "Ɂ": 332,
      "Ɇ": 333,
      "Ɋ": 334,
      "Ɏ": 335,
      "ɐ": 336,
      "ɑ": 337,
      "ɒ": 338,
      "ɓ": 339,
      "ɔ": 340,
      "ɖ": 341,
      "ɗ": 342,
      "ə": 343,
      "ɛ": 344,
      "ɜ": 345,
      "ɡ": 346,
      "ɢ": 347,
      "ɣ": 348,
      "ɤ": 349,
      "ɥ": 350,
      "ɨ": 351,
      "ɩ": 352,
      "ɪ": 353,
      "ɫ": 354,
      "ɬ": 355,
      "ɱ": 356,
      "ɲ": 357,
      "ɴ": 358,
      "ɵ": 359,
      "ɶ": 360,
      "ɸ": 361,
      "ɹ": 362,
      "ɻ": 363,
      "ɾ": 364,
      "ɿ": 365,
      "ʀ": 366,
      "ʁ": 367,
      "ʃ": 368,
      "ʇ": 369,
      "ʊ": 370,
      "ʋ": 371,
      "ʌ": 372,
      "ʎ": 373,
      "ʏ": 374,
      "ʑ": 375,
      "ʒ": 376,
      "ʔ": 377,
      "ʕ": 378,
      "ʙ": 379,
      "ʜ": 380,
      "ʟ": 381,
      "ʢ": 382,
      "ʥ": 383,
      "ʦ": 384,
      "ʧ": 385,
      "ʪ": 386,
      "ʯ": 387,
      "ʰ": 388,
      "ʱ": 389,
      "ʵ": 390,
      "ʶ": 391,
      "ʷ": 392,
      "ʹ": 393,
      "ʺ": 394,
      "ʻ": 395,
      "ʼ": 396,
      "ʽ": 397,
      "ʾ": 398,
      "ʿ": 399,
      "ˀ": 400,
      "˂": 401,
      "˃": 402,
      "˄": 403,
      "ˆ": 404,
      "ˇ": 405,
      "ˈ": 406,
      "ˉ": 407,
      "ˊ": 408,
      "ˌ": 409,
      "ː": 410,
      "ˑ": 411,
      "˖": 412,
      "˗": 413,
      "˘": 414,
      "˙": 415,
      "˚": 416,
      "˛": 417,
      "˜": 418,
      "˝": 419,
      "ˡ": 420,
      "ˣ": 421,
      "˥": 422,
      "˧": 423,
      "˩": 424,
      "́": 425,
      "̂": 426,
      "̃": 427,
      "̄": 428,
      "̅": 429,
      "̆": 430,
      "̇": 431,
      "̈": 432,
      "̋": 433,
      "̌": 434,
      "̍": 435,
      "̓": 436,
      "̖": 437,
      "̘": 438,
      "̞": 439,
      "̥": 440,
      "̨": 441,
      "̪": 442,
      "̫": 443,
      "̯": 444,
      "̱": 445,
      "̲": 446,
      "̵": 447,
      "̶": 448,
      "̸": 449,
      "̼": 450,
      "͂": 451,
      "͎": 452,
      "͗": 453,
      "͛": 454,
      "͞": 455,
      "͟": 456,
      "͡": 457,
      "ͣ": 458,
      "ͦ": 459,
      "ͩ": 460,
      "Ͱ": 461,
      "΂": 462,
      "΄": 463,
      "΅": 464,
      "Ά": 465,
      "Ή": 466,
      "Ί": 467,
      "Ό": 468,
      "Ώ": 469,
      "Α": 470,
      "Β": 471,
      "Γ": 472,
      "Δ": 473,
      "Ε": 474,
      "Η": 475,
      "Θ": 476,
      "Ι": 477,
      "Κ": 478,
      "Λ": 479,
      "Μ": 480,
      "Ν": 481,
      "Ξ": 482,
      "Π": 483,
      "Ρ": 484,
      "Σ": 485,
      "Τ": 486,
      "Υ": 487,
      "Φ": 488,
      "Χ": 489,
      "Ψ": 490,
      "Ω": 491,
      "ά": 492,
      "έ": 493,
      "ή": 494,
      "ί": 495,
      "α": 496,
      "β": 497,
      "γ": 498,
      "δ": 499,
      "ε": 500,
      "ζ": 501,
      "η": 502,
      "θ": 503,
      "ι": 504,
      "κ": 505,
      "λ": 506,
      "μ": 507,
      "ν": 508,
      "ξ": 509,
      "ο": 510,
      "π": 511,
      "ρ": 512,
      "ς": 513,
      "σ": 514,
      "τ": 515,
      "υ": 516,
      "φ": 517,
      "χ": 518,
      "ψ": 519,
      "ω": 520,
      "ϊ": 521,
      "ϋ": 522,
      "ό": 523,
      "ύ": 524,
      "ώ": 525,
      "ϑ": 526,
      "ϒ": 527,
      "ϕ": 528,
      "ϖ": 529,
      "Ϙ": 530,
      "ϙ": 531,
      "Ϥ": 532,
      "Ϫ": 533,
      "ϫ": 534,
      "ϭ": 535,
      "ϰ": 536,
      "ϴ": 537,
      "ϵ": 538,
      "϶": 539,
      "ϸ": 540,
      "Ͻ": 541,
      "Ͼ": 542,
      "Ђ": 543,
      "Ѓ": 544,
      "Ѕ": 545,
      "І": 546,
      "Ј": 547,
      "Њ": 548,
      "Ћ": 549,
      "Ў": 550,
      "А": 551,
      "Б": 552,
      "В": 553,
      "Г": 554,
      "Д": 555,
      "Е": 556,
      "Ж": 557,
      "З": 558,
      "И": 559,
      "Й": 560,
      "К": 561,
      "Л": 562,
      "М": 563,
      "Н": 564,
      "О": 565,
      "П": 566,
      "Р": 567,
      "С": 568,
      "Т": 569,
      "У": 570,
      "Ф": 571,
      "Х": 572,
      "Ц": 573,
      "Ч": 574,
      "Ш": 575,
      "Щ": 576,
      "Ы": 577,
      "Ь": 578,
      "Э": 579,
      "Ю": 580,
      "Я": 581,
      "а": 582,
      "б": 583,
      "в": 584,
      "г": 585,
      "д": 586,
      "е": 587,
      "ж": 588,
      "з": 589,
      "и": 590,
      "й": 591,
      "к": 592,
      "л": 593,
      "м": 594,
      "н": 595,
      "о": 596,
      "п": 597,
      "р": 598,
      "с": 599,
      "т": 600,
      "у": 601,
      "ф": 602,
      "х": 603,
      "ц": 604,
      "ч": 605,
      "ш": 606,
      "щ": 607,
      "ъ": 608,
      "ы": 609,
      "ь": 610,
      "э": 611,
      "ю": 612,
      "я": 613,
      "ё": 614,
      "ђ": 615,
      "є": 616,
      "ѕ": 617,
      "і": 618,
      "ї": 619,
      "ј": 620,
      "љ": 621,
      "њ": 622,
      "ћ": 623,
      "ќ": 624,
      "ў": 625,
      "ѡ": 626,
      "Ѳ": 627,
      "Ѵ": 628,
      "ѵ": 629,
      "Ѻ": 630,
      "҅": 631,
      "Ғ": 632,
      "ғ": 633,
      "Җ": 634,
      "Қ": 635,
      "қ": 636,
      "ҟ": 637,
      "Ҡ": 638,
      "Ҥ": 639,
      "Ҧ": 640,
      "ү": 641,
      "Ҳ": 642,
      "ҳ": 643,
      "ҷ": 644,
      "Ҹ": 645,
      "ҹ": 646,
      "һ": 647,
      "Ӏ": 648,
      "ӆ": 649,
      "ӏ": 650,
      "Ӛ": 651,
      "ӛ": 652,
      "Ӟ": 653,
      "ӟ": 654,
      "Ӡ": 655,
      "ӡ": 656,
      "ӧ": 657,
      "ӭ": 658,
      "Ӯ": 659,
      "ӯ": 660,
      "Ӱ": 661,
      "Ӹ": 662,
      "Ӽ": 663,
      "Ԁ": 664,
      "ԁ": 665,
      "Ԅ": 666,
      "ԉ": 667,
      "Ԋ": 668,
      "ԝ": 669,
      "ԧ": 670,
      "Ԩ": 671,
      "Ԭ": 672,
      "Ա": 673,
      "Բ": 674,
      "Գ": 675,
      "Ը": 676,
      "Թ": 677,
      "Ժ": 678,
      "Խ": 679,
      "Հ": 680,
      "Մ": 681,
      "Յ": 682,
      "Ն": 683,
      "Ո": 684,
      "Չ": 685,
      "Ռ": 686,
      "Ս": 687,
      "Տ": 688,
      "Ւ": 689,
      "Օ": 690,
      "՝": 691,
      "ա": 692,
      "բ": 693,
      "գ": 694,
      "դ": 695,
      "ե": 696,
      "զ": 697,
      "է": 698,
      "ը": 699,
      "թ": 700,
      "ի": 701,
      "լ": 702,
      "խ": 703,
      "ծ": 704,
      "կ": 705,
      "հ": 706,
      "ձ": 707,
      "ղ": 708,
      "մ": 709,
      "յ": 710,
      "ն": 711,
      "շ": 712,
      "ո": 713,
      "չ": 714,
      "պ": 715,
      "ռ": 716,
      "ս": 717,
      "վ": 718,
      "տ": 719,
      "ր": 720,
      "ց": 721,
      "ւ": 722,
      "փ": 723,
      "ք": 724,
      "օ": 725,
      "և": 726,
      "։": 727,
      "֜": 728,
      "֟": 729,
      "֤": 730,
      "ְ": 731,
      "ֲ": 732,
      "ִ": 733,
      "ֵ": 734,
      "ֶ": 735,
      "ַ": 736,
      "ָ": 737,
      "ֹ": 738,
      "ּ": 739,
      "ׁ": 740,
      "ׂ": 741,
      "ׇ": 742,
      "א": 743,
      "ב": 744,
      "ג": 745,
      "ד": 746,
      "ה": 747,
      "ו": 748,
      "ז": 749,
      "ח": 750,
      "ט": 751,
      "י": 752,
      "ך": 753,
      "כ": 754,
      "ל": 755,
      "ם": 756,
      "מ": 757,
      "ן": 758,
      "נ": 759,
      "ס": 760,
      "ע": 761,
      "פ": 762,
      "ץ": 763,
      "צ": 764,
      "ק": 765,
      "ר": 766,
      "ש": 767,
      "ת": 768,
      "״": 769,
      "׸": 770,
      "؂": 771,
      "؇": 772,
      "،": 773,
      "ؐ": 774,
      "ؓ": 775,
      "؜": 776,
      "؟": 777,
      "ء": 778,
      "آ": 779,
      "أ": 780,
      "إ": 781,
      "ئ": 782,
      "ا": 783,
      "ب": 784,
      "ة": 785,
      "ت": 786,
      "ث": 787,
      "ج": 788,
      "ح": 789,
      "خ": 790,
      "د": 791,
      "ذ": 792,
      "ر": 793,
      "ز": 794,
      "س": 795,
      "ش": 796,
      "ص": 797,
      "ض": 798,
      "ط": 799,
      "ظ": 800,
      "ع": 801,
      "غ": 802,
      "ف": 803,
      "ق": 804,
      "ك": 805,
      "ل": 806,
      "م": 807,
      "ن": 808,
      "ه": 809,
      "و": 810,
      "ى": 811,
      "ي": 812,
      "ً": 813,
      "َ": 814,
      "ُ": 815,
      "ِ": 816,
      "ّ": 817,
      "ْ": 818,
      "ٛ": 819,
      "ٜ": 820,
      "ٝ": 821,
      "ٮ": 822,
      "ٰ": 823,
      "ٸ": 824,
      "ٻ": 825,
      "پ": 826,
      "ڄ": 827,
      "چ": 828,
      "ڈ": 829,
      "ڎ": 830,
      "ڏ": 831,
      "ڒ": 832,
      "ژ": 833,
      "ک": 834,
      "ګ": 835,
      "گ": 836,
      "ڱ": 837,
      "ھ": 838,
      "ہ": 839,
      "ۉ": 840,
      "ی": 841,
      "ۓ": 842,
      "۔": 843,
      "ۜ": 844,
      "ۣ": 845,
      "۪": 846,
      "ۮ": 847,
      "۴": 848,
      "۵": 849,
      "۷": 850,
      "ۺ": 851,
      "۾": 852,
      "܊": 853,
      "܎": 854,
      "܏": 855,
      "ܐ": 856,
      "ܕ": 857,
      "ܗ": 858,
      "ܘ": 859,
      "ܚ": 860,
      "ܛ": 861,
      "ܝ": 862,
      "ܟ": 863,
      "ܠ": 864,
      "ܡ": 865,
      "ܣ": 866,
      "ܫ": 867,
      "ܲ": 868,
      "ܵ": 869,
      "ܼ": 870,
      "݂": 871,
      "݊": 872,
      "ݎ": 873,
      "ݏ": 874,
      "ݚ": 875,
      "ݜ": 876,
      "ݪ": 877,
      "ݫ": 878,
      "ݮ": 879,
      "ݵ": 880,
      "ݾ": 881,
      "ތ": 882,
      "ޖ": 883,
      "ޜ": 884,
      "ި": 885,
      "ޫ": 886,
      "߁": 887,
      "ߋ": 888,
      "ߌ": 889,
      "ߦ": 890,
      "߳": 891,
      "ࡇ": 892,
      "ँ": 893,
      "ं": 894,
      "अ": 895,
      "आ": 896,
      "इ": 897,
      "ई": 898,
      "उ": 899,
      "ऊ": 900,
      "ए": 901,
      "ऑ": 902,
      "ओ": 903,
      "औ": 904,
      "क": 905,
      "ख": 906,
      "ग": 907,
      "घ": 908,
      "च": 909,
      "ज": 910,
      "ञ": 911,
      "ट": 912,
      "ठ": 913,
      "ड": 914,
      "ण": 915,
      "त": 916,
      "थ": 917,
      "द": 918,
      "ध": 919,
      "न": 920,
      "प": 921,
      "फ": 922,
      "ब": 923,
      "भ": 924,
      "म": 925,
      "य": 926,
      "र": 927,
      "ल": 928,
      "ळ": 929,
      "व": 930,
      "श": 931,
      "ष": 932,
      "स": 933,
      "ह": 934,
      "़": 935,
      "ा": 936,
      "ि": 937,
      "ी": 938,
      "ु": 939,
      "ू": 940,
      "ृ": 941,
      "ॅ": 942,
      "े": 943,
      "ै": 944,
      "ॉ": 945,
      "ो": 946,
      "ौ": 947,
      "्": 948,
      "।": 949,
      "०": 950,
      "२": 951,
      "ং": 952,
      "ঃ": 953,
      "অ": 954,
      "আ": 955,
      "ই": 956,
      "ও": 957,
      "ক": 958,
      "খ": 959,
      "গ": 960,
      "ঘ": 961,
      "ঙ": 962,
      "চ": 963,
      "ছ": 964,
      "জ": 965,
      "ট": 966,
      "ড": 967,
      "ত": 968,
      "দ": 969,
      "ন": 970,
      "প": 971,
      "ফ": 972,
      "ব": 973,
      "ভ": 974,
      "ম": 975,
      "য": 976,
      "র": 977,
      "ল": 978,
      "শ": 979,
      "স": 980,
      "হ": 981,
      "়": 982,
      "া": 983,
      "ি": 984,
      "ী": 985,
      "ু": 986,
      "ৃ": 987,
      "ে": 988,
      "ো": 989,
      "্": 990,
      "ਲ": 991,
      "ਸ": 992,
      "ੀ": 993,
      "ੱ": 994,
      "ં": 995,
      "આ": 996,
      "ઈ": 997,
      "ઉ": 998,
      "એ": 999,
      "ક": 1000,
      "ખ": 1001,
      "ગ": 1002,
      "ઘ": 1003,
      "ચ": 1004,
      "છ": 1005,
      "જ": 1006,
      "ટ": 1007,
      "ડ": 1008,
      "ણ": 1009,
      "થ": 1010,
      "દ": 1011,
      "ધ": 1012,
      "ન": 1013,
      "પ": 1014,
      "ફ": 1015,
      "બ": 1016,
      "મ": 1017,
      "ય": 1018,
      "ર": 1019,
      "લ": 1020,
      "ળ": 1021,
      "વ": 1022,
      "શ": 1023,
      "સ": 1024,
      "હ": 1025,
      "ા": 1026,
      "િ": 1027,
      "ી": 1028,
      "ુ": 1029,
      "ે": 1030,
      "ો": 1031,
      "્": 1032,
      "૨": 1033,
      "୧": 1034,
      "୨": 1035,
      "ஃ": 1036,
      "அ": 1037,
      "ஆ": 1038,
      "இ": 1039,
      "உ": 1040,
      "க": 1041,
      "ங": 1042,
      "ச": 1043,
      "ட": 1044,
      "ண": 1045,
      "த": 1046,
      "ப": 1047,
      "ம": 1048,
      "ய": 1049,
      "ர": 1050,
      "ல": 1051,
      "ள": 1052,
      "ழ": 1053,
      "வ": 1054,
      "ஸ": 1055,
      "ா": 1056,
      "ி": 1057,
      "ீ": 1058,
      "ு": 1059,
      "ெ": 1060,
      "ை": 1061,
      "ோ": 1062,
      "்": 1063,
      "ం": 1064,
      "అ": 1065,
      "ఆ": 1066,
      "క": 1067,
      "గ": 1068,
      "చ": 1069,
      "జ": 1070,
      "ట": 1071,
      "డ": 1072,
      "త": 1073,
      "ద": 1074,
      "ధ": 1075,
      "న": 1076,
      "ప": 1077,
      "ఫ": 1078,
      "బ": 1079,
      "మ": 1080,
      "య": 1081,
      "ర": 1082,
      "ల": 1083,
      "వ": 1084,
      "శ": 1085,
      "స": 1086,
      "హ": 1087,
      "ా": 1088,
      "ి": 1089,
      "ీ": 1090,
      "ు": 1091,
      "ూ": 1092,
      "ె": 1093,
      "ే": 1094,
      "ై": 1095,
      "ొ": 1096,
      "ో": 1097,
      "్": 1098,
      "ಠ": 1099,
      "ಲ": 1100,
      "ಸ": 1101,
      "ಿ": 1102,
      "್": 1103,
      "ം": 1104,
      "അ": 1105,
      "ആ": 1106,
      "ഇ": 1107,
      "ക": 1108,
      "ച": 1109,
      "ട": 1110,
      "ഠ": 1111,
      "ണ": 1112,
      "ത": 1113,
      "ന": 1114,
      "പ": 1115,
      "ഭ": 1116,
      "മ": 1117,
      "യ": 1118,
      "ര": 1119,
      "ല": 1120,
      "ള": 1121,
      "ശ": 1122,
      "ഷ": 1123,
      "സ": 1124,
      "ാ": 1125,
      "ി": 1126,
      "ീ": 1127,
      "ു": 1128,
      "െ": 1129,
      "േ": 1130,
      "ൈ": 1131,
      "ൊ": 1132,
      "്": 1133,
      "൬": 1134,
      "ർ": 1135,
      "ං": 1136,
      "ඉ": 1137,
      "ක": 1138,
      "ග": 1139,
      "ට": 1140,
      "ඩ": 1141,
      "ත": 1142,
      "ද": 1143,
      "න": 1144,
      "ප": 1145,
      "බ": 1146,
      "ම": 1147,
      "ය": 1148,
      "ර": 1149,
      "ල": 1150,
      "ව": 1151,
      "ශ": 1152,
      "ෂ": 1153,
      "ස": 1154,
      "හ": 1155,
      "්": 1156,
      "ා": 1157,
      "ි": 1158,
      "ී": 1159,
      "ු": 1160,
      "ෙ": 1161,
      "ේ": 1162,
      "ො": 1163,
      "ෝ": 1164,
      "ก": 1165,
      "ข": 1166,
      "ค": 1167,
      "ง": 1168,
      "จ": 1169,
      "ช": 1170,
      "ซ": 1171,
      "ฌ": 1172,
      "ญ": 1173,
      "ฎ": 1174,
      "ณ": 1175,
      "ด": 1176,
      "ต": 1177,
      "ท": 1178,
      "ธ": 1179,
      "น": 1180,
      "บ": 1181,
      "ป": 1182,
      "ผ": 1183,
      "ฝ": 1184,
      "พ": 1185,
      "ฟ": 1186,
      "ภ": 1187,
      "ม": 1188,
      "ย": 1189,
      "ร": 1190,
      "ล": 1191,
      "ว": 1192,
      "ษ": 1193,
      "ส": 1194,
      "ห": 1195,
      "อ": 1196,
      "ะ": 1197,
      "ั": 1198,
      "า": 1199,
      "ำ": 1200,
      "ิ": 1201,
      "ี": 1202,
      "ื": 1203,
      "ุ": 1204,
      "ู": 1205,
      "ฺ": 1206,
      "฿": 1207,
      "เ": 1208,
      "แ": 1209,
      "โ": 1210,
      "ใ": 1211,
      "ไ": 1212,
      "็": 1213,
      "่": 1214,
      "้": 1215,
      "๊": 1216,
      "์": 1217,
      "ํ": 1218,
      "๔": 1219,
      "ງ": 1220,
      "ຽ": 1221,
      "້": 1222,
      "ໝ": 1223,
      "་": 1224,
      "།": 1225,
      "༨": 1226,
      "༱": 1227,
      "༼": 1228,
      "༽": 1229,
      "མ": 1230,
      "ཛ": 1231,
      "ོ": 1232,
      "႙": 1233,
      "ა": 1234,
      "ბ": 1235,
      "გ": 1236,
      "ე": 1237,
      "თ": 1238,
      "ი": 1239,
      "კ": 1240,
      "ლ": 1241,
      "მ": 1242,
      "ნ": 1243,
      "ო": 1244,
      "რ": 1245,
      "ს": 1246,
      "უ": 1247,
      "ფ": 1248,
      "ღ": 1249,
      "ჩ": 1250,
      "ც": 1251,
      "ჯ": 1252,
      "ኖ": 1253,
      "ኞ": 1254,
      "Ꭲ": 1255,
      "Ꮋ": 1256,
      "ᓂ": 1257,
      "ᔜ": 1258,
      "ᚦ": 1259,
      "ᚱ": 1260,
      "ᚴ": 1261,
      "ᛅ": 1262,
      "ᛒ": 1263,
      "ក": 1264,
      "ង": 1265,
      "ញ": 1266,
      "ត": 1267,
      "ថ": 1268,
      "ប": 1269,
      "ព": 1270,
      "េ": 1271,
      "ំ": 1272,
      "់": 1273,
      "ᥙ": 1274,
      "᧐": 1275,
      "ᴀ": 1276,
      "ᴄ": 1277,
      "ᴅ": 1278,
      "ᴇ": 1279,
      "ᴉ": 1280,
      "ᴊ": 1281,
      "ᴋ": 1282,
      "ᴍ": 1283,
      "ᴏ": 1284,
      "ᴘ": 1285,
      "ᴛ": 1286,
      "ᴜ": 1287,
      "ᴡ": 1288,
      "ᵏ": 1289,
      "ᵐ": 1290,
      "ᵒ": 1291,
      "ᵗ": 1292,
      "ᵢ": 1293,
      "ᵻ": 1294,
      "ᵿ": 1295,
      "᷄": 1296,
      "᷅": 1297,
      "ḍ": 1298,
      "ḏ": 1299,
      "ḗ": 1300,
      "Ḥ": 1301,
      "ḥ": 1302,
      "ḫ": 1303,
      "Ḳ": 1304,
      "ḳ": 1305,
      "ḵ": 1306,
      "ḷ": 1307,
      "ḻ": 1308,
      "ṁ": 1309,
      "ṃ": 1310,
      "ṅ": 1311,
      "ṇ": 1312,
      "ṉ": 1313,
      "ṓ": 1314,
      "Ṛ": 1315,
      "ṛ": 1316,
      "ṟ": 1317,
      "ṡ": 1318,
      "Ṣ": 1319,
      "ṣ": 1320,
      "ṭ": 1321,
      "ṯ": 1322,
      "ẋ": 1323,
      "ẑ": 1324,
      "Ạ": 1325,
      "ạ": 1326,
      "ả": 1327,
      "Ấ": 1328,
      "ấ": 1329,
      "ầ": 1330,
      "ẫ": 1331,
      "Ậ": 1332,
      "ậ": 1333,
      "ắ": 1334,
      "Ằ": 1335,
      "ặ": 1336,
      "ẹ": 1337,
      "ẻ": 1338,
      "ẽ": 1339,
      "Ế": 1340,
      "ế": 1341,
      "Ề": 1342,
      "ề": 1343,
      "Ể": 1344,
      "ể": 1345,
      "ễ": 1346,
      "Ệ": 1347,
      "ệ": 1348,
      "Ị": 1349,
      "ị": 1350,
      "Ọ": 1351,
      "ọ": 1352,
      "ỏ": 1353,
      "ố": 1354,
      "Ồ": 1355,
      "ồ": 1356,
      "Ổ": 1357,
      "ổ": 1358,
      "Ộ": 1359,
      "ộ": 1360,
      "Ớ": 1361,
      "ớ": 1362,
      "ờ": 1363,
      "ở": 1364,
      "Ợ": 1365,
      "ợ": 1366,
      "ụ": 1367,
      "ủ": 1368,
      "ừ": 1369,
      "ử": 1370,
      "ữ": 1371,
      "ự": 1372,
      "ỳ": 1373,
      "ỹ": 1374,
      "ἀ": 1375,
      "ἁ": 1376,
      "ἄ": 1377,
      "ἐ": 1378,
      "ἑ": 1379,
      "ἔ": 1380,
      "ἕ": 1381,
      "Ἐ": 1382,
      "Ἑ": 1383,
      "ἡ": 1384,
      "ἤ": 1385,
      "ἰ": 1386,
      "ἱ": 1387,
      "ἷ": 1388,
      "Ἰ": 1389,
      "ὄ": 1390,
      "ὅ": 1391,
      "ὐ": 1392,
      "ὑ": 1393,
      "ὠ": 1394,
      "ὲ": 1395,
      "ὶ": 1396,
      "ὺ": 1397,
      "ᾶ": 1398,
      "ῃ": 1399,
      "ῆ": 1400,
      "ῇ": 1401,
      "ῖ": 1402,
      "ῦ": 1403,
      "Ῠ": 1404,
      "ῳ": 1405,
      "ῶ": 1406,
      "​": 1407,
      "‌": 1408,
      "‍": 1409,
      "‎": 1410,
      "‏": 1411,
      "‐": 1412,
      "‑": 1413,
      "‒": 1414,
      "–": 1415,
      "—": 1416,
      "―": 1417,
      "‖": 1418,
      "‗": 1419,
      "‘": 1420,
      "’": 1421,
      "‚": 1422,
      "“": 1423,
      "”": 1424,
      "„": 1425,
      "‟": 1426,
      "†": 1427,
      "‡": 1428,
      "•": 1429,
      "‣": 1430,
      "․": 1431,
      "…": 1432,
      "‧": 1433,
      "‪": 1434,
      "‫": 1435,
      "‬": 1436,
      "‭": 1437,
      "‰": 1438,
      "′": 1439,
      "″": 1440,
      "‹": 1441,
      "›": 1442,
      "※": 1443,
      "‼": 1444,
      "‽": 1445,
      "‾": 1446,
      "‿": 1447,
      "⁂": 1448,
      "⁄": 1449,
      "⁉": 1450,
      "⁚": 1451,
      "⁠": 1452,
      "⁡": 1453,
      "⁢": 1454,
      "⁣": 1455,
      "⁤": 1456,
      "⁰": 1457,
      "ⁱ": 1458,
      "⁴": 1459,
      "⁵": 1460,
      "⁶": 1461,
      "⁷": 1462,
      "⁸": 1463,
      "⁹": 1464,
      "⁺": 1465,
      "⁻": 1466,
      "₀": 1467,
      "₁": 1468,
      "₂": 1469,
      "₃": 1470,
      "₄": 1471,
      "₅": 1472,
      "₆": 1473,
      "₇": 1474,
      "₈": 1475,
      "₊": 1476,
      "ₖ": 1477,
      "ₙ": 1478,
      "₤": 1479,
      "₦": 1480,
      "₨": 1481,
      "₪": 1482,
      "€": 1483,
      "₱": 1484,
      "₹": 1485,
      "⃗": 1486,
      "⃢": 1487,
      "⃣": 1488,
      "ℂ": 1489,
      "℃": 1490,
      "℅": 1491,
      "℉": 1492,
      "ℋ": 1493,
      "ℎ": 1494,
      "ℏ": 1495,
      "ℓ": 1496,
      "ℕ": 1497,
      "№": 1498,
      "ℙ": 1499,
      "ℜ": 1500,
      "ℝ": 1501,
      "℠": 1502,
      "™": 1503,
      "ℰ": 1504,
      "ℹ": 1505,
      "⅋": 1506,
      "⅓": 1507,
      "⅔": 1508,
      "⅕": 1509,
      "⅗": 1510,
      "⅙": 1511,
      "⅛": 1512,
      "⅜": 1513,
      "⅝": 1514,
      "⅞": 1515,
      "⅟": 1516,
      "Ⅰ": 1517,
      "Ⅱ": 1518,
      "Ⅲ": 1519,
      "Ⅳ": 1520,
      "Ⅴ": 1521,
      "Ⅶ": 1522,
      "Ⅷ": 1523,
      "ⅼ": 1524,
      "ⅾ": 1525,
      "←": 1526,
      "↑": 1527,
      "→": 1528,
      "↓": 1529,
      "↔": 1530,
      "↕": 1531,
      "↗": 1532,
      "↘": 1533,
      "↙": 1534,
      "↦": 1535,
      "↩": 1536,
      "↬": 1537,
      "↵": 1538,
      "↷": 1539,
      "↹": 1540,
      "↺": 1541,
      "⇄": 1542,
      "⇅": 1543,
      "⇌": 1544,
      "⇐": 1545,
      "⇑": 1546,
      "⇒": 1547,
      "⇓": 1548,
      "⇔": 1549,
      "⇞": 1550,
      "⇟": 1551,
      "⇠": 1552,
      "⇢": 1553,
      "⇥": 1554,
      "⇧": 1555,
      "⇩": 1556,
      "∀": 1557,
      "∂": 1558,
      "∃": 1559,
      "∅": 1560,
      "∆": 1561,
      "∇": 1562,
      "∈": 1563,
      "∉": 1564,
      "∊": 1565,
      "∋": 1566,
      "∎": 1567,
      "∏": 1568,
      "∑": 1569,
      "−": 1570,
      "∕": 1571,
      "∖": 1572,
      "∗": 1573,
      "∘": 1574,
      "∙": 1575,
      "√": 1576,
      "∛": 1577,
      "∝": 1578,
      "∞": 1579,
      "∠": 1580,
      "∣": 1581,
      "∥": 1582,
      "∧": 1583,
      "∨": 1584,
      "∩": 1585,
      "∪": 1586,
      "∫": 1587,
      "∬": 1588,
      "∮": 1589,
      "∯": 1590,
      "∴": 1591,
      "∵": 1592,
      "∶": 1593,
      "∷": 1594,
      "∼": 1595,
      "≃": 1596,
      "≅": 1597,
      "≈": 1598,
      "≉": 1599,
      "≜": 1600,
      "≝": 1601,
      "≠": 1602,
      "≡": 1603,
      "≤": 1604,
      "≥": 1605,
      "≦": 1606,
      "≧": 1607,
      "≪": 1608,
      "≫": 1609,
      "≮": 1610,
      "≯": 1611,
      "≲": 1612,
      "≳": 1613,
      "≺": 1614,
      "≼": 1615,
      "⊂": 1616,
      "⊆": 1617,
      "⊇": 1618,
      "⊈": 1619,
      "⊉": 1620,
      "⊒": 1621,
      "⊓": 1622,
      "⊔": 1623,
      "⊕": 1624,
      "⊗": 1625,
      "⊙": 1626,
      "⊞": 1627,
      "⊢": 1628,
      "⊤": 1629,
      "⊥": 1630,
      "⊧": 1631,
      "⊨": 1632,
      "⊩": 1633,
      "⊬": 1634,
      "⋅": 1635,
      "⋆": 1636,
      "⋎": 1637,
      "⋠": 1638,
      "⋮": 1639,
      "⋯": 1640,
      "⋱": 1641,
      "⌁": 1642,
      "⌂": 1643,
      "⌄": 1644,
      "⌈": 1645,
      "⌉": 1646,
      "⌊": 1647,
      "⌋": 1648,
      "⌒": 1649,
      "⌘": 1650,
      "⌠": 1651,
      "⌡": 1652,
      "⌨": 1653,
      "⍨": 1654,
      "⍵": 1655,
      "⍺": 1656,
      "⎛": 1657,
      "⎜": 1658,
      "⎝": 1659,
      "⎞": 1660,
      "⎟": 1661,
      "⎠": 1662,
      "⎡": 1663,
      "⎣": 1664,
      "⎤": 1665,
      "⎦": 1666,
      "⎧": 1667,
      "⎨": 1668,
      "⎩": 1669,
      "⎪": 1670,
      "⎫": 1671,
      "⎬": 1672,
      "⎭": 1673,
      "⎯": 1674,
      "⏟": 1675,
      "⏩": 1676,
      "⏬": 1677,
      "⏰": 1678,
      "⏱": 1679,
      "⏳": 1680,
      "⏹": 1681,
      "⏺": 1682,
      "␓": 1683,
      "␣": 1684,
      "␤": 1685,
      "␮": 1686,
      "␲": 1687,
      "␳": 1688,
      "␸": 1689,
      "①": 1690,
      "②": 1691,
      "③": 1692,
      "④": 1693,
      "⑤": 1694,
      "⑥": 1695,
      "⑶": 1696,
      "Ⓒ": 1697,
      "Ⓜ": 1698,
      "Ⓟ": 1699,
      "Ⓧ": 1700,
      "ⓒ": 1701,
      "ⓘ": 1702,
      "─": 1703,
      "│": 1704,
      "┌": 1705,
      "┐": 1706,
      "└": 1707,
      "┘": 1708,
      "├": 1709,
      "┤": 1710,
      "┬": 1711,
      "┴": 1712,
      "═": 1713,
      "║": 1714,
      "╒": 1715,
      "╔": 1716,
      "╝": 1717,
      "╡": 1718,
      "╣": 1719,
      "╤": 1720,
      "╬": 1721,
      "▀": 1722,
      "▁": 1723,
      "█": 1724,
      "░": 1725,
      "▒": 1726,
      "▓": 1727,
      "■": 1728,
      "□": 1729,
      "▢": 1730,
      "▪": 1731,
      "▫": 1732,
      "▲": 1733,
      "△": 1734,
      "▶": 1735,
      "▷": 1736,
      "▸": 1737,
      "►": 1738,
      "▼": 1739,
      "▾": 1740,
      "▿": 1741,
      "◆": 1742,
      "◇": 1743,
      "◊": 1744,
      "○": 1745,
      "◎": 1746,
      "●": 1747,
      "◑": 1748,
      "◕": 1749,
      "◜": 1750,
      "◝": 1751,
      "◤": 1752,
      "◦": 1753,
      "◻": 1754,
      "◼": 1755,
      "◾": 1756,
      "☀": 1757,
      "☁": 1758,
      "☂": 1759,
      "☃": 1760,
      "☄": 1761,
      "★": 1762,
      "☆": 1763,
      "☈": 1764,
      "☉": 1765,
      "☎": 1766,
      "☏": 1767,
      "☐": 1768,
      "☑": 1769,
      "☔": 1770,
      "☕": 1771,
      "☘": 1772,
      "☚": 1773,
      "☛": 1774,
      "☜": 1775,
      "☝": 1776,
      "☞": 1777,
      "☠": 1778,
      "☯": 1779,
      "☰": 1780,
      "☴": 1781,
      "☹": 1782,
      "☺": 1783,
      "☻": 1784,
      "☼": 1785,
      "♀": 1786,
      "♂": 1787,
      "♄": 1788,
      "♉": 1789,
      "♋": 1790,
      "♍": 1791,
      "♕": 1792,
      "♠": 1793,
      "♡": 1794,
      "♢": 1795,
      "♥": 1796,
      "♦": 1797,
      "♪": 1798,
      "♫": 1799,
      "♭": 1800,
      "♯": 1801,
      "♺": 1802,
      "♻": 1803,
      "⚑": 1804,
      "⚒": 1805,
      "⚓": 1806,
      "⚔": 1807,
      "⚖": 1808,
      "⚗": 1809,
      "⚙": 1810,
      "⚛": 1811,
      "⚠": 1812,
      "⚡": 1813,
      "⚫": 1814,
      "⛓": 1815,
      "⛔": 1816,
      "⛮": 1817,
      "⛰": 1818,
      "⛽": 1819,
      "✂": 1820,
      "✅": 1821,
      "✈": 1822,
      "✉": 1823,
      "✊": 1824,
      "✋": 1825,
      "✌": 1826,
      "✍": 1827,
      "✎": 1828,
      "✏": 1829,
      "✓": 1830,
      "✔": 1831,
      "✕": 1832,
      "✖": 1833,
      "✗": 1834,
      "✘": 1835,
      "✝": 1836,
      "✢": 1837,
      "✥": 1838,
      "✦": 1839,
      "✧": 1840,
      "✨": 1841,
      "✪": 1842,
      "✮": 1843,
      "✯": 1844,
      "✱": 1845,
      "✳": 1846,
      "✵": 1847,
      "✽": 1848,
      "✿": 1849,
      "❀": 1850,
      "❂": 1851,
      "❄": 1852,
      "❈": 1853,
      "❊": 1854,
      "❌": 1855,
      "❍": 1856,
      "❏": 1857,
      "❑": 1858,
      "❓": 1859,
      "❕": 1860,
      "❖": 1861,
      "❗": 1862,
      "❚": 1863,
      "❛": 1864,
      "❜": 1865,
      "❝": 1866,
      "❞": 1867,
      "❣": 1868,
      "❤": 1869,
      "❧": 1870,
      "❮": 1871,
      "❯": 1872,
      "❶": 1873,
      "➔": 1874,
      "➚": 1875,
      "➜": 1876,
      "➝": 1877,
      "➞": 1878,
      "➠": 1879,
      "➡": 1880,
      "➢": 1881,
      "➣": 1882,
      "➤": 1883,
      "➥": 1884,
      "➨": 1885,
      "➭": 1886,
      "➰": 1887,
      "⟨": 1888,
      "⟩": 1889,
      "⟶": 1890,
      "⟹": 1891,
      "⠀": 1892,
      "⤵": 1893,
      "⦁": 1894,
      "⨉": 1895,
      "⨯": 1896,
      "⩽": 1897,
      "⩾": 1898,
      "⫹": 1899,
      "⫺": 1900,
      "⫻": 1901,
      "⫽": 1902,
      "⫾": 1903,
      "⬃": 1904,
      "⬆": 1905,
      "⬇": 1906,
      "⬍": 1907,
      "⬎": 1908,
      "⬘": 1909,
      "⬛": 1910,
      "⬜": 1911,
      "⭐": 1912,
      "⮙": 1913,
      "Ɒ": 1914,
      "ⱱ": 1915,
      "ⱼ": 1916,
      "ⲁ": 1917,
      "ⲇ": 1918,
      "ⲉ": 1919,
      "ⲑ": 1920,
      "ⲓ": 1921,
      "ⲟ": 1922,
      "ⲣ": 1923,
      "ⲥ": 1924,
      "ⲫ": 1925,
      "ⲱ": 1926,
      "ⴚ": 1927,
      "⺈": 1928,
      "⺤": 1929,
      "⾙": 1930,
      "、": 1931,
      "。": 1932,
      "〈": 1933,
      "〉": 1934,
      "《": 1935,
      "》": 1936,
      "「": 1937,
      "」": 1938,
      "『": 1939,
      "』": 1940,
      "【": 1941,
      "】": 1942,
      "〖": 1943,
      "〗": 1944,
      "〙": 1945,
      "〜": 1946,
      "〝": 1947,
      "あ": 1948,
      "い": 1949,
      "う": 1950,
      "え": 1951,
      "お": 1952,
      "か": 1953,
      "が": 1954,
      "き": 1955,
      "ぎ": 1956,
      "く": 1957,
      "け": 1958,
      "げ": 1959,
      "こ": 1960,
      "ご": 1961,
      "さ": 1962,
      "し": 1963,
      "じ": 1964,
      "す": 1965,
      "ず": 1966,
      "せ": 1967,
      "ぜ": 1968,
      "そ": 1969,
      "ぞ": 1970,
      "た": 1971,
      "だ": 1972,
      "ち": 1973,
      "っ": 1974,
      "つ": 1975,
      "づ": 1976,
      "て": 1977,
      "で": 1978,
      "と": 1979,
      "ど": 1980,
      "な": 1981,
      "に": 1982,
      "ぬ": 1983,
      "ね": 1984,
      "の": 1985,
      "は": 1986,
      "ば": 1987,
      "ぱ": 1988,
      "ひ": 1989,
      "び": 1990,
      "ふ": 1991,
      "ぶ": 1992,
      "ぷ": 1993,
      "へ": 1994,
      "べ": 1995,
      "ほ": 1996,
      "ぼ": 1997,
      "ま": 1998,
      "み": 1999,
      "む": 2000,
      "め": 2001,
      "も": 2002,
      "ゃ": 2003,
      "や": 2004,
      "ゅ": 2005,
      "ゆ": 2006,
      "ょ": 2007,
      "よ": 2008,
      "ら": 2009,
      "り": 2010,
      "る": 2011,
      "れ": 2012,
      "ろ": 2013,
      "わ": 2014,
      "を": 2015,
      "ん": 2016,
      "゚": 2017,
      "ゞ": 2018,
      "ァ": 2019,
      "ア": 2020,
      "ィ": 2021,
      "イ": 2022,
      "ウ": 2023,
      "ェ": 2024,
      "エ": 2025,
      "ォ": 2026,
      "オ": 2027,
      "カ": 2028,
      "ガ": 2029,
      "キ": 2030,
      "ギ": 2031,
      "ク": 2032,
      "グ": 2033,
      "ケ": 2034,
      "ゲ": 2035,
      "コ": 2036,
      "サ": 2037,
      "ザ": 2038,
      "シ": 2039,
      "ジ": 2040,
      "ス": 2041,
      "ズ": 2042,
      "セ": 2043,
      "ゼ": 2044,
      "ソ": 2045,
      "タ": 2046,
      "ダ": 2047,
      "チ": 2048,
      "ッ": 2049,
      "ツ": 2050,
      "テ": 2051,
      "デ": 2052,
      "ト": 2053,
      "ド": 2054,
      "ナ": 2055,
      "ニ": 2056,
      "ネ": 2057,
      "ノ": 2058,
      "ハ": 2059,
      "バ": 2060,
      "パ": 2061,
      "ヒ": 2062,
      "ビ": 2063,
      "ピ": 2064,
      "フ": 2065,
      "ブ": 2066,
      "プ": 2067,
      "ベ": 2068,
      "ペ": 2069,
      "ホ": 2070,
      "ボ": 2071,
      "ポ": 2072,
      "マ": 2073,
      "ミ": 2074,
      "ム": 2075,
      "メ": 2076,
      "モ": 2077,
      "ャ": 2078,
      "ュ": 2079,
      "ユ": 2080,
      "ョ": 2081,
      "ヨ": 2082,
      "ラ": 2083,
      "リ": 2084,
      "ル": 2085,
      "レ": 2086,
      "ロ": 2087,
      "ヮ": 2088,
      "ワ": 2089,
      "ン": 2090,
      "ヴ": 2091,
      "ヶ": 2092,
      "・": 2093,
      "ー": 2094,
      "ヽ": 2095,
      "ㄌ": 2096,
      "ㄖ": 2097,
      "ㄧ": 2098,
      "ㅋ": 2099,
      "ㅎ": 2100,
      "ㆍ": 2101,
      "㈥": 2102,
      "㎚": 2103,
      "㎛": 2104,
      "㎜": 2105,
      "㎝": 2106,
      "㎡": 2107,
      "㐄": 2108,
      "㐅": 2109,
      "㙍": 2110,
      "㣇": 2111,
      "㮪": 2112,
      "㱻": 2113,
      "㴠": 2114,
      "䀀": 2115,
      "䵧": 2116,
      "一": 2117,
      "丁": 2118,
      "七": 2119,
      "万": 2120,
      "三": 2121,
      "上": 2122,
      "下": 2123,
      "不": 2124,
      "与": 2125,
      "专": 2126,
      "且": 2127,
      "世": 2128,
      "业": 2129,
      "东": 2130,
      "丝": 2131,
      "両": 2132,
      "两": 2133,
      "严": 2134,
      "並": 2135,
      "丨": 2136,
      "个": 2137,
      "中": 2138,
      "串": 2139,
      "丶": 2140,
      "丹": 2141,
      "为": 2142,
      "主": 2143,
      "举": 2144,
      "丿": 2145,
      "乃": 2146,
      "久": 2147,
      "么": 2148,
      "义": 2149,
      "之": 2150,
      "乎": 2151,
      "乐": 2152,
      "乙": 2153,
      "九": 2154,
      "也": 2155,
      "习": 2156,
      "书": 2157,
      "乾": 2158,
      "亅": 2159,
      "了": 2160,
      "予": 2161,
      "事": 2162,
      "二": 2163,
      "于": 2164,
      "云": 2165,
      "互": 2166,
      "五": 2167,
      "亚": 2168,
      "些": 2169,
      "亡": 2170,
      "交": 2171,
      "亦": 2172,
      "产": 2173,
      "享": 2174,
      "京": 2175,
      "亮": 2176,
      "人": 2177,
      "亻": 2178,
      "亿": 2179,
      "什": 2180,
      "仅": 2181,
      "今": 2182,
      "介": 2183,
      "仍": 2184,
      "从": 2185,
      "仏": 2186,
      "仕": 2187,
      "他": 2188,
      "付": 2189,
      "仙": 2190,
      "代": 2191,
      "令": 2192,
      "以": 2193,
      "仪": 2194,
      "们": 2195,
      "仲": 2196,
      "件": 2197,
      "价": 2198,
      "任": 2199,
      "仿": 2200,
      "企": 2201,
      "伍": 2202,
      "伏": 2203,
      "伐": 2204,
      "休": 2205,
      "优": 2206,
      "会": 2207,
      "伞": 2208,
      "伟": 2209,
      "传": 2210,
      "伤": 2211,
      "伦": 2212,
      "伪": 2213,
      "伯": 2214,
      "估": 2215,
      "伴": 2216,
      "伸": 2217,
      "似": 2218,
      "但": 2219,
      "位": 2220,
      "低": 2221,
      "住": 2222,
      "体": 2223,
      "佔": 2224,
      "何": 2225,
      "佗": 2226,
      "余": 2227,
      "佛": 2228,
      "作": 2229,
      "你": 2230,
      "佩": 2231,
      "佳": 2232,
      "使": 2233,
      "來": 2234,
      "例": 2235,
      "供": 2236,
      "依": 2237,
      "価": 2238,
      "侬": 2239,
      "侵": 2240,
      "侶": 2241,
      "便": 2242,
      "係": 2243,
      "促": 2244,
      "俊": 2245,
      "保": 2246,
      "信": 2247,
      "修": 2248,
      "俿": 2249,
      "倄": 2250,
      "個": 2251,
      "倍": 2252,
      "們": 2253,
      "候": 2254,
      "値": 2255,
      "值": 2256,
      "假": 2257,
      "偏": 2258,
      "做": 2259,
      "停": 2260,
      "健": 2261,
      "側": 2262,
      "傅": 2263,
      "傘": 2264,
      "備": 2265,
      "催": 2266,
      "傳": 2267,
      "傾": 2268,
      "像": 2269,
      "優": 2270,
      "儲": 2271,
      "儿": 2272,
      "元": 2273,
      "充": 2274,
      "兆": 2275,
      "先": 2276,
      "光": 2277,
      "克": 2278,
      "免": 2279,
      "党": 2280,
      "入": 2281,
      "內": 2282,
      "全": 2283,
      "兩": 2284,
      "八": 2285,
      "公": 2286,
      "六": 2287,
      "兰": 2288,
      "共": 2289,
      "兲": 2290,
      "关": 2291,
      "兴": 2292,
      "兵": 2293,
      "其": 2294,
      "具": 2295,
      "典": 2296,
      "养": 2297,
      "兼": 2298,
      "内": 2299,
      "册": 2300,
      "再": 2301,
      "冒": 2302,
      "写": 2303,
      "军": 2304,
      "冯": 2305,
      "冰": 2306,
      "决": 2307,
      "况": 2308,
      "冷": 2309,
      "准": 2310,
      "减": 2311,
      "凑": 2312,
      "凝": 2313,
      "几": 2314,
      "凤": 2315,
      "出": 2316,
      "击": 2317,
      "函": 2318,
      "刀": 2319,
      "分": 2320,
      "切": 2321,
      "划": 2322,
      "列": 2323,
      "刘": 2324,
      "创": 2325,
      "初": 2326,
      "判": 2327,
      "別": 2328,
      "利": 2329,
      "别": 2330,
      "到": 2331,
      "制": 2332,
      "剂": 2333,
      "則": 2334,
      "削": 2335,
      "前": 2336,
      "剑": 2337,
      "剤": 2338,
      "剧": 2339,
      "剩": 2340,
      "剪": 2341,
      "割": 2342,
      "劍": 2343,
      "力": 2344,
      "功": 2345,
      "加": 2346,
      "务": 2347,
      "动": 2348,
      "助": 2349,
      "努": 2350,
      "効": 2351,
      "势": 2352,
      "勁": 2353,
      "勉": 2354,
      "勒": 2355,
      "動": 2356,
      "務": 2357,
      "勝": 2358,
      "勹": 2359,
      "勻": 2360,
      "包": 2361,
      "化": 2362,
      "北": 2363,
      "匠": 2364,
      "匹": 2365,
      "区": 2366,
      "医": 2367,
      "十": 2368,
      "千": 2369,
      "升": 2370,
      "午": 2371,
      "半": 2372,
      "华": 2373,
      "协": 2374,
      "卒": 2375,
      "卓": 2376,
      "单": 2377,
      "南": 2378,
      "単": 2379,
      "博": 2380,
      "卜": 2381,
      "卡": 2382,
      "卦": 2383,
      "印": 2384,
      "危": 2385,
      "即": 2386,
      "却": 2387,
      "卵": 2388,
      "卷": 2389,
      "厂": 2390,
      "历": 2391,
      "压": 2392,
      "厘": 2393,
      "厚": 2394,
      "原": 2395,
      "去": 2396,
      "县": 2397,
      "参": 2398,
      "參": 2399,
      "又": 2400,
      "叉": 2401,
      "及": 2402,
      "友": 2403,
      "双": 2404,
      "反": 2405,
      "发": 2406,
      "取": 2407,
      "受": 2408,
      "变": 2409,
      "叛": 2410,
      "口": 2411,
      "古": 2412,
      "句": 2413,
      "叩": 2414,
      "只": 2415,
      "叫": 2416,
      "可": 2417,
      "台": 2418,
      "史": 2419,
      "号": 2420,
      "司": 2421,
      "吁": 2422,
      "吃": 2423,
      "各": 2424,
      "合": 2425,
      "吉": 2426,
      "同": 2427,
      "名": 2428,
      "后": 2429,
      "向": 2430,
      "吕": 2431,
      "吗": 2432,
      "否": 2433,
      "含": 2434,
      "听": 2435,
      "吴": 2436,
      "吸": 2437,
      "呈": 2438,
      "告": 2439,
      "员": 2440,
      "呢": 2441,
      "周": 2442,
      "味": 2443,
      "呼": 2444,
      "命": 2445,
      "和": 2446,
      "哀": 2447,
      "品": 2448,
      "响": 2449,
      "哥": 2450,
      "哪": 2451,
      "唄": 2452,
      "唇": 2453,
      "售": 2454,
      "唱": 2455,
      "商": 2456,
      "問": 2457,
      "喂": 2458,
      "善": 2459,
      "喜": 2460,
      "單": 2461,
      "嗎": 2462,
      "嘉": 2463,
      "嘔": 2464,
      "噌": 2465,
      "器": 2466,
      "四": 2467,
      "回": 2468,
      "因": 2469,
      "团": 2470,
      "园": 2471,
      "困": 2472,
      "囲": 2473,
      "図": 2474,
      "围": 2475,
      "固": 2476,
      "国": 2477,
      "图": 2478,
      "圃": 2479,
      "圆": 2480,
      "圈": 2481,
      "國": 2482,
      "圍": 2483,
      "園": 2484,
      "圖": 2485,
      "土": 2486,
      "圣": 2487,
      "圧": 2488,
      "在": 2489,
      "地": 2490,
      "场": 2491,
      "圾": 2492,
      "址": 2493,
      "均": 2494,
      "坐": 2495,
      "块": 2496,
      "坠": 2497,
      "坡": 2498,
      "坦": 2499,
      "垂": 2500,
      "垃": 2501,
      "型": 2502,
      "垒": 2503,
      "垣": 2504,
      "城": 2505,
      "域": 2506,
      "培": 2507,
      "基": 2508,
      "堂": 2509,
      "堆": 2510,
      "報": 2511,
      "場": 2512,
      "塑": 2513,
      "塔": 2514,
      "塩": 2515,
      "填": 2516,
      "境": 2517,
      "墓": 2518,
      "増": 2519,
      "增": 2520,
      "壁": 2521,
      "壓": 2522,
      "壞": 2523,
      "壤": 2524,
      "士": 2525,
      "壮": 2526,
      "声": 2527,
      "壶": 2528,
      "壺": 2529,
      "壽": 2530,
      "处": 2531,
      "変": 2532,
      "复": 2533,
      "夕": 2534,
      "外": 2535,
      "多": 2536,
      "夜": 2537,
      "夠": 2538,
      "大": 2539,
      "天": 2540,
      "太": 2541,
      "夫": 2542,
      "失": 2543,
      "头": 2544,
      "奇": 2545,
      "奔": 2546,
      "奖": 2547,
      "套": 2548,
      "奠": 2549,
      "奥": 2550,
      "女": 2551,
      "好": 2552,
      "如": 2553,
      "妙": 2554,
      "始": 2555,
      "委": 2556,
      "姥": 2557,
      "威": 2558,
      "娱": 2559,
      "婧": 2560,
      "媒": 2561,
      "媛": 2562,
      "子": 2563,
      "孔": 2564,
      "孕": 2565,
      "字": 2566,
      "存": 2567,
      "孙": 2568,
      "学": 2569,
      "孩": 2570,
      "孪": 2571,
      "學": 2572,
      "孿": 2573,
      "宁": 2574,
      "它": 2575,
      "安": 2576,
      "完": 2577,
      "宏": 2578,
      "官": 2579,
      "定": 2580,
      "宜": 2581,
      "宝": 2582,
      "实": 2583,
      "実": 2584,
      "客": 2585,
      "室": 2586,
      "宫": 2587,
      "宮": 2588,
      "害": 2589,
      "宵": 2590,
      "家": 2591,
      "容": 2592,
      "寂": 2593,
      "寄": 2594,
      "密": 2595,
      "富": 2596,
      "察": 2597,
      "實": 2598,
      "寧": 2599,
      "審": 2600,
      "寫": 2601,
      "寶": 2602,
      "寸": 2603,
      "对": 2604,
      "寺": 2605,
      "导": 2606,
      "対": 2607,
      "寿": 2608,
      "専": 2609,
      "射": 2610,
      "将": 2611,
      "將": 2612,
      "專": 2613,
      "尋": 2614,
      "對": 2615,
      "導": 2616,
      "小": 2617,
      "少": 2618,
      "尓": 2619,
      "尔": 2620,
      "尚": 2621,
      "尤": 2622,
      "尩": 2623,
      "就": 2624,
      "尺": 2625,
      "尿": 2626,
      "局": 2627,
      "届": 2628,
      "屋": 2629,
      "屏": 2630,
      "展": 2631,
      "属": 2632,
      "山": 2633,
      "岁": 2634,
      "岐": 2635,
      "岑": 2636,
      "岩": 2637,
      "峡": 2638,
      "峯": 2639,
      "島": 2640,
      "崇": 2641,
      "嵁": 2642,
      "嶺": 2643,
      "嶼": 2644,
      "川": 2645,
      "州": 2646,
      "工": 2647,
      "左": 2648,
      "巧": 2649,
      "差": 2650,
      "己": 2651,
      "已": 2652,
      "巳": 2653,
      "巴": 2654,
      "巻": 2655,
      "币": 2656,
      "市": 2657,
      "布": 2658,
      "师": 2659,
      "希": 2660,
      "带": 2661,
      "師": 2662,
      "帮": 2663,
      "帶": 2664,
      "常": 2665,
      "幅": 2666,
      "幕": 2667,
      "干": 2668,
      "平": 2669,
      "年": 2670,
      "并": 2671,
      "幸": 2672,
      "幼": 2673,
      "广": 2674,
      "広": 2675,
      "庆": 2676,
      "床": 2677,
      "序": 2678,
      "庐": 2679,
      "庒": 2680,
      "库": 2681,
      "应": 2682,
      "底": 2683,
      "店": 2684,
      "度": 2685,
      "座": 2686,
      "庫": 2687,
      "庭": 2688,
      "康": 2689,
      "廣": 2690,
      "延": 2691,
      "建": 2692,
      "开": 2693,
      "异": 2694,
      "弊": 2695,
      "式": 2696,
      "引": 2697,
      "弟": 2698,
      "张": 2699,
      "弩": 2700,
      "弱": 2701,
      "張": 2702,
      "強": 2703,
      "强": 2704,
      "弾": 2705,
      "当": 2706,
      "录": 2707,
      "彡": 2708,
      "形": 2709,
      "彦": 2710,
      "彩": 2711,
      "影": 2712,
      "彳": 2713,
      "彼": 2714,
      "径": 2715,
      "待": 2716,
      "很": 2717,
      "律": 2718,
      "後": 2719,
      "徐": 2720,
      "徑": 2721,
      "徒": 2722,
      "従": 2723,
      "得": 2724,
      "從": 2725,
      "御": 2726,
      "循": 2727,
      "微": 2728,
      "徴": 2729,
      "德": 2730,
      "心": 2731,
      "必": 2732,
      "忆": 2733,
      "忍": 2734,
      "志": 2735,
      "忘": 2736,
      "応": 2737,
      "快": 2738,
      "念": 2739,
      "态": 2740,
      "怎": 2741,
      "怕": 2742,
      "思": 2743,
      "急": 2744,
      "性": 2745,
      "总": 2746,
      "恐": 2747,
      "恒": 2748,
      "息": 2749,
      "悉": 2750,
      "悟": 2751,
      "患": 2752,
      "您": 2753,
      "悪": 2754,
      "悼": 2755,
      "情": 2756,
      "惊": 2757,
      "惠": 2758,
      "想": 2759,
      "意": 2760,
      "愛": 2761,
      "感": 2762,
      "慈": 2763,
      "態": 2764,
      "慎": 2765,
      "慣": 2766,
      "慰": 2767,
      "憶": 2768,
      "應": 2769,
      "懷": 2770,
      "懼": 2771,
      "戈": 2772,
      "戏": 2773,
      "成": 2774,
      "我": 2775,
      "或": 2776,
      "战": 2777,
      "戦": 2778,
      "戰": 2779,
      "戲": 2780,
      "戶": 2781,
      "户": 2782,
      "戻": 2783,
      "房": 2784,
      "所": 2785,
      "扇": 2786,
      "手": 2787,
      "才": 2788,
      "打": 2789,
      "托": 2790,
      "执": 2791,
      "扬": 2792,
      "扮": 2793,
      "扱": 2794,
      "找": 2795,
      "技": 2796,
      "抄": 2797,
      "把": 2798,
      "投": 2799,
      "折": 2800,
      "抛": 2801,
      "抜": 2802,
      "択": 2803,
      "护": 2804,
      "报": 2805,
      "披": 2806,
      "押": 2807,
      "拉": 2808,
      "拋": 2809,
      "拍": 2810,
      "招": 2811,
      "拜": 2812,
      "拟": 2813,
      "拡": 2814,
      "择": 2815,
      "括": 2816,
      "拭": 2817,
      "拯": 2818,
      "拳": 2819,
      "拶": 2820,
      "持": 2821,
      "指": 2822,
      "按": 2823,
      "挑": 2824,
      "挟": 2825,
      "挥": 2826,
      "挨": 2827,
      "振": 2828,
      "捕": 2829,
      "损": 2830,
      "换": 2831,
      "捨": 2832,
      "据": 2833,
      "捺": 2834,
      "授": 2835,
      "掉": 2836,
      "排": 2837,
      "掖": 2838,
      "探": 2839,
      "接": 2840,
      "控": 2841,
      "推": 2842,
      "掳": 2843,
      "描": 2844,
      "提": 2845,
      "插": 2846,
      "換": 2847,
      "握": 2848,
      "揭": 2849,
      "揮": 2850,
      "援": 2851,
      "搜": 2852,
      "摘": 2853,
      "摩": 2854,
      "摺": 2855,
      "撉": 2856,
      "播": 2857,
      "撰": 2858,
      "擊": 2859,
      "操": 2860,
      "據": 2861,
      "擞": 2862,
      "擦": 2863,
      "擬": 2864,
      "擴": 2865,
      "攀": 2866,
      "攜": 2867,
      "支": 2868,
      "攵": 2869,
      "收": 2870,
      "改": 2871,
      "攻": 2872,
      "放": 2873,
      "政": 2874,
      "故": 2875,
      "效": 2876,
      "敏": 2877,
      "救": 2878,
      "敗": 2879,
      "教": 2880,
      "散": 2881,
      "数": 2882,
      "敲": 2883,
      "整": 2884,
      "敷": 2885,
      "數": 2886,
      "文": 2887,
      "斑": 2888,
      "斗": 2889,
      "料": 2890,
      "斜": 2891,
      "斤": 2892,
      "断": 2893,
      "斯": 2894,
      "新": 2895,
      "方": 2896,
      "於": 2897,
      "施": 2898,
      "族": 2899,
      "无": 2900,
      "既": 2901,
      "日": 2902,
      "旨": 2903,
      "早": 2904,
      "时": 2905,
      "昆": 2906,
      "昌": 2907,
      "明": 2908,
      "易": 2909,
      "星": 2910,
      "春": 2911,
      "昭": 2912,
      "是": 2913,
      "显": 2914,
      "時": 2915,
      "晕": 2916,
      "普": 2917,
      "景": 2918,
      "暂": 2919,
      "暈": 2920,
      "暴": 2921,
      "曜": 2922,
      "曰": 2923,
      "更": 2924,
      "書": 2925,
      "曼": 2926,
      "曾": 2927,
      "最": 2928,
      "會": 2929,
      "月": 2930,
      "有": 2931,
      "服": 2932,
      "望": 2933,
      "期": 2934,
      "木": 2935,
      "未": 2936,
      "本": 2937,
      "术": 2938,
      "朱": 2939,
      "机": 2940,
      "权": 2941,
      "李": 2942,
      "材": 2943,
      "村": 2944,
      "束": 2945,
      "条": 2946,
      "来": 2947,
      "杭": 2948,
      "杯": 2949,
      "東": 2950,
      "松": 2951,
      "板": 2952,
      "极": 2953,
      "构": 2954,
      "析": 2955,
      "枕": 2956,
      "林": 2957,
      "枚": 2958,
      "果": 2959,
      "枪": 2960,
      "架": 2961,
      "某": 2962,
      "染": 2963,
      "查": 2964,
      "査": 2965,
      "标": 2966,
      "树": 2967,
      "校": 2968,
      "株": 2969,
      "样": 2970,
      "核": 2971,
      "根": 2972,
      "格": 2973,
      "栽": 2974,
      "框": 2975,
      "案": 2976,
      "桑": 2977,
      "档": 2978,
      "梅": 2979,
      "條": 2980,
      "梦": 2981,
      "梯": 2982,
      "械": 2983,
      "检": 2984,
      "棠": 2985,
      "森": 2986,
      "検": 2987,
      "楊": 2988,
      "楚": 2989,
      "業": 2990,
      "極": 2991,
      "楷": 2992,
      "楼": 2993,
      "楽": 2994,
      "概": 2995,
      "榮": 2996,
      "構": 2997,
      "様": 2998,
      "標": 2999,
      "模": 3000,
      "横": 3001,
      "樸": 3002,
      "樽": 3003,
      "橋": 3004,
      "機": 3005,
      "檒": 3006,
      "檚": 3007,
      "檛": 3008,
      "檢": 3009,
      "欄": 3010,
      "欠": 3011,
      "次": 3012,
      "欢": 3013,
      "欲": 3014,
      "歄": 3015,
      "歌": 3016,
      "歡": 3017,
      "止": 3018,
      "正": 3019,
      "此": 3020,
      "步": 3021,
      "歧": 3022,
      "歸": 3023,
      "殊": 3024,
      "残": 3025,
      "殖": 3026,
      "段": 3027,
      "殿": 3028,
      "毁": 3029,
      "每": 3030,
      "毒": 3031,
      "比": 3032,
      "毛": 3033,
      "民": 3034,
      "气": 3035,
      "気": 3036,
      "氢": 3037,
      "氣": 3038,
      "氧": 3039,
      "水": 3040,
      "氷": 3041,
      "永": 3042,
      "求": 3043,
      "汇": 3044,
      "汉": 3045,
      "汕": 3046,
      "汝": 3047,
      "江": 3048,
      "池": 3049,
      "污": 3050,
      "汤": 3051,
      "決": 3052,
      "沁": 3053,
      "沃": 3054,
      "沈": 3055,
      "沙": 3056,
      "沟": 3057,
      "没": 3058,
      "沢": 3059,
      "沫": 3060,
      "河": 3061,
      "油": 3062,
      "治": 3063,
      "泄": 3064,
      "法": 3065,
      "泛": 3066,
      "泡": 3067,
      "波": 3068,
      "泥": 3069,
      "注": 3070,
      "泰": 3071,
      "洀": 3072,
      "洗": 3073,
      "洛": 3074,
      "洞": 3075,
      "津": 3076,
      "洪": 3077,
      "洲": 3078,
      "活": 3079,
      "派": 3080,
      "流": 3081,
      "测": 3082,
      "浏": 3083,
      "浙": 3084,
      "浦": 3085,
      "浮": 3086,
      "海": 3087,
      "消": 3088,
      "涉": 3089,
      "涓": 3090,
      "涛": 3091,
      "涨": 3092,
      "涯": 3093,
      "液": 3094,
      "淘": 3095,
      "淲": 3096,
      "混": 3097,
      "渂": 3098,
      "清": 3099,
      "済": 3100,
      "渉": 3101,
      "渐": 3102,
      "渚": 3103,
      "渢": 3104,
      "渦": 3105,
      "温": 3106,
      "測": 3107,
      "港": 3108,
      "游": 3109,
      "湖": 3110,
      "湯": 3111,
      "満": 3112,
      "源": 3113,
      "準": 3114,
      "溢": 3115,
      "溪": 3116,
      "溶": 3117,
      "滑": 3118,
      "滴": 3119,
      "漀": 3120,
      "演": 3121,
      "漢": 3122,
      "潔": 3123,
      "潭": 3124,
      "潮": 3125,
      "潵": 3126,
      "澳": 3127,
      "濃": 3128,
      "瀑": 3129,
      "灣": 3130,
      "火": 3131,
      "灭": 3132,
      "灯": 3133,
      "炉": 3134,
      "炒": 3135,
      "炮": 3136,
      "点": 3137,
      "為": 3138,
      "炼": 3139,
      "烏": 3140,
      "烟": 3141,
      "热": 3142,
      "無": 3143,
      "焦": 3144,
      "然": 3145,
      "焼": 3146,
      "照": 3147,
      "煮": 3148,
      "熊": 3149,
      "熟": 3150,
      "熱": 3151,
      "燃": 3152,
      "燈": 3153,
      "燥": 3154,
      "爀": 3155,
      "爍": 3156,
      "爬": 3157,
      "爱": 3158,
      "片": 3159,
      "版": 3160,
      "牛": 3161,
      "物": 3162,
      "特": 3163,
      "犀": 3164,
      "犬": 3165,
      "犭": 3166,
      "状": 3167,
      "狀": 3168,
      "狗": 3169,
      "独": 3170,
      "狭": 3171,
      "猪": 3172,
      "猫": 3173,
      "献": 3174,
      "猿": 3175,
      "獨": 3176,
      "獲": 3177,
      "獷": 3178,
      "獻": 3179,
      "玄": 3180,
      "率": 3181,
      "玉": 3182,
      "王": 3183,
      "玩": 3184,
      "环": 3185,
      "现": 3186,
      "珍": 3187,
      "現": 3188,
      "球": 3189,
      "理": 3190,
      "琢": 3191,
      "琴": 3192,
      "瑩": 3193,
      "璐": 3194,
      "環": 3195,
      "瓦": 3196,
      "瓶": 3197,
      "甚": 3198,
      "生": 3199,
      "產": 3200,
      "用": 3201,
      "甯": 3202,
      "田": 3203,
      "由": 3204,
      "甲": 3205,
      "申": 3206,
      "电": 3207,
      "男": 3208,
      "画": 3209,
      "界": 3210,
      "留": 3211,
      "畜": 3212,
      "略": 3213,
      "異": 3214,
      "當": 3215,
      "畿": 3216,
      "疑": 3217,
      "疗": 3218,
      "疫": 3219,
      "疲": 3220,
      "疾": 3221,
      "病": 3222,
      "痞": 3223,
      "瘦": 3224,
      "療": 3225,
      "癌": 3226,
      "癒": 3227,
      "癶": 3228,
      "発": 3229,
      "登": 3230,
      "發": 3231,
      "白": 3232,
      "百": 3233,
      "的": 3234,
      "皇": 3235,
      "盆": 3236,
      "盈": 3237,
      "益": 3238,
      "监": 3239,
      "盔": 3240,
      "盖": 3241,
      "盗": 3242,
      "監": 3243,
      "目": 3244,
      "直": 3245,
      "相": 3246,
      "盾": 3247,
      "省": 3248,
      "眂": 3249,
      "眉": 3250,
      "看": 3251,
      "真": 3252,
      "眠": 3253,
      "眼": 3254,
      "着": 3255,
      "瞭": 3256,
      "瞳": 3257,
      "矛": 3258,
      "知": 3259,
      "矩": 3260,
      "矫": 3261,
      "短": 3262,
      "石": 3263,
      "砂": 3264,
      "研": 3265,
      "砖": 3266,
      "破": 3267,
      "础": 3268,
      "硅": 3269,
      "硫": 3270,
      "硬": 3271,
      "确": 3272,
      "碳": 3273,
      "確": 3274,
      "碼": 3275,
      "磚": 3276,
      "礁": 3277,
      "礎": 3278,
      "示": 3279,
      "礼": 3280,
      "社": 3281,
      "神": 3282,
      "票": 3283,
      "祭": 3284,
      "祸": 3285,
      "禄": 3286,
      "福": 3287,
      "离": 3288,
      "禽": 3289,
      "禾": 3290,
      "秀": 3291,
      "私": 3292,
      "种": 3293,
      "科": 3294,
      "秒": 3295,
      "秘": 3296,
      "积": 3297,
      "称": 3298,
      "移": 3299,
      "稀": 3300,
      "程": 3301,
      "種": 3302,
      "稱": 3303,
      "積": 3304,
      "究": 3305,
      "空": 3306,
      "穿": 3307,
      "突": 3308,
      "立": 3309,
      "站": 3310,
      "章": 3311,
      "端": 3312,
      "竹": 3313,
      "笑": 3314,
      "笔": 3315,
      "符": 3316,
      "第": 3317,
      "筆": 3318,
      "等": 3319,
      "答": 3320,
      "策": 3321,
      "筝": 3322,
      "签": 3323,
      "简": 3324,
      "算": 3325,
      "管": 3326,
      "箭": 3327,
      "箱": 3328,
      "節": 3329,
      "範": 3330,
      "篆": 3331,
      "篇": 3332,
      "簇": 3333,
      "簡": 3334,
      "籍": 3335,
      "籠": 3336,
      "米": 3337,
      "类": 3338,
      "粉": 3339,
      "粋": 3340,
      "粒": 3341,
      "粗": 3342,
      "粥": 3343,
      "粱": 3344,
      "粵": 3345,
      "粽": 3346,
      "精": 3347,
      "糊": 3348,
      "糖": 3349,
      "糹": 3350,
      "系": 3351,
      "紀": 3352,
      "約": 3353,
      "紅": 3354,
      "紋": 3355,
      "納": 3356,
      "純": 3357,
      "紗": 3358,
      "紙": 3359,
      "級": 3360,
      "紞": 3361,
      "素": 3362,
      "索": 3363,
      "紧": 3364,
      "紫": 3365,
      "細": 3366,
      "紹": 3367,
      "終": 3368,
      "組": 3369,
      "経": 3370,
      "結": 3371,
      "絕": 3372,
      "絞": 3373,
      "絡": 3374,
      "絣": 3375,
      "給": 3376,
      "統": 3377,
      "絲": 3378,
      "經": 3379,
      "維": 3380,
      "綱": 3381,
      "網": 3382,
      "緊": 3383,
      "線": 3384,
      "締": 3385,
      "練": 3386,
      "縞": 3387,
      "縫": 3388,
      "縮": 3389,
      "總": 3390,
      "織": 3391,
      "繪": 3392,
      "繰": 3393,
      "纟": 3394,
      "红": 3395,
      "约": 3396,
      "级": 3397,
      "纪": 3398,
      "纵": 3399,
      "线": 3400,
      "组": 3401,
      "细": 3402,
      "织": 3403,
      "终": 3404,
      "绍": 3405,
      "经": 3406,
      "结": 3407,
      "绘": 3408,
      "给": 3409,
      "络": 3410,
      "统": 3411,
      "继": 3412,
      "绪": 3413,
      "续": 3414,
      "绳": 3415,
      "编": 3416,
      "缘": 3417,
      "缨": 3418,
      "缶": 3419,
      "缺": 3420,
      "网": 3421,
      "罗": 3422,
      "置": 3423,
      "羁": 3424,
      "羅": 3425,
      "美": 3426,
      "群": 3427,
      "羧": 3428,
      "義": 3429,
      "羹": 3430,
      "翅": 3431,
      "習": 3432,
      "翔": 3433,
      "翘": 3434,
      "翠": 3435,
      "翡": 3436,
      "翻": 3437,
      "老": 3438,
      "考": 3439,
      "者": 3440,
      "耆": 3441,
      "而": 3442,
      "耐": 3443,
      "耳": 3444,
      "聘": 3445,
      "聚": 3446,
      "聴": 3447,
      "聽": 3448,
      "肉": 3449,
      "肖": 3450,
      "育": 3451,
      "背": 3452,
      "胞": 3453,
      "能": 3454,
      "脅": 3455,
      "脆": 3456,
      "脚": 3457,
      "脱": 3458,
      "脹": 3459,
      "腥": 3460,
      "腦": 3461,
      "腳": 3462,
      "腻": 3463,
      "膜": 3464,
      "膨": 3465,
      "臂": 3466,
      "臥": 3467,
      "臨": 3468,
      "自": 3469,
      "至": 3470,
      "致": 3471,
      "臺": 3472,
      "與": 3473,
      "興": 3474,
      "舉": 3475,
      "舊": 3476,
      "舟": 3477,
      "航": 3478,
      "般": 3479,
      "艦": 3480,
      "艮": 3481,
      "良": 3482,
      "色": 3483,
      "艺": 3484,
      "节": 3485,
      "芬": 3486,
      "花": 3487,
      "芸": 3488,
      "苗": 3489,
      "苦": 3490,
      "英": 3491,
      "茂": 3492,
      "茄": 3493,
      "茅": 3494,
      "茜": 3495,
      "茵": 3496,
      "茶": 3497,
      "草": 3498,
      "荒": 3499,
      "荣": 3500,
      "药": 3501,
      "荷": 3502,
      "莫": 3503,
      "获": 3504,
      "菌": 3505,
      "菜": 3506,
      "菠": 3507,
      "萌": 3508,
      "萍": 3509,
      "萝": 3510,
      "营": 3511,
      "萬": 3512,
      "葉": 3513,
      "著": 3514,
      "蒙": 3515,
      "蓀": 3516,
      "蔵": 3517,
      "蕎": 3518,
      "蕾": 3519,
      "薇": 3520,
      "薬": 3521,
      "藏": 3522,
      "虎": 3523,
      "處": 3524,
      "號": 3525,
      "虽": 3526,
      "虾": 3527,
      "蚓": 3528,
      "蛇": 3529,
      "蛋": 3530,
      "蛸": 3531,
      "蛹": 3532,
      "蛾": 3533,
      "蜜": 3534,
      "蜥": 3535,
      "蝕": 3536,
      "蝸": 3537,
      "融": 3538,
      "螺": 3539,
      "蟬": 3540,
      "蟲": 3541,
      "血": 3542,
      "行": 3543,
      "術": 3544,
      "衣": 3545,
      "补": 3546,
      "表": 3547,
      "袁": 3548,
      "被": 3549,
      "裁": 3550,
      "裂": 3551,
      "装": 3552,
      "裙": 3553,
      "補": 3554,
      "製": 3555,
      "複": 3556,
      "褪": 3557,
      "褶": 3558,
      "襲": 3559,
      "西": 3560,
      "要": 3561,
      "見": 3562,
      "規": 3563,
      "視": 3564,
      "覧": 3565,
      "観": 3566,
      "觀": 3567,
      "见": 3568,
      "观": 3569,
      "规": 3570,
      "视": 3571,
      "览": 3572,
      "角": 3573,
      "解": 3574,
      "觸": 3575,
      "言": 3576,
      "訂": 3577,
      "計": 3578,
      "訊": 3579,
      "討": 3580,
      "訓": 3581,
      "記": 3582,
      "訪": 3583,
      "設": 3584,
      "許": 3585,
      "評": 3586,
      "詢": 3587,
      "試": 3588,
      "詩": 3589,
      "詰": 3590,
      "話": 3591,
      "該": 3592,
      "詳": 3593,
      "詹": 3594,
      "誌": 3595,
      "認": 3596,
      "語": 3597,
      "誣": 3598,
      "誤": 3599,
      "說": 3600,
      "説": 3601,
      "読": 3602,
      "誰": 3603,
      "課": 3604,
      "調": 3605,
      "請": 3606,
      "論": 3607,
      "諸": 3608,
      "講": 3609,
      "證": 3610,
      "識": 3611,
      "警": 3612,
      "議": 3613,
      "護": 3614,
      "讀": 3615,
      "變": 3616,
      "计": 3617,
      "订": 3618,
      "认": 3619,
      "让": 3620,
      "议": 3621,
      "记": 3622,
      "讲": 3623,
      "论": 3624,
      "设": 3625,
      "词": 3626,
      "译": 3627,
      "试": 3628,
      "诗": 3629,
      "话": 3630,
      "询": 3631,
      "该": 3632,
      "详": 3633,
      "语": 3634,
      "误": 3635,
      "说": 3636,
      "请": 3637,
      "诸": 3638,
      "读": 3639,
      "调": 3640,
      "谢": 3641,
      "谨": 3642,
      "谬": 3643,
      "谱": 3644,
      "谷": 3645,
      "豆": 3646,
      "豕": 3647,
      "豚": 3648,
      "象": 3649,
      "貓": 3650,
      "貝": 3651,
      "貨": 3652,
      "貫": 3653,
      "費": 3654,
      "資": 3655,
      "質": 3656,
      "贖": 3657,
      "贝": 3658,
      "负": 3659,
      "责": 3660,
      "败": 3661,
      "账": 3662,
      "货": 3663,
      "质": 3664,
      "购": 3665,
      "贴": 3666,
      "贵": 3667,
      "贸": 3668,
      "费": 3669,
      "资": 3670,
      "赛": 3671,
      "赝": 3672,
      "赞": 3673,
      "赵": 3674,
      "起": 3675,
      "超": 3676,
      "越": 3677,
      "趣": 3678,
      "足": 3679,
      "跃": 3680,
      "跌": 3681,
      "跑": 3682,
      "距": 3683,
      "跡": 3684,
      "路": 3685,
      "跳": 3686,
      "踊": 3687,
      "踪": 3688,
      "蹲": 3689,
      "身": 3690,
      "車": 3691,
      "軌": 3692,
      "軍": 3693,
      "軟": 3694,
      "転": 3695,
      "軸": 3696,
      "軽": 3697,
      "較": 3698,
      "載": 3699,
      "輔": 3700,
      "輪": 3701,
      "輸": 3702,
      "輿": 3703,
      "轉": 3704,
      "车": 3705,
      "转": 3706,
      "轮": 3707,
      "载": 3708,
      "辆": 3709,
      "辐": 3710,
      "辑": 3711,
      "输": 3712,
      "辨": 3713,
      "边": 3714,
      "辽": 3715,
      "达": 3716,
      "迅": 3717,
      "过": 3718,
      "迎": 3719,
      "运": 3720,
      "近": 3721,
      "返": 3722,
      "还": 3723,
      "这": 3724,
      "进": 3725,
      "连": 3726,
      "迦": 3727,
      "述": 3728,
      "追": 3729,
      "退": 3730,
      "送": 3731,
      "逆": 3732,
      "选": 3733,
      "透": 3734,
      "逐": 3735,
      "递": 3736,
      "途": 3737,
      "這": 3738,
      "通": 3739,
      "速": 3740,
      "造": 3741,
      "連": 3742,
      "進": 3743,
      "逸": 3744,
      "逼": 3745,
      "遊": 3746,
      "運": 3747,
      "遍": 3748,
      "過": 3749,
      "道": 3750,
      "達": 3751,
      "違": 3752,
      "遗": 3753,
      "遞": 3754,
      "適": 3755,
      "選": 3756,
      "遺": 3757,
      "遼": 3758,
      "避": 3759,
      "還": 3760,
      "邊": 3761,
      "邓": 3762,
      "那": 3763,
      "邦": 3764,
      "邪": 3765,
      "邮": 3766,
      "郜": 3767,
      "部": 3768,
      "都": 3769,
      "鄉": 3770,
      "配": 3771,
      "酒": 3772,
      "酢": 3773,
      "酱": 3774,
      "酶": 3775,
      "醉": 3776,
      "醤": 3777,
      "采": 3778,
      "释": 3779,
      "釋": 3780,
      "里": 3781,
      "重": 3782,
      "野": 3783,
      "量": 3784,
      "金": 3785,
      "針": 3786,
      "鈥": 3787,
      "鈦": 3788,
      "鈽": 3789,
      "鉄": 3790,
      "鉦": 3791,
      "銃": 3792,
      "銆": 3793,
      "銘": 3794,
      "銜": 3795,
      "銷": 3796,
      "錄": 3797,
      "錕": 3798,
      "錢": 3799,
      "録": 3800,
      "鍋": 3801,
      "鍵": 3802,
      "鏄": 3803,
      "鏍": 3804,
      "鐸": 3805,
      "鑊": 3806,
      "鑑": 3807,
      "鑫": 3808,
      "钅": 3809,
      "针": 3810,
      "钟": 3811,
      "钦": 3812,
      "钱": 3813,
      "钻": 3814,
      "铁": 3815,
      "铜": 3816,
      "链": 3817,
      "销": 3818,
      "键": 3819,
      "锻": 3820,
      "镜": 3821,
      "镬": 3822,
      "長": 3823,
      "长": 3824,
      "閃": 3825,
      "開": 3826,
      "間": 3827,
      "関": 3828,
      "閱": 3829,
      "閲": 3830,
      "閳": 3831,
      "閿": 3832,
      "關": 3833,
      "门": 3834,
      "问": 3835,
      "间": 3836,
      "闻": 3837,
      "闽": 3838,
      "阅": 3839,
      "阪": 3840,
      "阱": 3841,
      "防": 3842,
      "阳": 3843,
      "阶": 3844,
      "阻": 3845,
      "阿": 3846,
      "际": 3847,
      "陆": 3848,
      "陈": 3849,
      "降": 3850,
      "限": 3851,
      "院": 3852,
      "除": 3853,
      "险": 3854,
      "陳": 3855,
      "陷": 3856,
      "陸": 3857,
      "階": 3858,
      "随": 3859,
      "隔": 3860,
      "際": 3861,
      "障": 3862,
      "隧": 3863,
      "隨": 3864,
      "隱": 3865,
      "难": 3866,
      "雄": 3867,
      "雅": 3868,
      "集": 3869,
      "雑": 3870,
      "雕": 3871,
      "雙": 3872,
      "雞": 3873,
      "離": 3874,
      "難": 3875,
      "雨": 3876,
      "雪": 3877,
      "雷": 3878,
      "電": 3879,
      "雾": 3880,
      "需": 3881,
      "霆": 3882,
      "霊": 3883,
      "霜": 3884,
      "霞": 3885,
      "露": 3886,
      "靈": 3887,
      "青": 3888,
      "静": 3889,
      "靜": 3890,
      "非": 3891,
      "面": 3892,
      "革": 3893,
      "韭": 3894,
      "音": 3895,
      "響": 3896,
      "頁": 3897,
      "項": 3898,
      "順": 3899,
      "須": 3900,
      "領": 3901,
      "頭": 3902,
      "頻": 3903,
      "顆": 3904,
      "題": 3905,
      "顔": 3906,
      "願": 3907,
      "類": 3908,
      "顯": 3909,
      "页": 3910,
      "顶": 3911,
      "项": 3912,
      "顺": 3913,
      "须": 3914,
      "顽": 3915,
      "颂": 3916,
      "预": 3917,
      "频": 3918,
      "颗": 3919,
      "题": 3920,
      "颜": 3921,
      "风": 3922,
      "飛": 3923,
      "飞": 3924,
      "食": 3925,
      "飯": 3926,
      "飾": 3927,
      "養": 3928,
      "餐": 3929,
      "館": 3930,
      "饣": 3931,
      "饭": 3932,
      "饱": 3933,
      "馆": 3934,
      "馒": 3935,
      "香": 3936,
      "馬": 3937,
      "駆": 3938,
      "験": 3939,
      "驗": 3940,
      "马": 3941,
      "验": 3942,
      "骗": 3943,
      "骨": 3944,
      "體": 3945,
      "高": 3946,
      "鬥": 3947,
      "鬼": 3948,
      "魔": 3949,
      "魚": 3950,
      "鮮": 3951,
      "鱻": 3952,
      "鱼": 3953,
      "鳴": 3954,
      "鴻": 3955,
      "鸡": 3956,
      "鸣": 3957,
      "鹃": 3958,
      "鹿": 3959,
      "麦": 3960,
      "麩": 3961,
      "麺": 3962,
      "麼": 3963,
      "黃": 3964,
      "黄": 3965,
      "黒": 3966,
      "點": 3967,
      "鼻": 3968,
      "齋": 3969,
      "龄": 3970,
      "龍": 3971,
      "龙": 3972,
      "ꙡ": 3973,
      "가": 3974,
      "각": 3975,
      "간": 3976,
      "갈": 3977,
      "감": 3978,
      "값": 3979,
      "강": 3980,
      "갖": 3981,
      "같": 3982,
      "개": 3983,
      "객": 3984,
      "갭": 3985,
      "거": 3986,
      "건": 3987,
      "검": 3988,
      "것": 3989,
      "게": 3990,
      "겠": 3991,
      "격": 3992,
      "견": 3993,
      "결": 3994,
      "경": 3995,
      "계": 3996,
      "고": 3997,
      "곤": 3998,
      "골": 3999,
      "곱": 4000,
      "곳": 4001,
      "공": 4002,
      "과": 4003,
      "관": 4004,
      "광": 4005,
      "교": 4006,
      "구": 4007,
      "국": 4008,
      "군": 4009,
      "굽": 4010,
      "굿": 4011,
      "궁": 4012,
      "규": 4013,
      "균": 4014,
      "그": 4015,
      "극": 4016,
      "글": 4017,
      "금": 4018,
      "급": 4019,
      "기": 4020,
      "긴": 4021,
      "길": 4022,
      "김": 4023,
      "까": 4024,
      "깝": 4025,
      "께": 4026,
      "껦": 4027,
      "껻": 4028,
      "꽁": 4029,
      "꽯": 4030,
      "꾸": 4031,
      "끼": 4032,
      "나": 4033,
      "난": 4034,
      "날": 4035,
      "남": 4036,
      "낮": 4037,
      "내": 4038,
      "냉": 4039,
      "너": 4040,
      "널": 4041,
      "넓": 4042,
      "넣": 4043,
      "넷": 4044,
      "녀": 4045,
      "년": 4046,
      "념": 4047,
      "노": 4048,
      "녹": 4049,
      "논": 4050,
      "놀": 4051,
      "농": 4052,
      "높": 4053,
      "누": 4054,
      "뉴": 4055,
      "늄": 4056,
      "느": 4057,
      "는": 4058,
      "능": 4059,
      "니": 4060,
      "닌": 4061,
      "닐": 4062,
      "님": 4063,
      "닝": 4064,
      "다": 4065,
      "단": 4066,
      "달": 4067,
      "답": 4068,
      "닷": 4069,
      "당": 4070,
      "대": 4071,
      "댓": 4072,
      "더": 4073,
      "던": 4074,
      "덜": 4075,
      "덤": 4076,
      "덩": 4077,
      "덮": 4078,
      "데": 4079,
      "덴": 4080,
      "도": 4081,
      "독": 4082,
      "돈": 4083,
      "동": 4084,
      "되": 4085,
      "된": 4086,
      "될": 4087,
      "됨": 4088,
      "두": 4089,
      "둘": 4090,
      "듀": 4091,
      "듈": 4092,
      "드": 4093,
      "득": 4094,
      "든": 4095,
      "듣": 4096,
      "들": 4097,
      "등": 4098,
      "디": 4099,
      "딩": 4100,
      "따": 4101,
      "딱": 4102,
      "때": 4103,
      "떠": 4104,
      "떡": 4105,
      "떤": 4106,
      "떼": 4107,
      "또": 4108,
      "뚃": 4109,
      "뛰": 4110,
      "띄": 4111,
      "라": 4112,
      "란": 4113,
      "람": 4114,
      "랍": 4115,
      "랑": 4116,
      "래": 4117,
      "랙": 4118,
      "랜": 4119,
      "램": 4120,
      "략": 4121,
      "량": 4122,
      "러": 4123,
      "런": 4124,
      "럼": 4125,
      "럽": 4126,
      "렇": 4127,
      "레": 4128,
      "렌": 4129,
      "려": 4130,
      "력": 4131,
      "련": 4132,
      "렵": 4133,
      "령": 4134,
      "례": 4135,
      "로": 4136,
      "록": 4137,
      "론": 4138,
      "롬": 4139,
      "롯": 4140,
      "롱": 4141,
      "료": 4142,
      "루": 4143,
      "룸": 4144,
      "류": 4145,
      "르": 4146,
      "른": 4147,
      "를": 4148,
      "리": 4149,
      "릭": 4150,
      "릴": 4151,
      "립": 4152,
      "링": 4153,
      "마": 4154,
      "막": 4155,
      "만": 4156,
      "많": 4157,
      "말": 4158,
      "맛": 4159,
      "맞": 4160,
      "매": 4161,
      "머": 4162,
      "먹": 4163,
      "먼": 4164,
      "메": 4165,
      "멘": 4166,
      "며": 4167,
      "면": 4168,
      "멸": 4169,
      "명": 4170,
      "몇": 4171,
      "모": 4172,
      "목": 4173,
      "몰": 4174,
      "몸": 4175,
      "무": 4176,
      "묵": 4177,
      "문": 4178,
      "물": 4179,
      "므": 4180,
      "미": 4181,
      "믹": 4182,
      "밀": 4183,
      "밍": 4184,
      "및": 4185,
      "바": 4186,
      "박": 4187,
      "반": 4188,
      "발": 4189,
      "밥": 4190,
      "방": 4191,
      "배": 4192,
      "백": 4193,
      "밴": 4194,
      "밸": 4195,
      "버": 4196,
      "번": 4197,
      "범": 4198,
      "법": 4199,
      "벗": 4200,
      "베": 4201,
      "벤": 4202,
      "벨": 4203,
      "변": 4204,
      "별": 4205,
      "보": 4206,
      "복": 4207,
      "볶": 4208,
      "본": 4209,
      "볼": 4210,
      "봉": 4211,
      "부": 4212,
      "분": 4213,
      "불": 4214,
      "붕": 4215,
      "붙": 4216,
      "뷰": 4217,
      "브": 4218,
      "블": 4219,
      "비": 4220,
      "빈": 4221,
      "빔": 4222,
      "빙": 4223,
      "빵": 4224,
      "뿌": 4225,
      "사": 4226,
      "산": 4227,
      "살": 4228,
      "삼": 4229,
      "삽": 4230,
      "상": 4231,
      "색": 4232,
      "생": 4233,
      "서": 4234,
      "석": 4235,
      "선": 4236,
      "설": 4237,
      "섬": 4238,
      "섭": 4239,
      "섯": 4240,
      "성": 4241,
      "세": 4242,
      "섹": 4243,
      "셀": 4244,
      "션": 4245,
      "소": 4246,
      "속": 4247,
      "손": 4248,
      "솔": 4249,
      "쇄": 4250,
      "수": 4251,
      "숙": 4252,
      "순": 4253,
      "술": 4254,
      "스": 4255,
      "슬": 4256,
      "습": 4257,
      "슸": 4258,
      "시": 4259,
      "식": 4260,
      "신": 4261,
      "실": 4262,
      "심": 4263,
      "십": 4264,
      "싱": 4265,
      "싸": 4266,
      "쌀": 4267,
      "쌍": 4268,
      "쌐": 4269,
      "써": 4270,
      "쓰": 4271,
      "씩": 4272,
      "씬": 4273,
      "씹": 4274,
      "아": 4275,
      "안": 4276,
      "않": 4277,
      "알": 4278,
      "압": 4279,
      "애": 4280,
      "액": 4281,
      "야": 4282,
      "약": 4283,
      "양": 4284,
      "어": 4285,
      "억": 4286,
      "업": 4287,
      "없": 4288,
      "었": 4289,
      "에": 4290,
      "엔": 4291,
      "엠": 4292,
      "여": 4293,
      "역": 4294,
      "연": 4295,
      "열": 4296,
      "염": 4297,
      "였": 4298,
      "영": 4299,
      "예": 4300,
      "오": 4301,
      "온": 4302,
      "올": 4303,
      "와": 4304,
      "완": 4305,
      "외": 4306,
      "요": 4307,
      "용": 4308,
      "우": 4309,
      "운": 4310,
      "울": 4311,
      "움": 4312,
      "워": 4313,
      "원": 4314,
      "월": 4315,
      "웨": 4316,
      "웬": 4317,
      "웹": 4318,
      "위": 4319,
      "윌": 4320,
      "유": 4321,
      "육": 4322,
      "율": 4323,
      "융": 4324,
      "으": 4325,
      "은": 4326,
      "을": 4327,
      "음": 4328,
      "응": 4329,
      "의": 4330,
      "이": 4331,
      "익": 4332,
      "인": 4333,
      "일": 4334,
      "임": 4335,
      "입": 4336,
      "있": 4337,
      "잉": 4338,
      "자": 4339,
      "작": 4340,
      "잘": 4341,
      "잡": 4342,
      "장": 4343,
      "재": 4344,
      "잭": 4345,
      "쟁": 4346,
      "저": 4347,
      "적": 4348,
      "전": 4349,
      "절": 4350,
      "점": 4351,
      "접": 4352,
      "정": 4353,
      "제": 4354,
      "젝": 4355,
      "져": 4356,
      "조": 4357,
      "족": 4358,
      "존": 4359,
      "좁": 4360,
      "종": 4361,
      "주": 4362,
      "죽": 4363,
      "준": 4364,
      "중": 4365,
      "즈": 4366,
      "즉": 4367,
      "즐": 4368,
      "증": 4369,
      "지": 4370,
      "직": 4371,
      "진": 4372,
      "질": 4373,
      "집": 4374,
      "징": 4375,
      "짜": 4376,
      "째": 4377,
      "쮱": 4378,
      "차": 4379,
      "착": 4380,
      "찰": 4381,
      "참": 4382,
      "찹": 4383,
      "창": 4384,
      "찾": 4385,
      "채": 4386,
      "책": 4387,
      "처": 4388,
      "천": 4389,
      "첨": 4390,
      "첩": 4391,
      "청": 4392,
      "체": 4393,
      "초": 4394,
      "최": 4395,
      "추": 4396,
      "축": 4397,
      "춘": 4398,
      "출": 4399,
      "충": 4400,
      "츠": 4401,
      "측": 4402,
      "층": 4403,
      "치": 4404,
      "친": 4405,
      "침": 4406,
      "칭": 4407,
      "카": 4408,
      "캐": 4409,
      "캠": 4410,
      "커": 4411,
      "컨": 4412,
      "컬": 4413,
      "컴": 4414,
      "컵": 4415,
      "케": 4416,
      "코": 4417,
      "콘": 4418,
      "크": 4419,
      "큰": 4420,
      "클": 4421,
      "큼": 4422,
      "키": 4423,
      "킨": 4424,
      "킴": 4425,
      "타": 4426,
      "탁": 4427,
      "탄": 4428,
      "탈": 4429,
      "탐": 4430,
      "태": 4431,
      "택": 4432,
      "탱": 4433,
      "터": 4434,
      "턴": 4435,
      "텅": 4436,
      "테": 4437,
      "텐": 4438,
      "템": 4439,
      "토": 4440,
      "통": 4441,
      "투": 4442,
      "튀": 4443,
      "트": 4444,
      "특": 4445,
      "틀": 4446,
      "티": 4447,
      "팀": 4448,
      "팅": 4449,
      "파": 4450,
      "판": 4451,
      "팥": 4452,
      "패": 4453,
      "팰": 4454,
      "퍶": 4455,
      "퍼": 4456,
      "펄": 4457,
      "펴": 4458,
      "편": 4459,
      "평": 4460,
      "폐": 4461,
      "포": 4462,
      "폭": 4463,
      "표": 4464,
      "품": 4465,
      "퓨": 4466,
      "프": 4467,
      "플": 4468,
      "피": 4469,
      "픽": 4470,
      "핀": 4471,
      "필": 4472,
      "핑": 4473,
      "하": 4474,
      "학": 4475,
      "한": 4476,
      "할": 4477,
      "함": 4478,
      "합": 4479,
      "항": 4480,
      "해": 4481,
      "행": 4482,
      "향": 4483,
      "허": 4484,
      "헌": 4485,
      "헤": 4486,
      "혁": 4487,
      "현": 4488,
      "형": 4489,
      "호": 4490,
      "혼": 4491,
      "홀": 4492,
      "홈": 4493,
      "화": 4494,
      "환": 4495,
      "황": 4496,
      "회": 4497,
      "획": 4498,
      "횟": 4499,
      "효": 4500,
      "후": 4501,
      "훈": 4502,
      "훨": 4503,
      "휘": 4504,
      "흐": 4505,
      "흑": 4506,
      "히": 4507,
      "힉": 4508,
      "힐": 4509,
      "": 4510,
      "": 4511,
      "": 4512,
      "": 4513,
      "": 4514,
      "": 4515,
      "": 4516,
      "": 4517,
      "": 4518,
      "": 4519,
      "": 4520,
      "": 4521,
      "": 4522,
      "": 4523,
      "": 4524,
      "": 4525,
      "": 4526,
      "": 4527,
      "": 4528,
      "": 4529,
      "": 4530,
      "": 4531,
      "": 4532,
      "": 4533,
      "": 4534,
      "": 4535,
      "": 4536,
      "": 4537,
      "": 4538,
      "": 4539,
      "": 4540,
      "": 4541,
      "": 4542,
      "": 4543,
      "": 4544,
      "": 4545,
      "": 4546,
      "": 4547,
      "": 4548,
      "": 4549,
      "": 4550,
      "": 4551,
      "": 4552,
      "": 4553,
      "": 4554,
      "": 4555,
      "": 4556,
      "": 4557,
      "": 4558,
      "": 4559,
      "": 4560,
      "": 4561,
      "": 4562,
      "": 4563,
      "": 4564,
      "": 4565,
      "": 4566,
      "": 4567,
      "": 4568,
      "": 4569,
      "": 4570,
      "": 4571,
      "": 4572,
      "": 4573,
      "": 4574,
      "": 4575,
      "": 4576,
      "": 4577,
      "": 4578,
      "": 4579,
      "": 4580,
      "": 4581,
      "": 4582,
      "": 4583,
      "": 4584,
      "": 4585,
      "": 4586,
      "": 4587,
      "": 4588,
      "": 4589,
      "": 4590,
      "": 4591,
      "": 4592,
      "": 4593,
      "": 4594,
      "": 4595,
      "": 4596,
      "": 4597,
      "": 4598,
      "": 4599,
      "": 4600,
      "": 4601,
      "": 4602,
      "": 4603,
      "": 4604,
      "": 4605,
      "": 4606,
      "": 4607,
      "": 4608,
      "": 4609,
      "": 4610,
      "": 4611,
      "": 4612,
      "": 4613,
      "": 4614,
      "": 4615,
      "": 4616,
      "": 4617,
      "": 4618,
      "": 4619,
      "": 4620,
      "": 4621,
      "": 4622,
      "": 4623,
      "": 4624,
      "": 4625,
      "": 4626,
      "": 4627,
      "": 4628,
      "": 4629,
      "": 4630,
      "": 4631,
      "": 4632,
      "": 4633,
      "": 4634,
      "": 4635,
      "": 4636,
      "": 4637,
      "": 4638,
      "": 4639,
      "": 4640,
      "": 4641,
      "": 4642,
      "": 4643,
      "": 4644,
      "": 4645,
      "": 4646,
      "": 4647,
      "": 4648,
      "": 4649,
      "": 4650,
      "": 4651,
      "": 4652,
      "": 4653,
      "": 4654,
      "": 4655,
      "": 4656,
      "": 4657,
      "": 4658,
      "": 4659,
      "ﬀ": 4660,
      "ﬁ": 4661,
      "ﬂ": 4662,
      "ﬃ": 4663,
      "ﷺ": 4664,
      "︀": 4665,
      "︎": 4666,
      "️": 4667,
      "︱": 4668,
      "ﺑ": 4669,
      "ﺔ": 4670,
      "ﺤ": 4671,
      "ﺪ": 4672,
      "ﺳ": 4673,
      "ﻋ": 4674,
      "ﻟ": 4675,
      "ﻠ": 4676,
      "ﻢ": 4677,
      "ﻤ": 4678,
      "ﻨ": 4679,
      "ﻮ": 4680,
      "ﻲ": 4681,
      "ﻻ": 4682,
      "！": 4683,
      "（": 4684,
      "）": 4685,
      "，": 4686,
      "／": 4687,
      "：": 4688,
      "；": 4689,
      "？": 4690,
      "～": 4691,
      "￼": 4692,
      "�": 4693,
      "𔃷": 4694,
      "𝐀": 4695,
      "𝐂": 4696,
      "𝐃": 4697,
      "𝐄": 4698,
      "𝐅": 4699,
      "𝐆": 4700,
      "𝐇": 4701,
      "𝐈": 4702,
      "𝐋": 4703,
      "𝐌": 4704,
      "𝐍": 4705,
      "𝐎": 4706,
      "𝐏": 4707,
      "𝐑": 4708,
      "𝐒": 4709,
      "𝐓": 4710,
      "𝐔": 4711,
      "𝐘": 4712,
      "𝐴": 4713,
      "𝐶": 4714,
      "𝐸": 4715,
      "𝐹": 4716,
      "𝐺": 4717,
      "𝐻": 4718,
      "𝐼": 4719,
      "𝐾": 4720,
      "𝐿": 4721,
      "𝑀": 4722,
      "𝑁": 4723,
      "𝑃": 4724,
      "𝑄": 4725,
      "𝑅": 4726,
      "𝑆": 4727,
      "𝑇": 4728,
      "𝑉": 4729,
      "𝑋": 4730,
      "𝑌": 4731,
      "𝑍": 4732,
      "𝑎": 4733,
      "𝑏": 4734,
      "𝑑": 4735,
      "𝑒": 4736,
      "𝑓": 4737,
      "𝑔": 4738,
      "𝑖": 4739,
      "𝑗": 4740,
      "𝑘": 4741,
      "𝑙": 4742,
      "𝑚": 4743,
      "𝑛": 4744,
      "𝑝": 4745,
      "𝑞": 4746,
      "𝑟": 4747,
      "𝑠": 4748,
      "𝑡": 4749,
      "𝑢": 4750,
      "𝑣": 4751,
      "𝑤": 4752,
      "𝑥": 4753,
      "𝑦": 4754,
      "𝑫": 4755,
      "𝑰": 4756,
      "𝑿": 4757,
      "𝒃": 4758,
      "𝒔": 4759,
      "𝒖": 4760,
      "𝒢": 4761,
      "𝒾": 4762,
      "𝓀": 4763,
      "𝓁": 4764,
      "𝓙": 4765,
      "𝓣": 4766,
      "𝓮": 4767,
      "𝓱": 4768,
      "𝓶": 4769,
      "𝓷": 4770,
      "𝓸": 4771,
      "𝓼": 4772,
      "𝔂": 4773,
      "𝗕": 4774,
      "𝗧": 4775,
      "𝗮": 4776,
      "𝗰": 4777,
      "𝗲": 4778,
      "𝗴": 4779,
      "𝗵": 4780,
      "𝗶": 4781,
      "𝗸": 4782,
      "𝗹": 4783,
      "𝗻": 4784,
      "𝗽": 4785,
      "𝘀": 4786,
      "𝘁": 4787,
      "𝙇": 4788,
      "𝙖": 4789,
      "𝙗": 4790,
      "𝙘": 4791,
      "𝙞": 4792,
      "𝙡": 4793,
      "𝙤": 4794,
      "𝙨": 4795,
      "𝙩": 4796,
      "𝙪": 4797,
      "𝚫": 4798,
      "𝛚": 4799,
      "𝛳": 4800,
      "𝛼": 4801,
      "𝛽": 4802,
      "𝛾": 4803,
      "𝛿": 4804,
      "𝜅": 4805,
      "𝜇": 4806,
      "𝜈": 4807,
      "𝜋": 4808,
      "𝜌": 4809,
      "𝜏": 4810,
      "𝜓": 4811,
      "𝜔": 4812,
      "𝜕": 4813,
      "𝝯": 4814,
      "𝟎": 4815,
      "𝟏": 4816,
      "𝟖": 4817,
      "🃏": 4818,
      "🅐": 4819,
      "🅓": 4820,
      "🅔": 4821,
      "🅡": 4822,
      "🅣": 4823,
      "🅱": 4824,
      "🆗": 4825,
      "🇦": 4826,
      "🇧": 4827,
      "🇨": 4828,
      "🇩": 4829,
      "🇪": 4830,
      "🇫": 4831,
      "🇬": 4832,
      "🇭": 4833,
      "🇮": 4834,
      "🇰": 4835,
      "🇱": 4836,
      "🇲": 4837,
      "🇳": 4838,
      "🇴": 4839,
      "🇵": 4840,
      "🇷": 4841,
      "🇸": 4842,
      "🇺": 4843,
      "🇽": 4844,
      "🇾": 4845,
      "🇿": 4846,
      "🌄": 4847,
      "🌅": 4848,
      "🌈": 4849,
      "🌊": 4850,
      "🌌": 4851,
      "🌍": 4852,
      "🌎": 4853,
      "🌏": 4854,
      "🌐": 4855,
      "🌑": 4856,
      "🌒": 4857,
      "🌓": 4858,
      "🌔": 4859,
      "🌙": 4860,
      "🌚": 4861,
      "🌞": 4862,
      "🌟": 4863,
      "🌠": 4864,
      "🌡": 4865,
      "🌤": 4866,
      "🌩": 4867,
      "🌪": 4868,
      "🌬": 4869,
      "🌮": 4870,
      "🌯": 4871,
      "🌱": 4872,
      "🌳": 4873,
      "🌴": 4874,
      "🌶": 4875,
      "🌷": 4876,
      "🌸": 4877,
      "🌺": 4878,
      "🌻": 4879,
      "🌼": 4880,
      "🌽": 4881,
      "🌾": 4882,
      "🌿": 4883,
      "🍀": 4884,
      "🍁": 4885,
      "🍂": 4886,
      "🍃": 4887,
      "🍄": 4888,
      "🍅": 4889,
      "🍇": 4890,
      "🍉": 4891,
      "🍊": 4892,
      "🍋": 4893,
      "🍍": 4894,
      "🍎": 4895,
      "🍏": 4896,
      "🍑": 4897,
      "🍓": 4898,
      "🍔": 4899,
      "🍕": 4900,
      "🍖": 4901,
      "🍗": 4902,
      "🍜": 4903,
      "🍝": 4904,
      "🍠": 4905,
      "🍤": 4906,
      "🍦": 4907,
      "🍪": 4908,
      "🍫": 4909,
      "🍭": 4910,
      "🍮": 4911,
      "🍯": 4912,
      "🍰": 4913,
      "🍲": 4914,
      "🍳": 4915,
      "🍴": 4916,
      "🍵": 4917,
      "🍷": 4918,
      "🍹": 4919,
      "🍽": 4920,
      "🍿": 4921,
      "🎁": 4922,
      "🎃": 4923,
      "🎄": 4924,
      "🎆": 4925,
      "🎉": 4926,
      "🎒": 4927,
      "🎓": 4928,
      "🎖": 4929,
      "🎙": 4930,
      "🎞": 4931,
      "🎟": 4932,
      "🎢": 4933,
      "🎣": 4934,
      "🎤": 4935,
      "🎥": 4936,
      "🎧": 4937,
      "🎨": 4938,
      "🎩": 4939,
      "🎬": 4940,
      "🎭": 4941,
      "🎮": 4942,
      "🎯": 4943,
      "🎱": 4944,
      "🎵": 4945,
      "🎶": 4946,
      "🎼": 4947,
      "🏁": 4948,
      "🏃": 4949,
      "🏆": 4950,
      "🏇": 4951,
      "🏈": 4952,
      "🏉": 4953,
      "🏋": 4954,
      "🏎": 4955,
      "🏔": 4956,
      "🏘": 4957,
      "🏙": 4958,
      "🏝": 4959,
      "🏞": 4960,
      "🏠": 4961,
      "🏡": 4962,
      "🏥": 4963,
      "🏫": 4964,
      "🏳": 4965,
      "🏴": 4966,
      "🏷": 4967,
      "🏺": 4968,
      "🏻": 4969,
      "🏼": 4970,
      "🏽": 4971,
      "🏾": 4972,
      "🏿": 4973,
      "🐀": 4974,
      "🐁": 4975,
      "🐄": 4976,
      "🐅": 4977,
      "🐈": 4978,
      "🐋": 4979,
      "🐌": 4980,
      "🐍": 4981,
      "🐎": 4982,
      "🐐": 4983,
      "🐔": 4984,
      "🐕": 4985,
      "🐖": 4986,
      "🐘": 4987,
      "🐝": 4988,
      "🐟": 4989,
      "🐠": 4990,
      "🐡": 4991,
      "🐢": 4992,
      "🐦": 4993,
      "🐧": 4994,
      "🐩": 4995,
      "🐪": 4996,
      "🐬": 4997,
      "🐱": 4998,
      "🐴": 4999,
      "🐶": 5000,
      "🐷": 5001,
      "🐻": 5002,
      "🐼": 5003,
      "🐽": 5004,
      "🐾": 5005,
      "👀": 5006,
      "👁": 5007,
      "👃": 5008,
      "👆": 5009,
      "👇": 5010,
      "👈": 5011,
      "👉": 5012,
      "👊": 5013,
      "👋": 5014,
      "👌": 5015,
      "👍": 5016,
      "👎": 5017,
      "👏": 5018,
      "👑": 5019,
      "👕": 5020,
      "👣": 5021,
      "👤": 5022,
      "👦": 5023,
      "👧": 5024,
      "👨": 5025,
      "👩": 5026,
      "👯": 5027,
      "👶": 5028,
      "👷": 5029,
      "👸": 5030,
      "👻": 5031,
      "💀": 5032,
      "💁": 5033,
      "💃": 5034,
      "💆": 5035,
      "💊": 5036,
      "💌": 5037,
      "💎": 5038,
      "💐": 5039,
      "💒": 5040,
      "💓": 5041,
      "💔": 5042,
      "💕": 5043,
      "💖": 5044,
      "💗": 5045,
      "💘": 5046,
      "💙": 5047,
      "💚": 5048,
      "💛": 5049,
      "💜": 5050,
      "💞": 5051,
      "💡": 5052,
      "💤": 5053,
      "💥": 5054,
      "💦": 5055,
      "💧": 5056,
      "💨": 5057,
      "💩": 5058,
      "💪": 5059,
      "💫": 5060,
      "💬": 5061,
      "💭": 5062,
      "💯": 5063,
      "💰": 5064,
      "💸": 5065,
      "💻": 5066,
      "💼": 5067,
      "💽": 5068,
      "💾": 5069,
      "📁": 5070,
      "📄": 5071,
      "📅": 5072,
      "📈": 5073,
      "📊": 5074,
      "📋": 5075,
      "📌": 5076,
      "📍": 5077,
      "📐": 5078,
      "📑": 5079,
      "📒": 5080,
      "📓": 5081,
      "📔": 5082,
      "📕": 5083,
      "📖": 5084,
      "📗": 5085,
      "📘": 5086,
      "📙": 5087,
      "📚": 5088,
      "📜": 5089,
      "📝": 5090,
      "📞": 5091,
      "📟": 5092,
      "📢": 5093,
      "📣": 5094,
      "📥": 5095,
      "📦": 5096,
      "📨": 5097,
      "📬": 5098,
      "📮": 5099,
      "📰": 5100,
      "📱": 5101,
      "📲": 5102,
      "📷": 5103,
      "📸": 5104,
      "📺": 5105,
      "📽": 5106,
      "🔀": 5107,
      "🔄": 5108,
      "🔇": 5109,
      "🔊": 5110,
      "🔋": 5111,
      "🔍": 5112,
      "🔎": 5113,
      "🔐": 5114,
      "🔑": 5115,
      "🔒": 5116,
      "🔔": 5117,
      "🔖": 5118,
      "🔗": 5119,
      "🔝": 5120,
      "🔥": 5121,
      "🔧": 5122,
      "🔨": 5123,
      "🔩": 5124,
      "🔪": 5125,
      "🔫": 5126,
      "🔬": 5127,
      "🔭": 5128,
      "🔮": 5129,
      "🔲": 5130,
      "🔴": 5131,
      "🔵": 5132,
      "🔹": 5133,
      "🔼": 5134,
      "🔽": 5135,
      "🕊": 5136,
      "🕑": 5137,
      "🕰": 5138,
      "🕵": 5139,
      "🕶": 5140,
      "🕷": 5141,
      "🕺": 5142,
      "🖇": 5143,
      "🖊": 5144,
      "🖋": 5145,
      "🖌": 5146,
      "🖍": 5147,
      "🖐": 5148,
      "🖖": 5149,
      "🖤": 5150,
      "🖥": 5151,
      "🖨": 5152,
      "🖱": 5153,
      "🖹": 5154,
      "🖼": 5155,
      "🗂": 5156,
      "🗓": 5157,
      "🗖": 5158,
      "🗣": 5159,
      "🗺": 5160,
      "🗻": 5161,
      "😀": 5162,
      "😁": 5163,
      "😂": 5164,
      "😃": 5165,
      "😄": 5166,
      "😅": 5167,
      "😆": 5168,
      "😇": 5169,
      "😈": 5170,
      "😉": 5171,
      "😊": 5172,
      "😋": 5173,
      "😍": 5174,
      "😎": 5175,
      "😏": 5176,
      "😐": 5177,
      "😑": 5178,
      "😒": 5179,
      "😔": 5180,
      "😕": 5181,
      "😖": 5182,
      "😘": 5183,
      "😛": 5184,
      "😜": 5185,
      "😝": 5186,
      "😟": 5187,
      "😡": 5188,
      "😢": 5189,
      "😤": 5190,
      "😥": 5191,
      "😦": 5192,
      "😨": 5193,
      "😩": 5194,
      "😪": 5195,
      "😫": 5196,
      "😬": 5197,
      "😭": 5198,
      "😮": 5199,
      "😯": 5200,
      "😰": 5201,
      "😱": 5202,
      "😲": 5203,
      "😳": 5204,
      "😴": 5205,
      "😵": 5206,
      "😷": 5207,
      "😸": 5208,
      "😺": 5209,
      "😻": 5210,
      "🙀": 5211,
      "🙁": 5212,
      "🙂": 5213,
      "🙃": 5214,
      "🙄": 5215,
      "🙅": 5216,
      "🙆": 5217,
      "🙈": 5218,
      "🙌": 5219,
      "🙏": 5220,
      "🚀": 5221,
      "🚁": 5222,
      "🚑": 5223,
      "🚒": 5224,
      "🚗": 5225,
      "🚚": 5226,
      "🚢": 5227,
      "🚣": 5228,
      "🚧": 5229,
      "🚨": 5230,
      "🚪": 5231,
      "🚫": 5232,
      "🚭": 5233,
      "🚰": 5234,
      "🚲": 5235,
      "🚴": 5236,
      "🚵": 5237,
      "🚶": 5238,
      "🚿": 5239,
      "🛋": 5240,
      "🛠": 5241,
      "🛡": 5242,
      "🛢": 5243,
      "🛣": 5244,
      "🛩": 5245,
      "🛰": 5246,
      "🛸": 5247,
      "🟠": 5248,
      "🟢": 5249,
      "🟣": 5250,
      "🟥": 5251,
      "🟩": 5252,
      "🡪": 5253,
      "🢬": 5254,
      "🢭": 5255,
      "🤌": 5256,
      "🤍": 5257,
      "🤐": 5258,
      "🤓": 5259,
      "🤔": 5260,
      "🤖": 5261,
      "🤗": 5262,
      "🤘": 5263,
      "🤙": 5264,
      "🤚": 5265,
      "🤝": 5266,
      "🤞": 5267,
      "🤟": 5268,
      "🤢": 5269,
      "🤣": 5270,
      "🤤": 5271,
      "🤦": 5272,
      "🤨": 5273,
      "🤩": 5274,
      "🤪": 5275,
      "🤫": 5276,
      "🤬": 5277,
      "🤭": 5278,
      "🤮": 5279,
      "🤯": 5280,
      "🤰": 5281,
      "🤴": 5282,
      "🤷": 5283,
      "🥂": 5284,
      "🥃": 5285,
      "🥇": 5286,
      "🥐": 5287,
      "🥒": 5288,
      "🥕": 5289,
      "🥖": 5290,
      "🥗": 5291,
      "🥘": 5292,
      "🥚": 5293,
      "🥛": 5294,
      "🥜": 5295,
      "🥝": 5296,
      "🥟": 5297,
      "🥣": 5298,
      "🥤": 5299,
      "🥥": 5300,
      "🥦": 5301,
      "🥧": 5302,
      "🥩": 5303,
      "🥫": 5304,
      "🥬": 5305,
      "🥭": 5306,
      "🥮": 5307,
      "🥰": 5308,
      "🥱": 5309,
      "🥲": 5310,
      "🥳": 5311,
      "🥵": 5312,
      "🥹": 5313,
      "🥺": 5314,
      "🥾": 5315,
      "🦀": 5316,
      "🦃": 5317,
      "🦄": 5318,
      "🦇": 5319,
      "🦈": 5320,
      "🦉": 5321,
      "🦊": 5322,
      "🦋": 5323,
      "🦑": 5324,
      "🦒": 5325,
      "🦗": 5326,
      "🦜": 5327,
      "🦟": 5328,
      "🦠": 5329,
      "🦢": 5330,
      "🦩": 5331,
      "🦷": 5332,
      "🦸": 5333,
      "🦾": 5334,
      "🧀": 5335,
      "🧁": 5336,
      "🧄": 5337,
      "🧐": 5338,
      "🧑": 5339,
      "🧗": 5340,
      "🧘": 5341,
      "🧙": 5342,
      "🧚": 5343,
      "🧠": 5344,
      "🧥": 5345,
      "🧩": 5346,
      "🧪": 5347,
      "🧫": 5348,
      "🧬": 5349,
      "🧮": 5350,
      "🧰": 5351,
      "🧱": 5352,
      "🧲": 5353,
      "🧵": 5354,
      "🧶": 5355,
      "🧺": 5356,
      "🧼": 5357,
      "🧾": 5358,
      "🪟": 5359,
      "🪴": 5360,
      "🫀": 5361,
      "🫤": 5362,
      "𠂉": 5363,
      "󈝿": 5364,
      "󱜂": 5365,
      "󱜉": 5366,
      "􀀀": 5367,
      "􀁵": 5368,
      "􀂃": 5369,
      "th": 5370,
      "in": 5371,
      "an": 5372,
      "er": 5373,
      "the": 5374,
      "on": 5375,
      "re": 5376,
      "at": 5377,
      "en": 5378,
      "es": 5379,
      "or": 5380,
      "al": 5381,
      "is": 5382,
      "ing": 5383,
      "to": 5384,
      "ou": 5385,
      "ed": 5386,
      "and": 5387,
      "it": 5388,
      "of": 5389,
      "ar": 5390,
      "ion": 5391,
      "as": 5392,
      "ic": 5393,
      "le": 5394,
      "ro": 5395,
      "st": 5396,
      "ec": 5397,
      "ent": 5398,
      "ac": 5399,
      "il": 5400,
      "se": 5401,
      "om": 5402,
      "lo": 5403,
      "ve": 5404,
      "he": 5405,
      "ra": 5406,
      "ly": 5407,
      "be": 5408,
      "for": 5409,
      "ch": 5410,
      "de": 5411,
      "im": 5412,
      "you": 5413,
      "are": 5414,
      "su": 5415,
      "am": 5416,
      "ig": 5417,
      "wh": 5418,
      "ay": 5419,
      "ce": 5420,
      "us": 5421,
      "ation": 5422,
      "mo": 5423,
      "that": 5424,
      "ol": 5425,
      "ers": 5426,
      "pl": 5427,
      "ow": 5428,
      "ith": 5429,
      "if": 5430,
      "pro": 5431,
      "ot": 5432,
      "ir": 5433,
      "ab": 5434,
      "ge": 5435,
      "un": 5436,
      "ter": 5437,
      "can": 5438,
      "ad": 5439,
      "with": 5440,
      "tion": 5441,
      "id": 5442,
      "ur": 5443,
      "com": 5444,
      "ver": 5445,
      "con": 5446,
      "ts": 5447,
      "ex": 5448,
      "ul": 5449,
      "res": 5450,
      "The": 5451,
      "ate": 5452,
      "ke": 5453,
      "ut": 5454,
      "ther": 5455,
      "Wh": 5456,
      "em": 5457,
      "ha": 5458,
      "sp": 5459,
      "ill": 5460,
      "ft": 5461,
      "tr": 5462,
      "per": 5463,
      "ment": 5464,
      "we": 5465,
      "raft": 5466,
      "ess": 5467,
      "ne": 5468,
      "qu": 5469,
      "ma": 5470,
      "igh": 5471,
      "all": 5472,
      "oun": 5473,
      "ck": 5474,
      "ition": 5475,
      "ta": 5476,
      "ity": 5477,
      "Min": 5478,
      "po": 5479,
      "ive": 5480,
      "ld": 5481,
      "od": 5482,
      "ecraft": 5483,
      "Minecraft": 5484,
      "so": 5485,
      "pe": 5486,
      "ies": 5487,
      "In": 5488,
      "What": 5489,
      "by": 5490,
      "do": 5491,
      "ant": 5492,
      "Th": 5493,
      "out": 5494,
      "um": 5495,
      "sh": 5496,
      "rom": 5497,
      "uc": 5498,
      "not": 5499,
      "ap": 5500,
      "your": 5501,
      "one": 5502,
      "ial": 5503,
      "iv": 5504,
      "ome": 5505,
      "dition": 5506,
      "ect": 5507,
      "me": 5508,
      "from": 5509,
      "our": 5510,
      "low": 5511,
      "est": 5512,
      "act": 5513,
      "ere": 5514,
      "wor": 5515,
      "ame": 5516,
      "ist": 5517,
      "have": 5518,
      "ure": 5519,
      "co": 5520,
      "ll": 5521,
      "cl": 5522,
      "av": 5523,
      "cre": 5524,
      "art": 5525,
      "ple": 5526,
      "ound": 5527,
      "ally": 5528,
      "use": 5529,
      "ag": 5530,
      "li": 5531,
      "ich": 5532,
      "ight": 5533,
      "ty": 5534,
      "fer": 5535,
      "ide": 5536,
      "up": 5537,
      "ind": 5538,
      "te": 5539,
      "play": 5540,
      "age": 5541,
      "able": 5542,
      "this": 5543,
      "fe": 5544,
      "der": 5545,
      "ff": 5546,
      "blo": 5547,
      "ine": 5548,
      "pr": 5549,
      "ie": 5550,
      "str": 5551,
      "ud": 5552,
      "ach": 5553,
      "their": 5554,
      "ib": 5555,
      "red": 5556,
      "ater": 5557,
      "ated": 5558,
      "ard": 5559,
      "any": 5560,
      "which": 5561,
      "ort": 5562,
      "ould": 5563,
      "iz": 5564,
      "was": 5565,
      "An": 5566,
      "ack": 5567,
      "they": 5568,
      "will": 5569,
      "more": 5570,
      "form": 5571,
      "fo": 5572,
      "end": 5573,
      "ance": 5574,
      "gh": 5575,
      "ence": 5576,
      "other": 5577,
      "used": 5578,
      "block": 5579,
      "king": 5580,
      "its": 5581,
      "ph": 5582,
      "tim": 5583,
      "ign": 5584,
      "when": 5585,
      "ip": 5586,
      "Edition": 5587,
      "comm": 5588,
      "dif": 5589,
      "ough": 5590,
      "but": 5591,
      "ous": 5592,
      "dis": 5593,
      "This": 5594,
      "ific": 5595,
      "op": 5596,
      "ting": 5597,
      "gen": 5598,
      "ans": 5599,
      "ue": 5600,
      "ical": 5601,
      "ass": 5602,
      "pre": 5603,
      "ust": 5604,
      "bo": 5605,
      "ues": 5606,
      "some": 5607,
      "spec": 5608,
      "has": 5609,
      "game": 5610,
      "ear": 5611,
      "no": 5612,
      "tain": 5613,
      "20": 5614,
      "ary": 5615,
      "way": 5616,
      "ens": 5617,
      "now": 5618,
      "port": 5619,
      "ase": 5620,
      "like": 5621,
      "go": 5622,
      "also": 5623,
      "sy": 5624,
      "ep": 5625,
      "sw": 5626,
      "ace": 5627,
      "ct": 5628,
      "ong": 5629,
      "them": 5630,
      "ile": 5631,
      "el": 5632,
      "ast": 5633,
      "ain": 5634,
      "et": 5635,
      "It": 5636,
      "comp": 5637,
      "differ": 5638,
      "ev": 5639,
      "ations": 5640,
      "ire": 5641,
      "cess": 5642,
      "ks": 5643,
      "eff": 5644,
      "ava": 5645,
      "cont": 5646,
      "ext": 5647,
      "ang": 5648,
      "pos": 5649,
      "ors": 5650,
      "des": 5651,
      "col": 5652,
      "ild": 5653,
      "ents": 5654,
      "duc": 5655,
      "ating": 5656,
      "such": 5657,
      "pres": 5658,
      "ob": 5659,
      "How": 5660,
      "cor": 5661,
      "gra": 5662,
      "cr": 5663,
      "tions": 5664,
      "ever": 5665,
      "ser": 5666,
      "int": 5667,
      "using": 5668,
      "prov": 5669,
      "ren": 5670,
      "bet": 5671,
      "how": 5672,
      "about": 5673,
      "ice": 5674,
      "bu": 5675,
      "ci": 5676,
      "ish": 5677,
      "gr": 5678,
      "enc": 5679,
      "Ques": 5680,
      "ures": 5681,
      "Answ": 5682,
      "Answer": 5683,
      "ber": 5684,
      "Question": 5685,
      "over": 5686,
      "row": 5687,
      "inter": 5688,
      "ite": 5689,
      "wo": 5690,
      "time": 5691,
      "aw": 5692,
      "dat": 5693,
      "hel": 5694,
      "get": 5695,
      "may": 5696,
      "into": 5697,
      "ia": 5698,
      "new": 5699,
      "incl": 5700,
      "min": 5701,
      "ult": 5702,
      "most": 5703,
      "..": 5704,
      "part": 5705,
      "own": 5706,
      "water": 5707,
      "ca": 5708,
      "there": 5709,
      "br": 5710,
      "00": 5711,
      "stem": 5712,
      "rock": 5713,
      "need": 5714,
      "ful": 5715,
      "than": 5716,
      "val": 5717,
      "log": 5718,
      "ech": 5719,
      "tra": 5720,
      "ments": 5721,
      "bl": 5722,
      "bi": 5723,
      "ms": 5724,
      "these": 5725,
      "bec": 5726,
      "ick": 5727,
      "ree": 5728,
      "item": 5729,
      "ory": 5730,
      "thing": 5731,
      "fl": 5732,
      "edrock": 5733,
      "ok": 5734,
      "know": 5735,
      "ility": 5736,
      "gener": 5737,
      "work": 5738,
      "high": 5739,
      "cur": 5740,
      "sa": 5741,
      "Bedrock": 5742,
      "ins": 5743,
      "rough": 5744,
      "vel": 5745,
      "help": 5746,
      "man": 5747,
      "system": 5748,
      "what": 5749,
      "ular": 5750,
      "ond": 5751,
      "arm": 5752,
      "only": 5753,
      "als": 5754,
      "ious": 5755,
      "allow": 5756,
      "does": 5757,
      "world": 5758,
      "ele": 5759,
      "vers": 5760,
      "ates": 5761,
      "sur": 5762,
      "ics": 5763,
      "ative": 5764,
      "dr": 5765,
      "where": 5766,
      "data": 5767,
      "ning": 5768,
      "pp": 5769,
      "var": 5770,
      "fore": 5771,
      "under": 5772,
      "velo": 5773,
      "specific": 5774,
      "different": 5775,
      "ased": 5776,
      "exper": 5777,
      "les": 5778,
      "ions": 5779,
      "rel": 5780,
      "were": 5781,
      "ange": 5782,
      "requ": 5783,
      "alth": 5784,
      "old": 5785,
      "sign": 5786,
      "ween": 5787,
      "struc": 5788,
      "ons": 5789,
      "sure": 5790,
      "air": 5791,
      "through": 5792,
      "Java": 5793,
      "blocks": 5794,
      "cho": 5795,
      "cer": 5796,
      "who": 5797,
      "car": 5798,
      "reg": 5799,
      "set": 5800,
      "ature": 5801,
      "If": 5802,
      "between": 5803,
      "add": 5804,
      "day": 5805,
      "pot": 5806,
      "eng": 5807,
      "fr": 5808,
      "players": 5809,
      "ak": 5810,
      "cent": 5811,
      "stud": 5812,
      "velop": 5813,
      "ities": 5814,
      "make": 5815,
      "just": 5816,
      "light": 5817,
      "cus": 5818,
      "year": 5819,
      "ects": 5820,
      "ces": 5821,
      "ible": 5822,
      "irst": 5823,
      "issu": 5824,
      "ction": 5825,
      "tom": 5826,
      "ble": 5827,
      "produc": 5828,
      "reat": 5829,
      "stand": 5830,
      "been": 5831,
      "fun": 5832,
      "off": 5833,
      "bre": 5834,
      "cons": 5835,
      "di": 5836,
      "gg": 5837,
      "sound": 5838,
      "should": 5839,
      "develop": 5840,
      "my": 5841,
      "iqu": 5842,
      "main": 5843,
      "St": 5844,
      "would": 5845,
      "type": 5846,
      "less": 5847,
      "ho": 5848,
      "att": 5849,
      "ys": 5850,
      "plan": 5851,
      "arch": 5852,
      "oft": 5853,
      "includ": 5854,
      "typ": 5855,
      "vent": 5856,
      "oc": 5857,
      "ize": 5858,
      "par": 5859,
      "bs": 5860,
      "ople": 5861,
      "lear": 5862,
      ").": 5863,
      "med": 5864,
      "pur": 5865,
      "well": 5866,
      "sul": 5867,
      "ause": 5868,
      "effect": 5869,
      "ied": 5870,
      "mon": 5871,
      "read": 5872,
      "create": 5873,
      "two": 5874,
      "ss": 5875,
      "ise": 5876,
      "vir": 5877,
      "cal": 5878,
      "very": 5879,
      "uring": 5880,
      "ual": 5881,
      "ose": 5882,
      "each": 5883,
      "long": 5884,
      "player": 5885,
      "process": 5886,
      "num": 5887,
      "many": 5888,
      "then": 5889,
      "af": 5890,
      "dec": 5891,
      "first": 5892,
      "ress": 5893,
      "sim": 5894,
      "You": 5895,
      "exp": 5896,
      "people": 5897,
      "ider": 5898,
      "ily": 5899,
      "19": 5900,
      "health": 5901,
      "design": 5902,
      "sec": 5903,
      "level": 5904,
      "ps": 5905,
      "ted": 5906,
      "ix": 5907,
      "ential": 5908,
      "ese": 5909,
      "back": 5910,
      "Ch": 5911,
      "We": 5912,
      "lar": 5913,
      "io": 5914,
      "being": 5915,
      "while": 5916,
      "10": 5917,
      "found": 5918,
      "For": 5919,
      "vis": 5920,
      "sel": 5921,
      "ient": 5922,
      "land": 5923,
      "uch": 5924,
      "tern": 5925,
      "hav": 5926,
      "struct": 5927,
      "grow": 5928,
      "gu": 5929,
      "sk": 5930,
      "lif": 5931,
      "try": 5932,
      "items": 5933,
      "ink": 5934,
      "formation": 5935,
      "top": 5936,
      "ding": 5937,
      "ian": 5938,
      "ique": 5939,
      "incre": 5940,
      "exam": 5941,
      "Ad": 5942,
      "sm": 5943,
      "even": 5944,
      "To": 5945,
      "fin": 5946,
      "experi": 5947,
      "eas": 5948,
      "Un": 5949,
      "au": 5950,
      "comple": 5951,
      "They": 5952,
      "mar": 5953,
      "du": 5954,
      "because": 5955,
      "sing": 5956,
      "fol": 5957,
      "urn": 5958,
      "pow": 5959,
      "erg": 5960,
      "sol": 5961,
      "ved": 5962,
      "build": 5963,
      "aterial": 5964,
      "ef": 5965,
      "import": 5966,
      "ically": 5967,
      "find": 5968,
      "ds": 5969,
      "ability": 5970,
      "food": 5971,
      "ves": 5972,
      "her": 5973,
      "rele": 5974,
      "atures": 5975,
      "En": 5976,
      "ath": 5977,
      "tech": 5978,
      "text": 5979,
      "see": 5980,
      "could": 5981,
      "prim": 5982,
      "fact": 5983,
      "char": 5984,
      "material": 5985,
      "search": 5986,
      "ural": 5987,
      "mer": 5988,
      "aff": 5989,
      "resp": 5990,
      "vol": 5991,
      "When": 5992,
      "ings": 5993,
      "As": 5994,
      "pat": 5995,
      "tem": 5996,
      "take": 5997,
      "ior": 5998,
      "mode": 5999,
      "provid": 6000,
      "ution": 6001,
      "pt": 6002,
      "pers": 6003,
      "resul": 6004,
      "awn": 6005,
      "every": 6006,
      "rain": 6007,
      "trans": 6008,
      "dam": 6009,
      "ry": 6010,
      "down": 6011,
      "sub": 6012,
      "viron": 6013,
      "coun": 6014,
      "gan": 6015,
      "line": 6016,
      "stone": 6017,
      "ject": 6018,
      "plac": 6019,
      "Ne": 6020,
      "resour": 6021,
      "put": 6022,
      "ways": 6023,
      "ality": 6024,
      "gs": 6025,
      "ger": 6026,
      "information": 6027,
      "clo": 6028,
      "chang": 6029,
      "after": 6030,
      "These": 6031,
      "proper": 6032,
      "cle": 6033,
      "ness": 6034,
      "hand": 6035,
      "tal": 6036,
      "mis": 6037,
      "inst": 6038,
      "unique": 6039,
      "pose": 6040,
      "ident": 6041,
      "power": 6042,
      "same": 6043,
      "cy": 6044,
      "cell": 6045,
      "number": 6046,
      "hum": 6047,
      "),": 6048,
      "Re": 6049,
      "including": 6050,
      "ices": 6051,
      "cu": 6052,
      "kes": 6053,
      "don": 6054,
      "partic": 6055,
      "sup": 6056,
      "cap": 6057,
      "before": 6058,
      "consider": 6059,
      "ude": 6060,
      "dep": 6061,
      "often": 6062,
      "Mo": 6063,
      "appe": 6064,
      "bod": 6065,
      "issues": 6066,
      "without": 6067,
      "follow": 6068,
      "There": 6069,
      "ized": 6070,
      "small": 6071,
      "important": 6072,
      "environ": 6073,
      "much": 6074,
      "life": 6075,
      "made": 6076,
      "--": 6077,
      "adv": 6078,
      "common": 6079,
      "want": 6080,
      "che": 6081,
      "led": 6082,
      "poss": 6083,
      "201": 6084,
      "making": 6085,
      "logy": 6086,
      "had": 6087,
      "show": 6088,
      "good": 6089,
      "dist": 6090,
      "during": 6091,
      "Al": 6092,
      "gl": 6093,
      "Con": 6094,
      "command": 6095,
      "let": 6096,
      "present": 6097,
      "lay": 6098,
      "craft": 6099,
      "nat": 6100,
      "start": 6101,
      "ines": 6102,
      "Can": 6103,
      "ier": 6104,
      "care": 6105,
      "plic": 6106,
      "call": 6107,
      "contro": 6108,
      "iew": 6109,
      "place": 6110,
      "sum": 6111,
      "happ": 6112,
      "provide": 6113,
      "years": 6114,
      "lim": 6115,
      "certain": 6116,
      "ash": 6117,
      "experience": 6118,
      "version": 6119,
      "thod": 6120,
      "research": 6121,
      "around": 6122,
      "move": 6123,
      "gre": 6124,
      "dro": 6125,
      "his": 6126,
      "child": 6127,
      "both": 6128,
      "spawn": 6129,
      "He": 6130,
      "proble": 6131,
      "anim": 6132,
      "ists": 6133,
      "ats": 6134,
      "ergy": 6135,
      "lead": 6136,
      "signific": 6137,
      "flow": 6138,
      "ages": 6139,
      "sto": 6140,
      "However": 6141,
      "types": 6142,
      "plant": 6143,
      "ward": 6144,
      "ences": 6145,
      "purpose": 6146,
      "change": 6147,
      "self": 6148,
      "ner": 6149,
      "ives": 6150,
      "ational": 6151,
      "dire": 6152,
      "features": 6153,
      "primary": 6154,
      "oth": 6155,
      "serv": 6156,
      "biome": 6157,
      "ired": 6158,
      "acter": 6159,
      "value": 6160,
      "ctr": 6161,
      "commun": 6162,
      "Com": 6163,
      "la": 6164,
      "...": 6165,
      "right": 6166,
      "function": 6167,
      "ected": 6168,
      "ivers": 6169,
      "environment": 6170,
      "Pro": 6171,
      "those": 6172,
      "date": 6173,
      "omes": 6174,
      "state": 6175,
      "imp": 6176,
      "comb": 6177,
      "face": 6178,
      "method": 6179,
      "mal": 6180,
      "she": 6181,
      "tool": 6182,
      "various": 6183,
      "view": 6184,
      "ases": 6185,
      "keep": 6186,
      "best": 6187,
      "organ": 6188,
      "sion": 6189,
      "known": 6190,
      "uses": 6191,
      "ced": 6192,
      "example": 6193,
      "ush": 6194,
      "body": 6195,
      "pu": 6196,
      "ID": 6197,
      "avail": 6198,
      "based": 6199,
      "atch": 6200,
      "pop": 6201,
      "Is": 6202,
      "hy": 6203,
      "cover": 6204,
      "ection": 6205,
      "tle": 6206,
      "lect": 6207,
      "spe": 6208,
      "rit": 6209,
      "ield": 6210,
      "due": 6211,
      "loc": 6212,
      "custom": 6213,
      "condition": 6214,
      "ited": 6215,
      "mem": 6216,
      "appro": 6217,
      "ify": 6218,
      "ium": 6219,
      "equ": 6220,
      "por": 6221,
      "perform": 6222,
      "cording": 6223,
      "addition": 6224,
      "ls": 6225,
      "ute": 6226,
      "fish": 6227,
      "room": 6228,
      "large": 6229,
      "mult": 6230,
      "trib": 6231,
      "person": 6232,
      "ustr": 6233,
      "energy": 6234,
      "appear": 6235,
      "activ": 6236,
      "within": 6237,
      "nor": 6238,
      "curren": 6239,
      "ket": 6240,
      "include": 6241,
      "times": 6242,
      "ually": 6243,
      "graph": 6244,
      "ris": 6245,
      "sci": 6246,
      "effic": 6247,
      "electr": 6248,
      "12": 6249,
      "ason": 6250,
      "ator": 6251,
      "vill": 6252,
      "ared": 6253,
      "understand": 6254,
      "Be": 6255,
      "tail": 6256,
      "allows": 6257,
      "chool": 6258,
      "point": 6259,
      ".\"": 6260,
      "say": 6261,
      "jo": 6262,
      "Ex": 6263,
      "sour": 6264,
      "contain": 6265,
      "range": 6266,
      "But": 6267,
      "ben": 6268,
      "tic": 6269,
      "sever": 6270,
      "still": 6271,
      "lit": 6272,
      "bal": 6273,
      "though": 6274,
      "list": 6275,
      "So": 6276,
      "damage": 6277,
      "name": 6278,
      "access": 6279,
      "iving": 6280,
      "echan": 6281,
      "available": 6282,
      "temper": 6283,
      "key": 6284,
      "ots": 6285,
      "pol": 6286,
      "ey": 6287,
      "color": 6288,
      "wood": 6289,
      "Addition": 6290,
      "scre": 6291,
      "head": 6292,
      "ather": 6293,
      "behav": 6294,
      "order": 6295,
      "must": 6296,
      "changes": 6297,
      "os": 6298,
      "cul": 6299,
      "test": 6300,
      "home": 6301,
      "Ar": 6302,
      "deter": 6303,
      "atter": 6304,
      "come": 6305,
      "real": 6306,
      "look": 6307,
      "post": 6308,
      "run": 6309,
      "depend": 6310,
      "On": 6311,
      "might": 6312,
      "prot": 6313,
      "mobs": 6314,
      "mechan": 6315,
      "development": 6316,
      "possible": 6317,
      "prof": 6318,
      "turn": 6319,
      "difference": 6320,
      "til": 6321,
      "ax": 6322,
      "raw": 6323,
      "Additionally": 6324,
      "ling": 6325,
      "ark": 6326,
      "did": 6327,
      "cause": 6328,
      "aves": 6329,
      "ately": 6330,
      "ivid": 6331,
      "itch": 6332,
      "class": 6333,
      "ateg": 6334,
      "species": 6335,
      "safe": 6336,
      "here": 6337,
      "obtain": 6338,
      "egg": 6339,
      "action": 6340,
      "progra": 6341,
      "ides": 6342,
      "ids": 6343,
      "potential": 6344,
      "dev": 6345,
      "mob": 6346,
      "cir": 6347,
      "multi": 6348,
      "ially": 6349,
      "support": 6350,
      "def": 6351,
      "xim": 6352,
      "And": 6353,
      "fam": 6354,
      "track": 6355,
      "lot": 6356,
      "ended": 6357,
      "significant": 6358,
      "Do": 6359,
      "ving": 6360,
      "conn": 6361,
      "ross": 6362,
      "prevent": 6363,
      "better": 6364,
      "tre": 6365,
      "said": 6366,
      "area": 6367,
      "resources": 6368,
      "related": 6369,
      "plants": 6370,
      "few": 6371,
      "oto": 6372,
      "ties": 6373,
      "current": 6374,
      "ones": 6375,
      "ients": 6376,
      "too": 6377,
      "ency": 6378,
      "aren": 6379,
      "fac": 6380,
      "ince": 6381,
      "sha": 6382,
      "15": 6383,
      "mus": 6384,
      "step": 6385,
      "fil": 6386,
      "effects": 6387,
      "ense": 6388,
      "grou": 6389,
      "ict": 6390,
      "ground": 6391,
      "pec": 6392,
      "ants": 6393,
      "und": 6394,
      "reduc": 6395,
      "ave": 6396,
      "feature": 6397,
      "amoun": 6398,
      "bit": 6399,
      "issue": 6400,
      "second": 6401,
      "iven": 6402,
      "uce": 6403,
      "By": 6404,
      "ips": 6405,
      "treat": 6406,
      "ven": 6407,
      "ism": 6408,
      "great": 6409,
      "study": 6410,
      "ery": 6411,
      "again": 6412,
      "bir": 6413,
      "benef": 6414,
      "ills": 6415,
      "three": 6416,
      "natural": 6417,
      "No": 6418,
      ",\"": 6419,
      "ste": 6420,
      "iety": 6421,
      "oper": 6422,
      "free": 6423,
      "bas": 6424,
      "gn": 6425,
      "flu": 6426,
      "itive": 6427,
      "position": 6428,
      "pain": 6429,
      "18": 6430,
      "complex": 6431,
      "eck": 6432,
      "imm": 6433,
      "vide": 6434,
      "nam": 6435,
      "students": 6436,
      "quality": 6437,
      "ouse": 6438,
      "oid": 6439,
      "prove": 6440,
      "side": 6441,
      "200": 6442,
      "screen": 6443,
      "achie": 6444,
      "contin": 6445,
      "require": 6446,
      "cial": 6447,
      "called": 6448,
      "ques": 6449,
      "ake": 6450,
      "pract": 6451,
      "pet": 6452,
      "control": 6453,
      "mic": 6454,
      "means": 6455,
      "feel": 6456,
      "ped": 6457,
      "phys": 6458,
      "ination": 6459,
      "oking": 6460,
      "ail": 6461,
      "load": 6462,
      "ub": 6463,
      "following": 6464,
      "direct": 6465,
      "Yes": 6466,
      "open": 6467,
      "cept": 6468,
      "Co": 6469,
      "lab": 6470,
      "techn": 6471,
      "ining": 6472,
      "hard": 6473,
      "effective": 6474,
      "Some": 6475,
      "30": 6476,
      "allowing": 6477,
      "pi": 6478,
      "table": 6479,
      "pa": 6480,
      "materials": 6481,
      "soci": 6482,
      "think": 6483,
      "structure": 6484,
      "human": 6485,
      "another": 6486,
      "learn": 6487,
      "usu": 6488,
      "__": 6489,
      "ug": 6490,
      "inf": 6491,
      "dog": 6492,
      "ord": 6493,
      "Tr": 6494,
      "values": 6495,
      "chant": 6496,
      "eds": 6497,
      "With": 6498,
      "stor": 6499,
      "several": 6500,
      "non": 6501,
      "whe": 6502,
      "diff": 6503,
      "rect": 6504,
      "ization": 6505,
      "net": 6506,
      "report": 6507,
      "why": 6508,
      "ox": 6509,
      "ensure": 6510,
      "ton": 6511,
      "size": 6512,
      "ply": 6513,
      "going": 6514,
      "pack": 6515,
      "ples": 6516,
      "individ": 6517,
      "remo": 6518,
      "sit": 6519,
      "entity": 6520,
      "One": 6521,
      "expl": 6522,
      "publ": 6523,
      "techno": 6524,
      "Pl": 6525,
      "cost": 6526,
      "Res": 6527,
      "bab": 6528,
      "space": 6529,
      "school": 6530,
      "pass": 6531,
      "areas": 6532,
      "occur": 6533,
      "iversity": 6534,
      "essential": 6535,
      "ore": 6536,
      "building": 6537,
      "16": 6538,
      "ilar": 6539,
      "setting": 6540,
      "improve": 6541,
      "inal": 6542,
      "systems": 6543,
      "meas": 6544,
      "ital": 6545,
      "vest": 6546,
      "inte": 6547,
      "50": 6548,
      "affect": 6549,
      "ars": 6550,
      "ric": 6551,
      "fall": 6552,
      "field": 6553,
      "things": 6554,
      "ances": 6555,
      "hold": 6556,
      "impact": 6557,
      "character": 6558,
      "Sh": 6559,
      "mp": 6560,
      "hist": 6561,
      "conf": 6562,
      "become": 6563,
      "ref": 6564,
      "ified": 6565,
      "refer": 6566,
      "ring": 6567,
      "duce": 6568,
      "000": 6569,
      "children": 6570,
      "invol": 6571,
      "flo": 6572,
      "ges": 6573,
      "iness": 6574,
      "explo": 6575,
      "efficient": 6576,
      "temperature": 6577,
      "Le": 6578,
      "dy": 6579,
      "urther": 6580,
      "enchant": 6581,
      "particular": 6582,
      "ering": 6583,
      "program": 6584,
      "utr": 6585,
      "ional": 6586,
      "ests": 6587,
      "met": 6588,
      "offer": 6589,
      "maintain": 6590,
      "bot": 6591,
      "emp": 6592,
      "sc": 6593,
      "always": 6594,
      "Ac": 6595,
      "behavior": 6596,
      "engine": 6597,
      "note": 6598,
      "case": 6599,
      "hor": 6600,
      "amount": 6601,
      "peri": 6602,
      "aking": 6603,
      "likely": 6604,
      "roduc": 6605,
      "clean": 6606,
      "ights": 6607,
      "structures": 6608,
      "aring": 6609,
      "orig": 6610,
      "villag": 6611,
      "ask": 6612,
      "nec": 6613,
      "near": 6614,
      "bers": 6615,
      "sed": 6616,
      "De": 6617,
      "regular": 6618,
      "cam": 6619,
      "14": 6620,
      "icle": 6621,
      "chall": 6622,
      "recomm": 6623,
      "soft": 6624,
      "meric": 6625,
      "ival": 6626,
      "give": 6627,
      "ulation": 6628,
      "suc": 6629,
      "ken": 6630,
      "happens": 6631,
      "something": 6632,
      "typically": 6633,
      "armor": 6634,
      "ished": 6635,
      "team": 6636,
      "soil": 6637,
      "pan": 6638,
      "atic": 6639,
      "iend": 6640,
      "wee": 6641,
      "shot": 6642,
      "advan": 6643,
      "diffic": 6644,
      "men": 6645,
      "enh": 6646,
      "released": 6647,
      "correct": 6648,
      "cour": 6649,
      "result": 6650,
      "book": 6651,
      "biomes": 6652,
      "surface": 6653,
      "necess": 6654,
      "ires": 6655,
      "manage": 6656,
      "Americ": 6657,
      "content": 6658,
      "die": 6659,
      "video": 6660,
      "active": 6661,
      "compon": 6662,
      "performance": 6663,
      "mean": 6664,
      "photo": 6665,
      "fix": 6666,
      "really": 6667,
      "educ": 6668,
      "heat": 6669,
      "needs": 6670,
      "sal": 6671,
      "aster": 6672,
      "makes": 6673,
      "Pr": 6674,
      "thor": 6675,
      "boo": 6676,
      "ensive": 6677,
      "ready": 6678,
      "asing": 6679,
      "comes": 6680,
      "dig": 6681,
      "iment": 6682,
      "lower": 6683,
      "bro": 6684,
      "anal": 6685,
      "placed": 6686,
      "arr": 6687,
      "problem": 6688,
      "update": 6689,
      "gether": 6690,
      "having": 6691,
      "properties": 6692,
      "ease": 6693,
      "special": 6694,
      "generation": 6695,
      "aud": 6696,
      "tor": 6697,
      "conditions": 6698,
      "detail": 6699,
      "ware": 6700,
      "teach": 6701,
      "increase": 6702,
      "blood": 6703,
      "cells": 6704,
      "single": 6705,
      "lock": 6706,
      "associ": 6707,
      "ables": 6708,
      "clim": 6709,
      "sn": 6710,
      "jects": 6711,
      "source": 6712,
      "ards": 6713,
      "crafting": 6714,
      "farm": 6715,
      "ints": 6716,
      "At": 6717,
      "ship": 6718,
      "wide": 6719,
      "New": 6720,
      "mine": 6721,
      "similar": 6722,
      "ters": 6723,
      "ping": 6724,
      "fully": 6725,
      "release": 6726,
      "ann": 6727,
      "13": 6728,
      "versions": 6729,
      "creating": 6730,
      "wind": 6731,
      "multiple": 6732,
      "usually": 6733,
      "ption": 6734,
      "cat": 6735,
      "pattern": 6736,
      "logical": 6737,
      "**": 6738,
      "ank": 6739,
      "tools": 6740,
      "oil": 6741,
      "little": 6742,
      "reason": 6743,
      "ove": 6744,
      "indic": 6745,
      "profess": 6746,
      "role": 6747,
      "stain": 6748,
      "bus": 6749,
      "Which": 6750,
      "learning": 6751,
      "descr": 6752,
      "friend": 6753,
      "overall": 6754,
      "applic": 6755,
      "higher": 6756,
      "produce": 6757,
      "mit": 6758,
      "levels": 6759,
      "last": 6760,
      "og": 6761,
      "cut": 6762,
      "mil": 6763,
      "sens": 6764,
      "icial": 6765,
      "istic": 6766,
      "iver": 6767,
      "ths": 6768,
      "11": 6769,
      "That": 6770,
      "period": 6771,
      "ators": 6772,
      "full": 6773,
      "une": 6774,
      "fra": 6775,
      "together": 6776,
      "ten": 6777,
      "NA": 6778,
      "problems": 6779,
      "animals": 6780,
      "risk": 6781,
      "feed": 6782,
      "lin": 6783,
      "enough": 6784,
      "complete": 6785,
      "ibility": 6786,
      "gin": 6787,
      "vious": 6788,
      "lands": 6789,
      "aging": 6790,
      "arden": 6791,
      "reduce": 6792,
      "big": 6793,
      "away": 6794,
      "maxim": 6795,
      "represent": 6796,
      "fort": 6797,
      "interest": 6798,
      "introduc": 6799,
      "early": 6800,
      "achieve": 6801,
      "weight": 6802,
      "gar": 6803,
      "pressure": 6804,
      "resource": 6805,
      "working": 6806,
      "hal": 6807,
      "success": 6808,
      "While": 6809,
      "bug": 6810,
      "bon": 6811,
      "attack": 6812,
      "tar": 6813,
      "scient": 6814,
      "iting": 6815,
      "growth": 6816,
      "community": 6817,
      "fire": 6818,
      "aim": 6819,
      "ches": 6820,
      "ade": 6821,
      "Not": 6822,
      "21": 6823,
      "mill": 6824,
      "avoid": 6825,
      "exist": 6826,
      "quick": 6827,
      "round": 6828,
      "skin": 6829,
      "sun": 6830,
      "industr": 6831,
      "rate": 6832,
      "display": 6833,
      "others": 6834,
      "approach": 6835,
      "box": 6836,
      "since": 6837,
      "added": 6838,
      "next": 6839,
      "ato": 6840,
      "uture": 6841,
      "sugg": 6842,
      "above": 6843,
      "Why": 6844,
      "rece": 6845,
      "cop": 6846,
      "det": 6847,
      "until": 6848,
      "utes": 6849,
      "jor": 6850,
      "mention": 6851,
      "product": 6852,
      "given": 6853,
      "defin": 6854,
      "door": 6855,
      "ision": 6856,
      "provides": 6857,
      "ont": 6858,
      "mag": 6859,
      "speed": 6860,
      "Wor": 6861,
      "25": 6862,
      "mind": 6863,
      "fill": 6864,
      "kind": 6865,
      "disease": 6866,
      "ilities": 6867,
      "normal": 6868,
      "piec": 6869,
      "designed": 6870,
      "resist": 6871,
      "group": 6872,
      "ture": 6873,
      "ither": 6874,
      "hour": 6875,
      "reach": 6876,
      "dates": 6877,
      "redstone": 6878,
      "gameplay": 6879,
      "ently": 6880,
      "along": 6881,
      "project": 6882,
      "required": 6883,
      "pecially": 6884,
      "works": 6885,
      "compared": 6886,
      "tract": 6887,
      "izing": 6888,
      "especially": 6889,
      "focus": 6890,
      "mass": 6891,
      "generate": 6892,
      "potion": 6893,
      "break": 6894,
      "frequ": 6895,
      "ane": 6896,
      "ret": 6897,
      "according": 6898,
      "acc": 6899,
      "page": 6900,
      "cult": 6901,
      "necessary": 6902,
      "az": 6903,
      "clear": 6904,
      "sis": 6905,
      "outh": 6906,
      "results": 6907,
      "popular": 6908,
      "actions": 6909,
      "strong": 6910,
      "tage": 6911,
      "pul": 6912,
      "technology": 6913,
      "Nether": 6914,
      "days": 6915,
      "gam": 6916,
      "wer": 6917,
      "image": 6918,
      "kill": 6919,
      "Ear": 6920,
      "sequ": 6921,
      "cannot": 6922,
      "eral": 6923,
      "mix": 6924,
      "posed": 6925,
      "server": 6926,
      "least": 6927,
      "plement": 6928,
      "forms": 6929,
      "bed": 6930,
      "across": 6931,
      "house": 6932,
      "ru": 6933,
      "oney": 6934,
      ".,": 6935,
      "production": 6936,
      "smo": 6937,
      "ication": 6938,
      "far": 6939,
      "created": 6940,
      "sounds": 6941,
      "circu": 6942,
      "amond": 6943,
      "major": 6944,
      "family": 6945,
      "vari": 6946,
      "rab": 6947,
      "future": 6948,
      "24": 6949,
      "writ": 6950,
      "US": 6951,
      "four": 6952,
      "chem": 6953,
      "Your": 6954,
      "beli": 6955,
      "hol": 6956,
      "oring": 6957,
      "Cl": 6958,
      "draw": 6959,
      "warm": 6960,
      "guide": 6961,
      "minim": 6962,
      "word": 6963,
      "Or": 6964,
      "CO": 6965,
      "ik": 6966,
      "acy": 6967,
      "allery": 6968,
      "identify": 6969,
      "uck": 6970,
      "location": 6971,
      "associated": 6972,
      "ded": 6973,
      "rap": 6974,
      "check": 6975,
      "cean": 6976,
      "leg": 6977,
      "elements": 6978,
      "challeng": 6979,
      "iate": 6980,
      "har": 6981,
      "local": 6982,
      "ying": 6983,
      "path": 6984,
      "asp": 6985,
      "easy": 6986,
      "contrib": 6987,
      "atom": 6988,
      "Se": 6989,
      "won": 6990,
      "seem": 6991,
      "simple": 6992,
      "history": 6993,
      "100": 6994,
      "omen": 6995,
      "aver": 6996,
      "uter": 6997,
      "model": 6998,
      "wall": 6999,
      "aut": 7000,
      "pair": 7001,
      "unch": 7002,
      "den": 7003,
      "lec": 7004,
      "short": 7005,
      "ster": 7006,
      "products": 7007,
      "provided": 7008,
      "ale": 7009,
      "board": 7010,
      "17": 7011,
      "ories": 7012,
      "cruc": 7013,
      "syn": 7014,
      "gas": 7015,
      "hab": 7016,
      "ivity": 7017,
      "rest": 7018,
      "factors": 7019,
      "mach": 7020,
      "pred": 7021,
      "hind": 7022,
      "23": 7023,
      "lines": 7024,
      "usion": 7025,
      "enter": 7026,
      "eat": 7027,
      "sho": 7028,
      "against": 7029,
      "optim": 7030,
      "base": 7031,
      "uro": 7032,
      "ream": 7033,
      "option": 7034,
      "Col": 7035,
      "All": 7036,
      "onom": 7037,
      "loss": 7038,
      "tree": 7039,
      "doesn": 7040,
      "event": 7041,
      "healthy": 7042,
      "crucial": 7043,
      "done": 7044,
      "ood": 7045,
      "wards": 7046,
      "strateg": 7047,
      "ective": 7048,
      "radi": 7049,
      "rown": 7050,
      "render": 7051,
      "further": 7052,
      "tell": 7053,
      "init": 7054,
      "ined": 7055,
      "University": 7056,
      "actually": 7057,
      "additional": 7058,
      "social": 7059,
      "looking": 7060,
      "prote": 7061,
      "parts": 7062,
      "bar": 7063,
      "course": 7064,
      "maximum": 7065,
      "chance": 7066,
      "leaves": 7067,
      "relation": 7068,
      "respons": 7069,
      "ansp": 7070,
      "determin": 7071,
      "lic": 7072,
      "paren": 7073,
      "plat": 7074,
      "measure": 7075,
      "gress": 7076,
      "AI": 7077,
      "sty": 7078,
      "Over": 7079,
      "olution": 7080,
      "file": 7081,
      "glass": 7082,
      "Dr": 7083,
      "tur": 7084,
      "business": 7085,
      "----": 7086,
      "user": 7087,
      "rag": 7088,
      "uel": 7089,
      "trees": 7090,
      "pick": 7091,
      "ze": 7092,
      "either": 7093,
      "22": 7094,
      "reco": 7095,
      "squ": 7096,
      "address": 7097,
      "left": 7098,
      "texture": 7099,
      "garden": 7100,
      "white": 7101,
      "variety": 7102,
      "term": 7103,
      "benefits": 7104,
      "ler": 7105,
      "green": 7106,
      "close": 7107,
      "live": 7108,
      "aling": 7109,
      "\",": 7110,
      "loy": 7111,
      "taking": 7112,
      "nutr": 7113,
      "err": 7114,
      "treatment": 7115,
      "lack": 7116,
      "never": 7117,
      "inct": 7118,
      "tas": 7119,
      "updates": 7120,
      "eye": 7121,
      "angu": 7122,
      "glo": 7123,
      "wal": 7124,
      "points": 7125,
      "dogs": 7126,
      "helps": 7127,
      "rop": 7128,
      "deep": 7129,
      "Red": 7130,
      "mechanics": 7131,
      "dim": 7132,
      "whether": 7133,
      "ray": 7134,
      "count": 7135,
      "once": 7136,
      "Are": 7137,
      "layer": 7138,
      "ses": 7139,
      "ledge": 7140,
      "Sci": 7141,
      "onic": 7142,
      "joy": 7143,
      "vival": 7144,
      "scal": 7145,
      "Here": 7146,
      "micro": 7147,
      "understanding": 7148,
      "diamond": 7149,
      "ert": 7150,
      "Po": 7151,
      "among": 7152,
      "nal": 7153,
      "below": 7154,
      "providing": 7155,
      "centr": 7156,
      "ension": 7157,
      "40": 7158,
      "Nor": 7159,
      "ement": 7160,
      "invest": 7161,
      "outs": 7162,
      "breed": 7163,
      "public": 7164,
      "dry": 7165,
      "begin": 7166,
      "lection": 7167,
      "IN": 7168,
      "store": 7169,
      "Lo": 7170,
      "takes": 7171,
      "utions": 7172,
      "ump": 7173,
      "object": 7174,
      "Des": 7175,
      "equip": 7176,
      "already": 7177,
      "paper": 7178,
      "Ste": 7179,
      "ived": 7180,
      "wr": 7181,
      "atory": 7182,
      "ball": 7183,
      "eggs": 7184,
      "ury": 7185,
      "question": 7186,
      "black": 7187,
      "crit": 7188,
      "discus": 7189,
      "climate": 7190,
      "dom": 7191,
      "chemical": 7192,
      "ene": 7193,
      "motion": 7194,
      "cise": 7195,
      "later": 7196,
      "60": 7197,
      "select": 7198,
      "him": 7199,
      "longer": 7200,
      "ban": 7201,
      "computer": 7202,
      "online": 7203,
      "urally": 7204,
      "ands": 7205,
      "inside": 7206,
      "ault": 7207,
      "const": 7208,
      "transp": 7209,
      "abs": 7210,
      "mentioned": 7211,
      "omb": 7212,
      "vert": 7213,
      "getting": 7214,
      "ER": 7215,
      "Ph": 7216,
      "difficult": 7217,
      "terms": 7218,
      "official": 7219,
      "invent": 7220,
      "eth": 7221,
      "consist": 7222,
      "toms": 7223,
      "electric": 7224,
      "\".": 7225,
      "install": 7226,
      "inste": 7227,
      "diet": 7228,
      "tradition": 7229,
      "recent": 7230,
      "Bo": 7231,
      "average": 7232,
      "includes": 7233,
      "heart": 7234,
      "code": 7235,
      "According": 7236,
      "seen": 7237,
      "Af": 7238,
      "options": 7239,
      "rather": 7240,
      "bio": 7241,
      "moder": 7242,
      "needed": 7243,
      "half": 7244,
      "author": 7245,
      "cool": 7246,
      "ram": 7247,
      "gold": 7248,
      "percent": 7249,
      "rid": 7250,
      "behind": 7251,
      "separ": 7252,
      "astic": 7253,
      "physical": 7254,
      "ilt": 7255,
      "iron": 7256,
      "drop": 7257,
      "previous": 7258,
      "cases": 7259,
      "Earth": 7260,
      "format": 7261,
      "signal": 7262,
      "snow": 7263,
      "distance": 7264,
      "science": 7265,
      "idence": 7266,
      "ung": 7267,
      "acts": 7268,
      "says": 7269,
      "animal": 7270,
      "article": 7271,
      "era": 7272,
      "job": 7273,
      "villager": 7274,
      "methods": 7275,
      "eco": 7276,
      "ention": 7277,
      "diag": 7278,
      "got": 7279,
      "hot": 7280,
      "improv": 7281,
      "skills": 7282,
      "uals": 7283,
      "iques": 7284,
      "rot": 7285,
      "audio": 7286,
      "thin": 7287,
      "carbon": 7288,
      "experiment": 7289,
      "ending": 7290,
      "determine": 7291,
      "batter": 7292,
      "advance": 7293,
      "considered": 7294,
      "avor": 7295,
      "accur": 7296,
      "arily": 7297,
      "mod": 7298,
      "ns": 7299,
      "general": 7300,
      "music": 7301,
      "reng": 7302,
      "bor": 7303,
      "modif": 7304,
      "press": 7305,
      "II": 7306,
      "training": 7307,
      "ird": 7308,
      "prefer": 7309,
      "answer": 7310,
      "ows": 7311,
      "Stud": 7312,
      "easily": 7313,
      "core": 7314,
      "appl": 7315,
      "perf": 7316,
      "forest": 7317,
      "bur": 7318,
      "recor": 7319,
      "recommended": 7320,
      "Fe": 7321,
      "After": 7322,
      "specifically": 7323,
      "output": 7324,
      "visual": 7325,
      "individual": 7326,
      "limit": 7327,
      "mark": 7328,
      "components": 7329,
      "ino": 7330,
      "Car": 7331,
      "aged": 7332,
      "mel": 7333,
      "original": 7334,
      "Sp": 7335,
      "week": 7336,
      "increased": 7337,
      "ng": 7338,
      "situ": 7339,
      "Cre": 7340,
      "adjust": 7341,
      "instead": 7342,
      "sl": 7343,
      "personal": 7344,
      "langu": 7345,
      "share": 7346,
      "protect": 7347,
      "ina": 7348,
      "ON": 7349,
      "naturally": 7350,
      "selves": 7351,
      "influ": 7352,
      "gain": 7353,
      "implement": 7354,
      "particularly": 7355,
      "My": 7356,
      "sle": 7357,
      "happen": 7358,
      "iency": 7359,
      "Sy": 7360,
      "sustain": 7361,
      "fuel": 7362,
      "ils": 7363,
      "mission": 7364,
      "knowledge": 7365,
      "dark": 7366,
      "bul": 7367,
      "states": 7368,
      "stat": 7369,
      "irt": 7370,
      "categ": 7371,
      "fit": 7372,
      "site": 7373,
      "mptoms": 7374,
      "Ro": 7375,
      "sand": 7376,
      "distinct": 7377,
      "combination": 7378,
      "ney": 7379,
      "settings": 7380,
      "colors": 7381,
      "today": 7382,
      "calcul": 7383,
      "quickly": 7384,
      "explain": 7385,
      "lling": 7386,
      "safety": 7387,
      "bacter": 7388,
      "sense": 7389,
      "ordin": 7390,
      "force": 7391,
      "night": 7392,
      "management": 7393,
      "veget": 7394,
      "Dis": 7395,
      "generated": 7396,
      "webs": 7397,
      "wild": 7398,
      "concer": 7399,
      "ification": 7400,
      "company": 7401,
      "war": 7402,
      "activity": 7403,
      "She": 7404,
      "pay": 7405,
      "labor": 7406,
      "Pre": 7407,
      "fly": 7408,
      "covered": 7409,
      "fru": 7410,
      "metal": 7411,
      "Mar": 7412,
      "hours": 7413,
      "regard": 7414,
      "requires": 7415,
      "doing": 7416,
      "mid": 7417,
      "ike": 7418,
      "trig": 7419,
      "growing": 7420,
      "ocean": 7421,
      "super": 7422,
      "stay": 7423,
      "grass": 7424,
      "ned": 7425,
      "activities": 7426,
      "suit": 7427,
      "brain": 7428,
      "lex": 7429,
      "resh": 7430,
      "consum": 7431,
      "ae": 7432,
      "reli": 7433,
      "harm": 7434,
      "stress": 7435,
      "cas": 7436,
      "love": 7437,
      "respond": 7438,
      "ufact": 7439,
      "ffic": 7440,
      "fat": 7441,
      "techniques": 7442,
      "streng": 7443,
      "igure": 7444,
      "fast": 7445,
      "entire": 7446,
      "Pe": 7447,
      "whereas": 7448,
      "earch": 7449,
      "docu": 7450,
      "directly": 7451,
      "environmental": 7452,
      "devices": 7453,
      "mand": 7454,
      "Up": 7455,
      "autom": 7456,
      "ibr": 7457,
      "host": 7458,
      "rup": 7459,
      "AR": 7460,
      "struction": 7461,
      "ends": 7462,
      "member": 7463,
      "standard": 7464,
      "portun": 7465,
      "da": 7466,
      "terrain": 7467,
      "itself": 7468,
      "enjoy": 7469,
      "city": 7470,
      "supp": 7471,
      "AT": 7472,
      "ental": 7473,
      "els": 7474,
      "veh": 7475,
      "uration": 7476,
      "repe": 7477,
      "Me": 7478,
      "alg": 7479,
      "mental": 7480,
      "mess": 7481,
      "obtained": 7482,
      "plate": 7483,
      "ST": 7484,
      "ength": 7485,
      "cook": 7486,
      "crip": 7487,
      "sem": 7488,
      "ingred": 7489,
      "ctions": 7490,
      "aving": 7491,
      "rare": 7492,
      "altern": 7493,
      "idea": 7494,
      "creative": 7495,
      "ison": 7496,
      "valu": 7497,
      "nature": 7498,
      "ata": 7499,
      "useful": 7500,
      "living": 7501,
      "sea": 7502,
      "coming": 7503,
      "anger": 7504,
      "prior": 7505,
      "apply": 7506,
      "verse": 7507,
      "words": 7508,
      "rand": 7509,
      "ging": 7510,
      "circuit": 7511,
      "bad": 7512,
      "recogn": 7513,
      "positive": 7514,
      "sions": 7515,
      "amp": 7516,
      "vit": 7517,
      "travel": 7518,
      "total": 7519,
      "season": 7520,
      "American": 7521,
      "minutes": 7522,
      "opportun": 7523,
      "market": 7524,
      "slow": 7525,
      "removed": 7526,
      "AN": 7527,
      "rich": 7528,
      "media": 7529,
      "jour": 7530,
      "limited": 7531,
      "appearance": 7532,
      "cold": 7533,
      "industry": 7534,
      "caused": 7535,
      "past": 7536,
      "map": 7537,
      "prin": 7538,
      "lava": 7539,
      "ised": 7540,
      "Now": 7541,
      "edition": 7542,
      "questions": 7543,
      "section": 7544,
      "sil": 7545,
      "users": 7546,
      "tric": 7547,
      "bring": 7548,
      "true": 7549,
      "exer": 7550,
      "software": 7551,
      "shop": 7552,
      "causes": 7553,
      "blue": 7554,
      "cip": 7555,
      "humans": 7556,
      "taken": 7557,
      "trying": 7558,
      "perfect": 7559,
      "integr": 7560,
      "default": 7561,
      "built": 7562,
      "symptoms": 7563,
      "LE": 7564,
      "genet": 7565,
      "cou": 7566,
      "exact": 7567,
      "bol": 7568,
      "hun": 7569,
      "foot": 7570,
      "Gen": 7571,
      "gets": 7572,
      "ero": 7573,
      "device": 7574,
      "subst": 7575,
      "May": 7576,
      "series": 7577,
      "manufact": 7578,
      "target": 7579,
      "shape": 7580,
      "80": 7581,
      "element": 7582,
      "dia": 7583,
      "someone": 7584,
      "pist": 7585,
      "sam": 7586,
      "____": 7587,
      "conduc": 7588,
      "developed": 7589,
      "neg": 7590,
      "compan": 7591,
      "throughout": 7592,
      "adding": 7593,
      "cycl": 7594,
      "choose": 7595,
      "birds": 7596,
      "Jo": 7597,
      "whole": 7598,
      "nov": 7599,
      "researchers": 7600,
      "simply": 7601,
      "million": 7602,
      "entities": 7603,
      "Sur": 7604,
      "pped": 7605,
      "introduced": 7606,
      "outside": 7607,
      "remain": 7608,
      "movement": 7609,
      "height": 7610,
      "matter": 7611,
      "Once": 7612,
      "ah": 7613,
      "months": 7614,
      "card": 7615,
      "arrow": 7616,
      "story": 7617,
      "increasing": 7618,
      "istics": 7619,
      "ysis": 7620,
      "isn": 7621,
      "cancer": 7622,
      "py": 7623,
      "quant": 7624,
      "Pot": 7625,
      "yst": 7626,
      "inj": 7627,
      "abl": 7628,
      "Go": 7629,
      "sources": 7630,
      "Med": 7631,
      "basic": 7632,
      "contact": 7633,
      "serve": 7634,
      "reading": 7635,
      "AC": 7636,
      "tracker": 7637,
      "ians": 7638,
      "etc": 7639,
      "eyes": 7640,
      "steps": 7641,
      "larger": 7642,
      "anced": 7643,
      "vision": 7644,
      "contr": 7645,
      "Gu": 7646,
      "frame": 7647,
      "orts": 7648,
      "amm": 7649,
      "Most": 7650,
      "solution": 7651,
      "pig": 7652,
      "individuals": 7653,
      "context": 7654,
      "econom": 7655,
      "explore": 7656,
      "itor": 7657,
      "front": 7658,
      "izes": 7659,
      "remove": 7660,
      "ising": 7661,
      "law": 7662,
      "enhance": 7663,
      "ago": 7664,
      "More": 7665,
      "heav": 7666,
      "anc": 7667,
      "weather": 7668,
      "furn": 7669,
      "dest": 7670,
      "insp": 7671,
      "storage": 7672,
      "wa": 7673,
      "adap": 7674,
      "traditional": 7675,
      "extre": 7676,
      "Man": 7677,
      "choice": 7678,
      "print": 7679,
      "population": 7680,
      "cep": 7681,
      "piece": 7682,
      "yourself": 7683,
      "ged": 7684,
      "star": 7685,
      "patterns": 7686,
      "distrib": 7687,
      "language": 7688,
      "wing": 7689,
      "connect": 7690,
      "placing": 7691,
      "ift": 7692,
      "baby": 7693,
      "pret": 7694,
      "gover": 7695,
      "mor": 7696,
      "habit": 7697,
      "continu": 7698,
      "lat": 7699,
      "easier": 7700,
      "affected": 7701,
      "significance": 7702,
      "deal": 7703,
      "sometimes": 7704,
      "tw": 7705,
      "sym": 7706,
      "Many": 7707,
      "Play": 7708,
      "sleep": 7709,
      "ron": 7710,
      "themselves": 7711,
      "pes": 7712,
      "Health": 7713,
      "patients": 7714,
      "waste": 7715,
      "ming": 7716,
      "bably": 7717,
      "employ": 7718,
      "Im": 7719,
      "ulations": 7720,
      "differences": 7721,
      "gallery": 7722,
      "ulty": 7723,
      "events": 7724,
      "shows": 7725,
      "zomb": 7726,
      "swe": 7727,
      "Research": 7728,
      "money": 7729,
      "detect": 7730,
      "young": 7731,
      "NO": 7732,
      "service": 7733,
      "progress": 7734,
      "relative": 7735,
      "decor": 7736,
      "modern": 7737,
      "suggest": 7738,
      "five": 7739,
      "moun": 7740,
      "199": 7741,
      "collect": 7742,
      "isms": 7743,
      "leading": 7744,
      "Apr": 7745,
      "feet": 7746,
      "ker": 7747,
      "tit": 7748,
      "depending": 7749,
      "resistance": 7750,
      "seeds": 7751,
      "bone": 7752,
      "lor": 7753,
      "spl": 7754,
      "extra": 7755,
      "From": 7756,
      "hib": 7757,
      "Fr": 7758,
      "yet": 7759,
      "sets": 7760,
      "produced": 7761,
      "however": 7762,
      "pping": 7763,
      "ounds": 7764,
      "fail": 7765,
      "particip": 7766,
      "Use": 7767,
      "style": 7768,
      "books": 7769,
      "medical": 7770,
      "almost": 7771,
      "direction": 7772,
      "commands": 7773,
      "document": 7774,
      "length": 7775,
      "poses": 7776,
      "Our": 7777,
      "surround": 7778,
      "textures": 7779,
      "screenshot": 7780,
      "aks": 7781,
      "link": 7782,
      "argu": 7783,
      "dou": 7784,
      "enced": 7785,
      "ules": 7786,
      "eve": 7787,
      "ections": 7788,
      "shown": 7789,
      "acid": 7790,
      "gest": 7791,
      "Ser": 7792,
      "offers": 7793,
      "abilities": 7794,
      "images": 7795,
      "center": 7796,
      "thought": 7797,
      "beaut": 7798,
      "elect": 7799,
      "Cont": 7800,
      "pen": 7801,
      "Gr": 7802,
      "cup": 7803,
      "ime": 7804,
      "wear": 7805,
      "promo": 7806,
      "ners": 7807,
      "Cal": 7808,
      "professional": 7809,
      "contains": 7810,
      "practice": 7811,
      "formed": 7812,
      "National": 7813,
      "tries": 7814,
      "chick": 7815,
      "unk": 7816,
      "extreme": 7817,
      "attention": 7818,
      "RE": 7819,
      "snap": 7820,
      "protein": 7821,
      "fric": 7822,
      "fro": 7823,
      "applications": 7824,
      "education": 7825,
      "challenges": 7826,
      "corpor": 7827,
      "urity": 7828,
      "amin": 7829,
      "aces": 7830,
      "women": 7831,
      "probably": 7832,
      "seed": 7833,
      "uff": 7834,
      "flowers": 7835,
      "ience": 7836,
      "winter": 7837,
      "establ": 7838,
      "....": 7839,
      "services": 7840,
      "return": 7841,
      "generally": 7842,
      "appears": 7843,
      "balance": 7844,
      "resol": 7845,
      "ises": 7846,
      "road": 7847,
      "equipment": 7848,
      "asons": 7849,
      "stop": 7850,
      "Block": 7851,
      "photograph": 7852,
      "machine": 7853,
      "Per": 7854,
      "switch": 7855,
      "resulting": 7856,
      "scale": 7857,
      "United": 7858,
      "cape": 7859,
      "Euro": 7860,
      "describ": 7861,
      "Ab": 7862,
      "Mic": 7863,
      "inventory": 7864,
      "rout": 7865,
      "icy": 7866,
      "moving": 7867,
      "Then": 7868,
      "decre": 7869,
      "aware": 7870,
      "pha": 7871,
      "towards": 7872,
      "developers": 7873,
      "lives": 7874,
      "included": 7875,
      "anything": 7876,
      "valuable": 7877,
      "stream": 7878,
      "studies": 7879,
      "groups": 7880,
      "cycle": 7881,
      "fresh": 7882,
      "First": 7883,
      "April": 7884,
      "las": 7885,
      "thus": 7886,
      "assist": 7887,
      "foods": 7888,
      "models": 7889,
      "stru": 7890,
      "mining": 7891,
      "website": 7892,
      "mes": 7893,
      "zy": 7894,
      "considering": 7895,
      "commonly": 7896,
      "excl": 7897,
      "ched": 7898,
      "ember": 7899,
      "Inst": 7900,
      "doors": 7901,
      "suring": 7902,
      "exec": 7903,
      "touch": 7904,
      "pict": 7905,
      "avig": 7906,
      "efficiency": 7907,
      "pression": 7908,
      "account": 7909,
      "transport": 7910,
      "apy": 7911,
      "death": 7912,
      "cross": 7913,
      "chest": 7914,
      "son": 7915,
      "national": 7916,
      "input": 7917,
      "save": 7918,
      "hip": 7919,
      "Qu": 7920,
      "iring": 7921,
      "ulate": 7922,
      "buy": 7923,
      "properly": 7924,
      "global": 7925,
      "uary": 7926,
      "examples": 7927,
      "worth": 7928,
      "numbers": 7929,
      "famil": 7930,
      "govern": 7931,
      "continue": 7932,
      "tag": 7933,
      "70": 7934,
      "solid": 7935,
      "tes": 7936,
      "causing": 7937,
      "vary": 7938,
      "villagers": 7939,
      "Let": 7940,
      "ials": 7941,
      "existing": 7942,
      "Ap": 7943,
      "prep": 7944,
      "purch": 7945,
      "mom": 7946,
      "exc": 7947,
      "games": 7948,
      "ellow": 7949,
      "3D": 7950,
      "ought": 7951,
      "running": 7952,
      "scientists": 7953,
      "random": 7954,
      "uted": 7955,
      "util": 7956,
      "started": 7957,
      "cats": 7958,
      "concept": 7959,
      "IS": 7960,
      "smaller": 7961,
      "ales": 7962,
      "sat": 7963,
      "third": 7964,
      "country": 7965,
      "encou": 7966,
      "deli": 7967,
      "files": 7968,
      "onse": 7969,
      "Europe": 7970,
      "breaking": 7971,
      "quite": 7972,
      "watch": 7973,
      "push": 7974,
      "standing": 7975,
      "spring": 7976,
      "inary": 7977,
      "icles": 7978,
      "stra": 7979,
      "dle": 7980,
      "inten": 7981,
      "medic": 7982,
      "evolution": 7983,
      "servation": 7984,
      "dish": 7985,
      "negative": 7986,
      "DNA": 7987,
      "applied": 7988,
      "World": 7989,
      "Spec": 7990,
      "ume": 7991,
      "Dec": 7992,
      "ites": 7993,
      "bow": 7994,
      "greater": 7995,
      "digital": 7996,
      "enn": 7997,
      "repair": 7998,
      "claim": 7999,
      "Tra": 8000,
      "Educ": 8001,
      "meaning": 8002,
      "immed": 8003,
      "protection": 8004,
      "final": 8005,
      "objects": 8006,
      "ugh": 8007,
      "nel": 8008,
      "inc": 8009,
      "everything": 8010,
      "rability": 8011,
      "bottom": 8012,
      "lighting": 8013,
      "requirements": 8014,
      "bra": 8015,
      "battery": 8016,
      "expected": 8017,
      "sugar": 8018,
      "horse": 8019,
      "oks": 8020,
      "cro": 8021,
      "region": 8022,
      "bacteria": 8023,
      "absor": 8024,
      "orith": 8025,
      "ios": 8026,
      "meat": 8027,
      "appropr": 8028,
      "camera": 8029,
      "hair": 8030,
      "eating": 8031,
      "ley": 8032,
      "Inter": 8033,
      "tend": 8034,
      "plastic": 8035,
      "summer": 8036,
      "Reg": 8037,
      "significantly": 8038,
      "root": 8039,
      "End": 8040,
      "Rec": 8041,
      "assess": 8042,
      "spread": 8043,
      "poll": 8044,
      "ffer": 8045,
      "preh": 8046,
      "playing": 8047,
      "starting": 8048,
      "analysis": 8049,
      "fem": 8050,
      "interact": 8051,
      "compost": 8052,
      "wise": 8053,
      "milk": 8054,
      "uly": 8055,
      "flower": 8056,
      "phone": 8057,
      "dead": 8058,
      "ensuring": 8059,
      "reducing": 8060,
      "trigger": 8061,
      "launch": 8062,
      "charge": 8063,
      "27": 8064,
      "supply": 8065,
      "PC": 8066,
      "poly": 8067,
      "edge": 8068,
      "hu": 8069,
      "gather": 8070,
      "Water": 8071,
      "iers": 8072,
      "highly": 8073,
      "stable": 8074,
      "six": 8075,
      "rendering": 8076,
      "capac": 8077,
      "strength": 8078,
      "response": 8079,
      "involved": 8080,
      "kets": 8081,
      "trade": 8082,
      "Ke": 8083,
      "primarily": 8084,
      "hydro": 8085,
      "chain": 8086,
      "abund": 8087,
      "component": 8088,
      "lled": 8089,
      "estim": 8090,
      "ister": 8091,
      "match": 8092,
      "inally": 8093,
      "durability": 8094,
      "lights": 8095,
      "diagno": 8096,
      "ably": 8097,
      "Also": 8098,
      "navig": 8099,
      "review": 8100,
      "placement": 8101,
      "constant": 8102,
      "coordin": 8103,
      "detailed": 8104,
      "threat": 8105,
      "genetic": 8106,
      "enab": 8107,
      "hit": 8108,
      "kids": 8109,
      "upon": 8110,
      "earth": 8111,
      "effectively": 8112,
      "believe": 8113,
      "bes": 8114,
      "daily": 8115,
      "Bec": 8116,
      "ets": 8117,
      "parents": 8118,
      "algorith": 8119,
      "creation": 8120,
      "States": 8121,
      "consu": 8122,
      "Cor": 8123,
      "liqu": 8124,
      "noise": 8125,
      "presence": 8126,
      "immune": 8127,
      "signs": 8128,
      "ening": 8129,
      "mods": 8130,
      "mosp": 8131,
      "Sw": 8132,
      "goal": 8133,
      "fib": 8134,
      "hood": 8135,
      "vo": 8136,
      "sou": 8137,
      "aqu": 8138,
      "unit": 8139,
      "property": 8140,
      "platform": 8141,
      "Science": 8142,
      "members": 8143,
      "oud": 8144,
      "atomic": 8145,
      "approxim": 8146,
      "demon": 8147,
      "completely": 8148,
      "comput": 8149,
      "organic": 8150,
      "button": 8151,
      "processing": 8152,
      "soc": 8153,
      "tox": 8154,
      "slight": 8155,
      "moist": 8156,
      "clock": 8157,
      "expect": 8158,
      "memory": 8159,
      "survival": 8160,
      "suitable": 8161,
      "ensity": 8162,
      "tips": 8163,
      "Str": 8164,
      "North": 8165,
      "AP": 8166,
      "yond": 8167,
      "student": 8168,
      "bles": 8169,
      "purposes": 8170,
      "broken": 8171,
      "Dep": 8172,
      "mot": 8173,
      "critical": 8174,
      "axe": 8175,
      "application": 8176,
      "testing": 8177,
      "OS": 8178,
      "encoun": 8179,
      "behavi": 8180,
      "ske": 8181,
      "reasons": 8182,
      "Redstone": 8183,
      "else": 8184,
      "dirt": 8185,
      "involves": 8186,
      "akes": 8187,
      "Who": 8188,
      "village": 8189,
      "Br": 8190,
      "thern": 8191,
      "wel": 8192,
      "ctor": 8193,
      "School": 8194,
      "projects": 8195,
      "nit": 8196,
      "ES": 8197,
      "Of": 8198,
      "32": 8199,
      "recommend": 8200,
      "bird": 8201,
      "ols": 8202,
      "Each": 8203,
      "Bl": 8204,
      "bugs": 8205,
      "90": 8206,
      "scen": 8207,
      "subject": 8208,
      "demonstr": 8209,
      "evidence": 8210,
      "particles": 8211,
      "connected": 8212,
      "potato": 8213,
      "infl": 8214,
      "topic": 8215,
      "thetic": 8216,
      "served": 8217,
      "ager": 8218,
      "Bu": 8219,
      "eases": 8220,
      "ony": 8221,
      "compet": 8222,
      "Austr": 8223,
      "Although": 8224,
      "AS": 8225,
      "stage": 8226,
      "Under": 8227,
      "handle": 8228,
      "changed": 8229,
      "month": 8230,
      "Fo": 8231,
      "Ty": 8232,
      "BT": 8233,
      "tax": 8234,
      "Lear": 8235,
      "carry": 8236,
      "dated": 8237,
      "diseases": 8238,
      "bel": 8239,
      "oxy": 8240,
      "becomes": 8241,
      "scientific": 8242,
      "OR": 8243,
      "lying": 8244,
      "Using": 8245,
      "menu": 8246,
      "ades": 8247,
      "tu": 8248,
      "Afric": 8249,
      "gi": 8250,
      "reference": 8251,
      "26": 8252,
      "dependent": 8253,
      "compreh": 8254,
      "solar": 8255,
      "inner": 8256,
      "Tech": 8257,
      "icks": 8258,
      "ously": 8259,
      "goes": 8260,
      "reported": 8261,
      "responsible": 8262,
      "vas": 8263,
      "TH": 8264,
      "Eng": 8265,
      "Since": 8266,
      "Pho": 8267,
      "valid": 8268,
      "advanced": 8269,
      "ibe": 8270,
      "onto": 8271,
      "patient": 8272,
      "Don": 8273,
      "Coun": 8274,
      "temperatures": 8275,
      "communication": 8276,
      "difficulty": 8277,
      "lap": 8278,
      "processes": 8279,
      "advantage": 8280,
      "wire": 8281,
      "atmosp": 8282,
      "everyone": 8283,
      "Because": 8284,
      "designs": 8285,
      "clusion": 8286,
      "Gre": 8287,
      "speak": 8288,
      "owners": 8289,
      "dynam": 8290,
      "names": 8291,
      "pup": 8292,
      "presents": 8293,
      "carr": 8294,
      "brid": 8295,
      "places": 8296,
      "exce": 8297,
      "appropriate": 8298,
      "increases": 8299,
      "reduced": 8300,
      "priv": 8301,
      "stick": 8302,
      "visit": 8303,
      "destro": 8304,
      "wash": 8305,
      "contrast": 8306,
      "Education": 8307,
      "mary": 8308,
      "ull": 8309,
      "older": 8310,
      "weeks": 8311,
      "stored": 8312,
      "ships": 8313,
      "attach": 8314,
      "copper": 8315,
      "compat": 8316,
      "depth": 8317,
      "AM": 8318,
      "ults": 8319,
      "bill": 8320,
      "Further": 8321,
      "band": 8322,
      "Ele": 8323,
      "details": 8324,
      "vi": 8325,
      "usive": 8326,
      "forward": 8327,
      "IC": 8328,
      "lu": 8329,
      "iny": 8330,
      "didn": 8331,
      "mole": 8332,
      "AL": 8333,
      "faces": 8334,
      "ingredients": 8335,
      "aters": 8336,
      "tages": 8337,
      "cand": 8338,
      "High": 8339,
      "`/": 8340,
      "benefit": 8341,
      "price": 8342,
      "frequency": 8343,
      "functionality": 8344,
      "ushroom": 8345,
      "brown": 8346,
      "located": 8347,
      "pite": 8348,
      "immers": 8349,
      "currently": 8350,
      "NT": 8351,
      "compar": 8352,
      "vehicle": 8353,
      "plain": 8354,
      "Make": 8355,
      "late": 8356,
      "symbol": 8357,
      "cooking": 8358,
      "status": 8359,
      "ife": 8360,
      "sen": 8361,
      "allowed": 8362,
      "tasks": 8363,
      "crete": 8364,
      "thr": 8365,
      "fruit": 8366,
      "foc": 8367,
      "came": 8368,
      "trou": 8369,
      "Another": 8370,
      "smooth": 8371,
      "network": 8372,
      "floor": 8373,
      "writing": 8374,
      "Austral": 8375,
      "grade": 8376,
      "importance": 8377,
      "drive": 8378,
      "programs": 8379,
      "contribute": 8380,
      "Just": 8381,
      "pieces": 8382,
      "Ge": 8383,
      "restr": 8384,
      "capture": 8385,
      "factor": 8386,
      "alternative": 8387,
      "mainten": 8388,
      "powerful": 8389,
      "maintenance": 8390,
      "leave": 8391,
      "cod": 8392,
      "characteristics": 8393,
      "exercise": 8394,
      "gate": 8395,
      "faster": 8396,
      "countries": 8397,
      "improved": 8398,
      "Act": 8399,
      "relationship": 8400,
      "bag": 8401,
      "mechanism": 8402,
      "innov": 8403,
      "strategies": 8404,
      "rema": 8405,
      "visible": 8406,
      "gram": 8407,
      "alu": 8408,
      "via": 8409,
      "ternal": 8410,
      "burn": 8411,
      "recip": 8412,
      "bing": 8413,
      "aspects": 8414,
      "teeth": 8415,
      "construction": 8416,
      "awning": 8417,
      "fight": 8418,
      "occurs": 8419,
      "phase": 8420,
      "encounter": 8421,
      "serious": 8422,
      "Other": 8423,
      "anch": 8424,
      "proced": 8425,
      "receive": 8426,
      "finding": 8427,
      "internal": 8428,
      "wonder": 8429,
      "obs": 8430,
      "iction": 8431,
      "functions": 8432,
      "remember": 8433,
      "initial": 8434,
      "talk": 8435,
      "desired": 8436,
      "angle": 8437,
      "seems": 8438,
      "phy": 8439,
      "ula": 8440,
      "separate": 8441,
      "analy": 8442,
      "published": 8443,
      "costs": 8444,
      "config": 8445,
      "technique": 8446,
      "</": 8447,
      "thick": 8448,
      "giving": 8449,
      "potentially": 8450,
      "beyond": 8451,
      "lecting": 8452,
      "web": 8453,
      "favor": 8454,
      "Mon": 8455,
      "Sm": 8456,
      "vacc": 8457,
      "intended": 8458,
      "piston": 8459,
      "atives": 8460,
      "snapshot": 8461,
      "incorpor": 8462,
      "IT": 8463,
      "friendly": 8464,
      "South": 8465,
      "ulture": 8466,
      "iful": 8467,
      "flex": 8468,
      "changing": 8469,
      "motor": 8470,
      "friends": 8471,
      "iately": 8472,
      "enchantment": 8473,
      "numer": 8474,
      "America": 8475,
      "oxygen": 8476,
      "hands": 8477,
      "yellow": 8478,
      "zing": 8479,
      "theory": 8480,
      "concentr": 8481,
      "shots": 8482,
      "Even": 8483,
      "kin": 8484,
      "sustainable": 8485,
      "itute": 8486,
      "Does": 8487,
      "instance": 8488,
      "insul": 8489,
      "developing": 8490,
      "sole": 8491,
      "electrical": 8492,
      "ishing": 8493,
      "minimum": 8494,
      "Gra": 8495,
      "stead": 8496,
      "companies": 8497,
      ".)": 8498,
      "win": 8499,
      "ender": 8500,
      "mat": 8501,
      "ule": 8502,
      "iki": 8503,
      "ancy": 8504,
      "soon": 8505,
      "plays": 8506,
      "oming": 8507,
      "umin": 8508,
      "meal": 8509,
      "anging": 8510,
      "sav": 8511,
      "35": 8512,
      "danger": 8513,
      "Read": 8514,
      "oration": 8515,
      "45": 8516,
      "sent": 8517,
      "although": 8518,
      "experiences": 8519,
      "cient": 8520,
      "lots": 8521,
      "Sim": 8522,
      "security": 8523,
      "Ho": 8524,
      "fine": 8525,
      "ology": 8526,
      "evalu": 8527,
      "28": 8528,
      "ana": 8529,
      "itation": 8530,
      "flat": 8531,
      "excess": 8532,
      "spot": 8533,
      "gives": 8534,
      "approximately": 8535,
      "Sep": 8536,
      "packs": 8537,
      "Ger": 8538,
      "realistic": 8539,
      "del": 8540,
      "potions": 8541,
      "roof": 8542,
      "oting": 8543,
      "utor": 8544,
      "practices": 8545,
      "remains": 8546,
      "Air": 8547,
      "latest": 8548,
      "ito": 8549,
      "fishing": 8550,
      "ibly": 8551,
      "roll": 8552,
      "app": 8553,
      "successful": 8554,
      "record": 8555,
      "sures": 8556,
      "sell": 8557,
      "assign": 8558,
      "ju": 8559,
      "ideal": 8560,
      "achievements": 8561,
      "gene": 8562,
      "ragon": 8563,
      "ideas": 8564,
      "eper": 8565,
      "van": 8566,
      "transfer": 8567,
      "infection": 8568,
      "tele": 8569,
      "Class": 8570,
      "--------": 8571,
      "ays": 8572,
      "solutions": 8573,
      "chan": 8574,
      "coal": 8575,
      "Par": 8576,
      "expert": 8577,
      "Wind": 8578,
      "comfor": 8579,
      "Their": 8580,
      "Photo": 8581,
      "rat": 8582,
      "idian": 8583,
      "mm": 8584,
      "usage": 8585,
      "During": 8586,
      "bound": 8587,
      "rage": 8588,
      "string": 8589,
      "ford": 8590,
      "culture": 8591,
      "government": 8592,
      "Su": 8593,
      "ny": 8594,
      "volume": 8595,
      "iding": 8596,
      "breeding": 8597,
      "otope": 8598,
      "walk": 8599,
      "preser": 8600,
      "transition": 8601,
      "trap": 8602,
      "poor": 8603,
      "expensive": 8604,
      "enchanted": 8605,
      "counter": 8606,
      "Sec": 8607,
      "weak": 8608,
      "Cons": 8609,
      "ened": 8610,
      "profession": 8611,
      "logies": 8612,
      "lost": 8613,
      "phen": 8614,
      "keeping": 8615,
      "isotope": 8616,
      "posure": 8617,
      "anks": 8618,
      "enge": 8619,
      "hope": 8620,
      "thinking": 8621,
      "commer": 8622,
      "harvest": 8623,
      "Step": 8624,
      "pretty": 8625,
      "accurate": 8626,
      "iles": 8627,
      "Val": 8628,
      "meet": 8629,
      "adapt": 8630,
      "therapy": 8631,
      "prob": 8632,
      "emis": 8633,
      "comfort": 8634,
      "bud": 8635,
      "drain": 8636,
      "engage": 8637,
      "antib": 8638,
      "collabor": 8639,
      "slightly": 8640,
      "Au": 8641,
      "interesting": 8642,
      "ided": 8643,
      "ector": 8644,
      "situation": 8645,
      "Pow": 8646,
      "defined": 8647,
      "AD": 8648,
      "istr": 8649,
      "excell": 8650,
      "century": 8651,
      "Gallery": 8652,
      "platforms": 8653,
      "hearing": 8654,
      "message": 8655,
      "encing": 8656,
      "pump": 8657,
      "wanted": 8658,
      "argument": 8659,
      "write": 8660,
      "Jan": 8661,
      "nothing": 8662,
      "structions": 8663,
      "affects": 8664,
      "surv": 8665,
      "fab": 8666,
      "oles": 8667,
      "Che": 8668,
      "operation": 8669,
      "took": 8670,
      "relev": 8671,
      "Oc": 8672,
      "ungle": 8673,
      "reci": 8674,
      "correspond": 8675,
      "2020": 8676,
      "preci": 8677,
      "rist": 8678,
      "spr": 8679,
      "expand": 8680,
      "lens": 8681,
      "severe": 8682,
      "rob": 8683,
      "cred": 8684,
      "shel": 8685,
      "chicken": 8686,
      "anyone": 8687,
      "iet": 8688,
      "Survival": 8689,
      "psy": 8690,
      "hear": 8691,
      "exactly": 8692,
      "heavy": 8693,
      "distribution": 8694,
      "nuc": 8695,
      "serves": 8696,
      "iar": 8697,
      "sus": 8698,
      "cles": 8699,
      "advancements": 8700,
      "imag": 8701,
      "Therefore": 8702,
      "magne": 8703,
      "square": 8704,
      "bright": 8705,
      "cast": 8706,
      "75": 8707,
      "huge": 8708,
      "alk": 8709,
      "isions": 8710,
      "rapid": 8711,
      "recipes": 8712,
      "catch": 8713,
      "sex": 8714,
      "central": 8715,
      "29": 8716,
      "ores": 8717,
      "fixed": 8718,
      "Cent": 8719,
      "Every": 8720,
      "played": 8721,
      "comprehensive": 8722,
      "iot": 8723,
      "influence": 8724,
      "actual": 8725,
      "alle": 8726,
      "rac": 8727,
      "rates": 8728,
      "commit": 8729,
      "determined": 8730,
      "Keep": 8731,
      "SE": 8732,
      "lose": 8733,
      "gree": 8734,
      "filter": 8735,
      "gradu": 8736,
      "Cho": 8737,
      "mun": 8738,
      "described": 8739,
      "NBT": 8740,
      "liquid": 8741,
      "acters": 8742,
      "Ed": 8743,
      "destroy": 8744,
      "Soc": 8745,
      "bond": 8746,
      "rules": 8747,
      "Creative": 8748,
      "portion": 8749,
      "spawning": 8750,
      "challenging": 8751,
      "cars": 8752,
      "shar": 8753,
      "decision": 8754,
      "hydr": 8755,
      "double": 8756,
      "auto": 8757,
      "guides": 8758,
      "dimens": 8759,
      "genes": 8760,
      "Get": 8761,
      "truc": 8762,
      "nutrition": 8763,
      "collection": 8764,
      "alone": 8765,
      "org": 8766,
      "comfortable": 8767,
      "replace": 8768,
      "cleaning": 8769,
      "oak": 8770,
      "electro": 8771,
      "lip": 8772,
      "maintaining": 8773,
      "straight": 8774,
      "zombie": 8775,
      "wooden": 8776,
      "saw": 8777,
      "iling": 8778,
      "Whe": 8779,
      "ye": 8780,
      "seconds": 8781,
      "Joh": 8782,
      "walls": 8783,
      "Data": 8784,
      "clin": 8785,
      "compress": 8786,
      "broad": 8787,
      "Moj": 8788,
      "environments": 8789,
      "Its": 8790,
      "Am": 8791,
      "NOT": 8792,
      "zen": 8793,
      "killed": 8794,
      "liter": 8795,
      "dent": 8796,
      "Furthermore": 8797,
      "wol": 8798,
      "Char": 8799,
      "salt": 8800,
      "fertil": 8801,
      "communic": 8802,
      "boat": 8803,
      "graphics": 8804,
      "skelet": 8805,
      "scenar": 8806,
      "lier": 8807,
      "pal": 8808,
      "cutting": 8809,
      "64": 8810,
      "external": 8811,
      "fair": 8812,
      "encies": 8813,
      "beautiful": 8814,
      "colle": 8815,
      "attle": 8816,
      "investig": 8817,
      "hop": 8818,
      "State": 8819,
      "agric": 8820,
      "journey": 8821,
      "notice": 8822,
      "Micro": 8823,
      "connection": 8824,
      "susp": 8825,
      "trading": 8826,
      "vey": 8827,
      "characters": 8828,
      "feeding": 8829,
      "Di": 8830,
      "fficient": 8831,
      "wet": 8832,
      "drops": 8833,
      "nutrients": 8834,
      "parame": 8835,
      "umn": 8836,
      "moment": 8837,
      "dimension": 8838,
      "pets": 8839,
      "conver": 8840,
      "ham": 8841,
      "cher": 8842,
      "tains": 8843,
      "exposure": 8844,
      "typical": 8845,
      "correctly": 8846,
      "slab": 8847,
      "aes": 8848,
      "listed": 8849,
      "powder": 8850,
      "ancing": 8851,
      "icking": 8852,
      "background": 8853,
      "written": 8854,
      "reve": 8855,
      "cot": 8856,
      "wrong": 8857,
      "abundant": 8858,
      "demand": 8859,
      "imin": 8860,
      "Aug": 8861,
      "nether": 8862,
      "depends": 8863,
      "mouth": 8864,
      "consistent": 8865,
      "estic": 8866,
      "Prof": 8867,
      "histor": 8868,
      "suggests": 8869,
      "immediately": 8870,
      "izations": 8871,
      "Mojang": 8872,
      "inde": 8873,
      "aries": 8874,
      "June": 8875,
      "click": 8876,
      "birth": 8877,
      "dust": 8878,
      "news": 8879,
      "wave": 8880,
      "Bra": 8881,
      "tow": 8882,
      "summary": 8883,
      "capacity": 8884,
      "recipe": 8885,
      "represents": 8886,
      "steel": 8887,
      "oxide": 8888,
      "osing": 8889,
      "strategy": 8890,
      "ads": 8891,
      "signals": 8892,
      "Part": 8893,
      "probability": 8894,
      "PS": 8895,
      "atically": 8896,
      "tun": 8897,
      "cks": 8898,
      "native": 8899,
      "ifier": 8900,
      "layers": 8901,
      "notes": 8902,
      "accom": 8903,
      "descrip": 8904,
      "discover": 8905,
      "resid": 8906,
      "cryst": 8907,
      "tall": 8908,
      "tissue": 8909,
      "iso": 8910,
      "atmosphere": 8911,
      "ports": 8912,
      "grown": 8913,
      "Ender": 8914,
      "Day": 8915,
      "nia": 8916,
      "sco": 8917,
      "cular": 8918,
      "cin": 8919,
      "became": 8920,
      "origin": 8921,
      "vil": 8922,
      "ai": 8923,
      "grees": 8924,
      "sweet": 8925,
      "Bre": 8926,
      "Pol": 8927,
      "spir": 8928,
      "graphy": 8929,
      "rule": 8930,
      "vegetables": 8931,
      "equal": 8932,
      "Well": 8933,
      "inking": 8934,
      "lean": 8935,
      "relatively": 8936,
      "trie": 8937,
      "airs": 8938,
      "looks": 8939,
      "therefore": 8940,
      "mut": 8941,
      "plications": 8942,
      "parent": 8943,
      "].": 8944,
      "stack": 8945,
      "2019": 8946,
      "extremely": 8947,
      "tren": 8948,
      "motional": 8949,
      "cra": 8950,
      "puts": 8951,
      "communities": 8952,
      "fing": 8953,
      "goals": 8954,
      "princi": 8955,
      "Where": 8956,
      "Update": 8957,
      "div": 8958,
      "llig": 8959,
      "efficiently": 8960,
      "stim": 8961,
      "elev": 8962,
      "virus": 8963,
      "held": 8964,
      "ancient": 8965,
      "figure": 8966,
      "score": 8967,
      "degrees": 8968,
      "Any": 8969,
      "secure": 8970,
      "filled": 8971,
      "adult": 8972,
      "inches": 8973,
      "reaction": 8974,
      "Engl": 8975,
      "intellig": 8976,
      "task": 8977,
      "excellent": 8978,
      "picture": 8979,
      "hom": 8980,
      "muscle": 8981,
      "challenge": 8982,
      "System": 8983,
      "Food": 8984,
      "fields": 8985,
      "icted": 8986,
      "experimental": 8987,
      "tooth": 8988,
      "English": 8989,
      "concrete": 8990,
      "ries": 8991,
      "gent": 8992,
      "2014": 8993,
      "radio": 8994,
      "Wild": 8995,
      "marine": 8996,
      "beta": 8997,
      "butter": 8998,
      "sequence": 8999,
      "ote": 9000,
      "Hy": 9001,
      "brand": 9002,
      "iger": 9003,
      "orders": 9004,
      "Sa": 9005,
      "sched": 9006,
      "ifying": 9007,
      "Rem": 9008,
      "notable": 9009,
      "MS": 9010,
      "alse": 9011,
      "opportunity": 9012,
      "thes": 9013,
      "brush": 9014,
      "opportunities": 9015,
      "Te": 9016,
      "La": 9017,
      "middle": 9018,
      "2018": 9019,
      "named": 9020,
      "evol": 9021,
      "idden": 9022,
      "Cur": 9023,
      "roots": 9024,
      "effort": 9025,
      "film": 9026,
      "selection": 9027,
      "yield": 9028,
      "ashion": 9029,
      "cave": 9030,
      "leaf": 9031,
      "chec": 9032,
      "maps": 9033,
      "rise": 9034,
      "ulated": 9035,
      "teachers": 9036,
      "2017": 9037,
      "logic": 9038,
      "relevant": 9039,
      "taste": 9040,
      "legal": 9041,
      "suffer": 9042,
      "zz": 9043,
      "wid": 9044,
      "doctor": 9045,
      "voltage": 9046,
      "advantages": 9047,
      "vibr": 9048,
      "error": 9049,
      "electricity": 9050,
      "fed": 9051,
      "degree": 9052,
      "regarding": 9053,
      "combined": 9054,
      "betes": 9055,
      "na": 9056,
      "respective": 9057,
      "went": 9058,
      "consumption": 9059,
      "moisture": 9060,
      "reflect": 9061,
      "rable": 9062,
      "Brit": 9063,
      "itis": 9064,
      "exposed": 9065,
      "thous": 9066,
      "acqu": 9067,
      "ugs": 9068,
      "bits": 9069,
      "irm": 9070,
      "zo": 9071,
      "Center": 9072,
      "Sol": 9073,
      "dol": 9074,
      "artment": 9075,
      "schools": 9076,
      "locations": 9077,
      "iff": 9078,
      "exploring": 9079,
      "arian": 9080,
      "ference": 9081,
      "thesis": 9082,
      "estone": 9083,
      "2016": 9084,
      "36": 9085,
      "crash": 9086,
      "fluid": 9087,
      "flight": 9088,
      "itude": 9089,
      "refers": 9090,
      "enable": 9091,
      "ultim": 9092,
      "wool": 9093,
      "splash": 9094,
      "magnetic": 9095,
      "indicate": 9096,
      "antic": 9097,
      "War": 9098,
      "ums": 9099,
      "regions": 9100,
      "surrounding": 9101,
      "ee": 9102,
      "Canad": 9103,
      "bees": 9104,
      "sites": 9105,
      "updated": 9106,
      "SA": 9107,
      "accept": 9108,
      "Note": 9109,
      "iation": 9110,
      "discovered": 9111,
      "circuits": 9112,
      "Christ": 9113,
      "sword": 9114,
      "inflamm": 9115,
      "ativity": 9116,
      "recently": 9117,
      "Art": 9118,
      "Finally": 9119,
      "painting": 9120,
      "nu": 9121,
      "pickaxe": 9122,
      "rub": 9123,
      "teaching": 9124,
      "crops": 9125,
      "physics": 9126,
      "organisms": 9127,
      "duration": 9128,
      "interactions": 9129,
      "48": 9130,
      "mobile": 9131,
      "coast": 9132,
      "irr": 9133,
      "largest": 9134,
      "hous": 9135,
      "align": 9136,
      "medium": 9137,
      "divid": 9138,
      "vity": 9139,
      "haps": 9140,
      "simpl": 9141,
      "Ma": 9142,
      "caul": 9143,
      "paint": 9144,
      "regularly": 9145,
      "plug": 9146,
      "2013": 9147,
      "alter": 9148,
      "Hel": 9149,
      "lets": 9150,
      "driving": 9151,
      "fee": 9152,
      "pulse": 9153,
      "mushroom": 9154,
      "forts": 9155,
      "immersive": 9156,
      "Bas": 9157,
      "ubl": 9158,
      "sess": 9159,
      "pages": 9160,
      "diverse": 9161,
      "treated": 9162,
      "Pres": 9163,
      "Jap": 9164,
      "gy": 9165,
      "cription": 9166,
      "usual": 9167,
      "tank": 9168,
      "anti": 9169,
      "colour": 9170,
      "resolve": 9171,
      "proteins": 9172,
      "Leg": 9173,
      "urs": 9174,
      "virt": 9175,
      "yl": 9176,
      "powered": 9177,
      "skill": 9178,
      "functional": 9179,
      "orses": 9180,
      "measures": 9181,
      "Hum": 9182,
      "Whether": 9183,
      "units": 9184,
      "Will": 9185,
      "practical": 9186,
      "ED": 9187,
      "iverse": 9188,
      "composition": 9189,
      "gency": 9190,
      "pool": 9191,
      "reliable": 9192,
      "smart": 9193,
      "identified": 9194,
      "underwater": 9195,
      "situations": 9196,
      "ught": 9197,
      "planet": 9198,
      "itect": 9199,
      "instructions": 9200,
      "exhib": 9201,
      "damaged": 9202,
      "organization": 9203,
      "2010": 9204,
      "limitations": 9205,
      "beginning": 9206,
      "furnace": 9207,
      "Black": 9208,
      "amounts": 9209,
      "estern": 9210,
      "highest": 9211,
      "surpr": 9212,
      "earlier": 9213,
      "aper": 9214,
      "emeral": 9215,
      "pregn": 9216,
      "ias": 9217,
      "commercial": 9218,
      "ifor": 9219,
      "rench": 9220,
      "master": 9221,
      "toxic": 9222,
      "exploration": 9223,
      "copy": 9224,
      "pill": 9225,
      "God": 9226,
      "bee": 9227,
      "trust": 9228,
      "500": 9229,
      "nest": 9230,
      "believ": 9231,
      "libr": 9232,
      "experienced": 9233,
      "glow": 9234,
      "Overworld": 9235,
      "fur": 9236,
      "obsidian": 9237,
      "ilit": 9238,
      "celer": 9239,
      "Like": 9240,
      "lag": 9241,
      "frequently": 9242,
      "aws": 9243,
      "anx": 9244,
      "rome": 9245,
      "delic": 9246,
      "planning": 9247,
      "2012": 9248,
      "achieved": 9249,
      "ork": 9250,
      "caves": 9251,
      "window": 9252,
      "uries": 9253,
      "produces": 9254,
      "ancial": 9255,
      "admin": 9256,
      "adults": 9257,
      "sufficient": 9258,
      "heard": 9259,
      "amboo": 9260,
      "emer": 9261,
      "conservation": 9262,
      "neutr": 9263,
      "prop": 9264,
      "wearing": 9265,
      "waves": 9266,
      "jungle": 9267,
      "qual": 9268,
      "flavor": 9269,
      "diamonds": 9270,
      "landscape": 9271,
      "illustr": 9272,
      "born": 9273,
      "female": 9274,
      "ificial": 9275,
      "stability": 9276,
      "Sup": 9277,
      "gun": 9278,
      "deliver": 9279,
      "download": 9280,
      "):": 9281,
      "prepar": 9282,
      "ipped": 9283,
      "Sun": 9284,
      "technologies": 9285,
      "Ob": 9286,
      "coordinates": 9287,
      "31": 9288,
      "Int": 9289,
      "izer": 9290,
      "kno": 9291,
      "efforts": 9292,
      "Her": 9293,
      "Comp": 9294,
      "tests": 9295,
      "transmit": 9296,
      "creates": 9297,
      "followed": 9298,
      "aspect": 9299,
      "chunk": 9300,
      "iments": 9301,
      "enchantments": 9302,
      "38": 9303,
      "icated": 9304,
      "iders": 9305,
      "insects": 9306,
      "delay": 9307,
      "Califor": 9308,
      "Av": 9309,
      "manufactur": 9310,
      "sort": 9311,
      "erals": 9312,
      "plane": 9313,
      "lt": 9314,
      "People": 9315,
      "lies": 9316,
      "ky": 9317,
      "IDs": 9318,
      "cepts": 9319,
      "norm": 9320,
      "stuff": 9321,
      "tober": 9322,
      "behaviors": 9323,
      "coral": 9324,
      "Bar": 9325,
      "March": 9326,
      "economic": 9327,
      "honey": 9328,
      "2015": 9329,
      "IP": 9330,
      "pitch": 9331,
      "Gold": 9332,
      "ief": 9333,
      "tember": 9334,
      "facing": 9335,
      "inch": 9336,
      "oman": 9337,
      "pho": 9338,
      "bodies": 9339,
      "shell": 9340,
      "opt": 9341,
      "combat": 9342,
      "Before": 9343,
      "Japan": 9344,
      "amed": 9345,
      "cohol": 9346,
      "feeling": 9347,
      "optimal": 9348,
      "becoming": 9349,
      "termin": 9350,
      "nearby": 9351,
      "EM": 9352,
      "About": 9353,
      "tutor": 9354,
      "India": 9355,
      "controlled": 9356,
      "Both": 9357,
      "category": 9358,
      "Bio": 9359,
      "Add": 9360,
      "Fore": 9361,
      "please": 9362,
      "focused": 9363,
      "lease": 9364,
      "train": 9365,
      "pas": 9366,
      "cules": 9367,
      "previously": 9368,
      "October": 9369,
      "geo": 9370,
      "mistry": 9371,
      "eting": 9372,
      "ogle": 9373,
      "vital": 9374,
      "sides": 9375,
      "reduction": 9376,
      "elimin": 9377,
      "September": 9378,
      "staff": 9379,
      "transform": 9380,
      "sample": 9381,
      "exclusive": 9382,
      "emit": 9383,
      "generating": 9384,
      "editions": 9385,
      "accessible": 9386,
      "cele": 9387,
      "hidden": 9388,
      "contrap": 9389,
      "consul": 9390,
      "California": 9391,
      "2011": 9392,
      "contraptions": 9393,
      "haz": 9394,
      "IG": 9395,
      "sequences": 9396,
      "farming": 9397,
      "helping": 9398,
      "risks": 9399,
      "resolution": 9400,
      "populations": 9401,
      "gery": 9402,
      "electron": 9403,
      "Environ": 9404,
      "recycl": 9405,
      "happy": 9406,
      "suppl": 9407,
      "fashion": 9408,
      "enty": 9409,
      "sme": 9410,
      "asked": 9411,
      "attract": 9412,
      "esty": 9413,
      "occas": 9414,
      "tles": 9415,
      "male": 9416,
      "Take": 9417,
      "falling": 9418,
      "barr": 9419,
      "observed": 9420,
      "mov": 9421,
      "attrib": 9422,
      "offering": 9423,
      "July": 9424,
      "density": 9425,
      "lam": 9426,
      "nur": 9427,
      "Har": 9428,
      "Serv": 9429,
      "Wood": 9430,
      "conven": 9431,
      "maintained": 9432,
      "ensures": 9433,
      "celebr": 9434,
      "Light": 9435,
      "Sil": 9436,
      "je": 9437,
      "CH": 9438,
      "interested": 9439,
      "phas": 9440,
      "Design": 9441,
      "kid": 9442,
      "nan": 9443,
      "precise": 9444,
      "Green": 9445,
      "spawned": 9446,
      "cm": 9447,
      "technical": 9448,
      "imming": 9449,
      "gaming": 9450,
      "kit": 9451,
      "izon": 9452,
      "crafted": 9453,
      "sky": 9454,
      "boost": 9455,
      "mig": 9456,
      "yes": 9457,
      "jac": 9458,
      "CT": 9459,
      "August": 9460,
      "fre": 9461,
      "capt": 9462,
      "iga": 9463,
      "containing": 9464,
      "vention": 9465,
      "pil": 9466,
      "**:": 9467,
      "scr": 9468,
      "sold": 9469,
      "RO": 9470,
      "Cr": 9471,
      "couple": 9472,
      "producing": 9473,
      "Ca": 9474,
      "enables": 9475,
      "selected": 9476,
      "aid": 9477,
      "ingu": 9478,
      "2021": 9479,
      "smel": 9480,
      "pix": 9481,
      "acceler": 9482,
      "apart": 9483,
      "dynamic": 9484,
      "lins": 9485,
      "isol": 9486,
      "referred": 9487,
      "educational": 9488,
      "emissions": 9489,
      "shad": 9490,
      "aches": 9491,
      "adds": 9492,
      "began": 9493,
      "mas": 9494,
      "venture": 9495,
      "Child": 9496,
      "hole": 9497,
      "Trans": 9498,
      "promote": 9499,
      "heating": 9500,
      "ION": 9501,
      "compare": 9502,
      "families": 9503,
      "worked": 9504,
      "Rel": 9505,
      "homes": 9506,
      "formula": 9507,
      "basis": 9508,
      "ri": 9509,
      "engaging": 9510,
      "rol": 9511,
      "party": 9512,
      "received": 9513,
      "undred": 9514,
      "walking": 9515,
      "carefully": 9516,
      "foss": 9517,
      "worlds": 9518,
      "CD": 9519,
      "architect": 9520,
      "attacks": 9521,
      "Consider": 9522,
      "rad": 9523,
      "spaces": 9524,
      "nearly": 9525,
      "videos": 9526,
      "unless": 9527,
      "inding": 9528,
      "Mod": 9529,
      "Cha": 9530,
      "Hist": 9531,
      "appreci": 9532,
      "categories": 9533,
      "planting": 9534,
      "numerous": 9535,
      "algorithm": 9536,
      "favorite": 9537,
      "Instead": 9538,
      "embr": 9539,
      "loop": 9540,
      "oxid": 9541,
      "eventually": 9542,
      "email": 9543,
      "Anim": 9544,
      "humid": 9545,
      "cision": 9546,
      "rogen": 9547,
      "operations": 9548,
      "starts": 9549,
      "persp": 9550,
      "sensor": 9551,
      "retrie": 9552,
      "spend": 9553,
      "Institute": 9554,
      "mber": 9555,
      "integer": 9556,
      "helpful": 9557,
      "Exper": 9558,
      "trial": 9559,
      "ropical": 9560,
      "ames": 9561,
      "ultural": 9562,
      "Nat": 9563,
      "manip": 9564,
      "ieties": 9565,
      "portal": 9566,
      "pressed": 9567,
      "China": 9568,
      "concerns": 9569,
      "robot": 9570,
      "predict": 9571,
      "magn": 9572,
      "inations": 9573,
      "wiki": 9574,
      "transmission": 9575,
      "plans": 9576,
      "attemp": 9577,
      "fabric": 9578,
      "horses": 9579,
      "mac": 9580,
      "satis": 9581,
      "advancement": 9582,
      "varian": 9583,
      "Blue": 9584,
      "Exam": 9585,
      "kers": 9586,
      "drawing": 9587,
      "gment": 9588,
      "99": 9589,
      "dies": 9590,
      "Check": 9591,
      "financial": 9592,
      "Pig": 9593,
      "nes": 9594,
      "tempor": 9595,
      "33": 9596,
      "ured": 9597,
      "vents": 9598,
      "molecules": 9599,
      "pens": 9600,
      "iveness": 9601,
      "diabetes": 9602,
      "hostile": 9603,
      "ogen": 9604,
      "confl": 9605,
      "forests": 9606,
      "customers": 9607,
      "cauldr": 9608,
      "drug": 9609,
      "ico": 9610,
      "instru": 9611,
      "UK": 9612,
      "Develop": 9613,
      "troubles": 9614,
      "tiny": 9615,
      "logs": 9616,
      "aly": 9617,
      "Tod": 9618,
      "fold": 9619,
      "crack": 9620,
      "decorative": 9621,
      "except": 9622,
      "feedback": 9623,
      "cum": 9624,
      "chemicals": 9625,
      "stock": 9626,
      "resistant": 9627,
      "society": 9628,
      "IV": 9629,
      "desert": 9630,
      "brea": 9631,
      "purchase": 9632,
      "surfaces": 9633,
      "compound": 9634,
      "Bla": 9635,
      "Lab": 9636,
      "198": 9637,
      "learned": 9638,
      "posite": 9639,
      "interaction": 9640,
      "fixes": 9641,
      "stro": 9642,
      "Power": 9643,
      "cultural": 9644,
      "See": 9645,
      "missing": 9646,
      "polit": 9647,
      "holds": 9648,
      "habitat": 9649,
      "itoring": 9650,
      "iced": 9651,
      "cooked": 9652,
      "regardless": 9653,
      "dangerous": 9654,
      "alpha": 9655,
      "ders": 9656,
      "teacher": 9657,
      "ratio": 9658,
      "replaced": 9659,
      "fruits": 9660,
      "Test": 9661,
      "widely": 9662,
      "Start": 9663,
      "machines": 9664,
      "vember": 9665,
      "miles": 9666,
      "dra": 9667,
      "Australia": 9668,
      "hundred": 9669,
      "ams": 9670,
      "Em": 9671,
      "links": 9672,
      "decisions": 9673,
      "wildlife": 9674,
      "weap": 9675,
      "leaders": 9676,
      "York": 9677,
      "maybe": 9678,
      "instant": 9679,
      "assum": 9680,
      "Mag": 9681,
      "Phys": 9682,
      "topics": 9683,
      "que": 9684,
      "serving": 9685,
      "Out": 9686,
      "fa": 9687,
      "beneficial": 9688,
      "Set": 9689,
      "customer": 9690,
      "assem": 9691,
      "Rob": 9692,
      "announ": 9693,
      "orient": 9694,
      "colo": 9695,
      "gers": 9696,
      "nology": 9697,
      "established": 9698,
      "crop": 9699,
      "documentation": 9700,
      "Have": 9701,
      "west": 9702,
      "aur": 9703,
      "upper": 9704,
      "ibilities": 9705,
      "closed": 9706,
      "describe": 9707,
      "encourage": 9708,
      "mother": 9709,
      "operating": 9710,
      "November": 9711,
      "rooms": 9712,
      "tight": 9713,
      "arter": 9714,
      "Ve": 9715,
      "Commun": 9716,
      "veter": 9717,
      "stages": 9718,
      "percentage": 9719,
      "utter": 9720,
      "agers": 9721,
      "San": 9722,
      "mostly": 9723,
      "shared": 9724,
      "international": 9725,
      "abol": 9726,
      "prepare": 9727,
      "ampl": 9728,
      "mold": 9729,
      "MP": 9730,
      "enabling": 9731,
      "capable": 9732,
      "conduct": 9733,
      "ocket": 9734,
      "advice": 9735,
      "Google": 9736,
      "introduction": 9737,
      "emphas": 9738,
      "breaks": 9739,
      "bike": 9740,
      "augh": 9741,
      "renew": 9742,
      "alcohol": 9743,
      "minerals": 9744,
      "definition": 9745,
      "Department": 9746,
      "knock": 9747,
      "particle": 9748,
      "familiar": 9749,
      "Profess": 9750,
      "width": 9751,
      "owner": 9752,
      "engineering": 9753,
      "chances": 9754,
      "relax": 9755,
      "versat": 9756,
      "wheel": 9757,
      "Gl": 9758,
      "loading": 9759,
      "Africa": 9760,
      "aled": 9761,
      "ears": 9762,
      "zero": 9763,
      "za": 9764,
      "John": 9765,
      "gap": 9766,
      "removal": 9767,
      "involve": 9768,
      "proof": 9769,
      "sports": 9770,
      "Program": 9771,
      "discuss": 9772,
      "ource": 9773,
      "standards": 9774,
      "sunlight": 9775,
      "French": 9776,
      "specified": 9777,
      "servers": 9778,
      "choosing": 9779,
      "Two": 9780,
      "trip": 9781,
      "hur": 9782,
      "respect": 9783,
      "healthcare": 9784,
      "Specific": 9785,
      "reality": 9786,
      "hardware": 9787,
      "optimize": 9788,
      "Pers": 9789,
      "leads": 9790,
      "capabilities": 9791,
      "graphic": 9792,
      "Windows": 9793,
      "Remember": 9794,
      "reduces": 9795,
      "Ocean": 9796,
      "vast": 9797,
      "precision": 9798,
      "Table": 9799,
      "flav": 9800,
      "prom": 9801,
      "tags": 9802,
      "navigate": 9803,
      "?\"": 9804,
      "itchen": 9805,
      "January": 9806,
      "Ben": 9807,
      "Indi": 9808,
      "Pat": 9809,
      "iration": 9810,
      "infections": 9811,
      "vehicles": 9812,
      "vac": 9813,
      "blog": 9814,
      "hypo": 9815,
      "bottle": 9816,
      "65": 9817,
      "itely": 9818,
      "ama": 9819,
      "universe": 9820,
      "ingredient": 9821,
      "prepared": 9822,
      "volution": 9823,
      "plates": 9824,
      "despite": 9825,
      "aggress": 9826,
      "holding": 9827,
      "artwork": 9828,
      "industrial": 9829,
      "dental": 9830,
      "leather": 9831,
      "improving": 9832,
      "His": 9833,
      "slot": 9834,
      "amaz": 9835,
      "title": 9836,
      "buc": 9837,
      "sensitive": 9838,
      "lecular": 9839,
      "meeting": 9840,
      "unately": 9841,
      "policy": 9842,
      "eding": 9843,
      "Port": 9844,
      "TV": 9845,
      "Understanding": 9846,
      "EN": 9847,
      "Cam": 9848,
      "ell": 9849,
      "displayed": 9850,
      "!!": 9851,
      "tons": 9852,
      "turned": 9853,
      "fas": 9854,
      "CP": 9855,
      "fundam": 9856,
      "represented": 9857,
      "poison": 9858,
      "ored": 9859,
      "minec": 9860,
      "Guide": 9861,
      "exception": 9862,
      "Great": 9863,
      "ET": 9864,
      "empty": 9865,
      "nels": 9866,
      "emerg": 9867,
      "December": 9868,
      "dedicated": 9869,
      "opening": 9870,
      "ING": 9871,
      "legs": 9872,
      "corrup": 9873,
      "checking": 9874,
      "satisf": 9875,
      "shaped": 9876,
      "north": 9877,
      "iss": 9878,
      "Park": 9879,
      "Pocket": 9880,
      "array": 9881,
      "container": 9882,
      "morning": 9883,
      "gal": 9884,
      "tore": 9885,
      "guard": 9886,
      "sheep": 9887,
      "determines": 9888,
      "establish": 9889,
      "Figure": 9890,
      "Plan": 9891,
      "river": 9892,
      "billion": 9893,
      "Tur": 9894,
      "ral": 9895,
      "2009": 9896,
      "Players": 9897,
      "Mode": 9898,
      "shapes": 9899,
      "classes": 9900,
      "________": 9901,
      "bell": 9902,
      "private": 9903,
      "gins": 9904,
      "atever": 9905,
      "umb": 9906,
      "vul": 9907,
      "normally": 9908,
      "anxiety": 9909,
      "businesses": 9910,
      "relationships": 9911,
      "expression": 9912,
      "keting": 9913,
      "bran": 9914,
      "camp": 9915,
      "2022": 9916,
      "uss": 9917,
      "characterized": 9918,
      "Je": 9919,
      "covery": 9920,
      "bamboo": 9921,
      "concepts": 9922,
      "traction": 9923,
      "surgery": 9924,
      "troublesho": 9925,
      "survive": 9926,
      "34": 9927,
      "sod": 9928,
      "Today": 9929,
      "LED": 9930,
      "Station": 9931,
      "psycho": 9932,
      "',": 9933,
      "song": 9934,
      "empt": 9935,
      "thro": 9936,
      "emotional": 9937,
      "acing": 9938,
      "client": 9939,
      "AB": 9940,
      "Know": 9941,
      "ica": 9942,
      "Through": 9943,
      "south": 9944,
      "hon": 9945,
      "solute": 9946,
      "brought": 9947,
      "experts": 9948,
      "dye": 9949,
      "pin": 9950,
      "told": 9951,
      "hosp": 9952,
      "odes": 9953,
      "ern": 9954,
      "distingu": 9955,
      "37": 9956,
      "proto": 9957,
      "cert": 9958,
      "recording": 9959,
      "promis": 9960,
      "supported": 9961,
      "Scient": 9962,
      "outer": 9963,
      "European": 9964,
      "creativity": 9965,
      "ride": 9966,
      "propag": 9967,
      "||": 9968,
      "throw": 9969,
      "cium": 9970,
      "medicine": 9971,
      "colate": 9972,
      "solve": 9973,
      "showed": 9974,
      "Build": 9975,
      "leaving": 9976,
      "Beta": 9977,
      "01": 9978,
      "sizes": 9979,
      "implemented": 9980,
      "decrease": 9981,
      "creatures": 9982,
      "fle": 9983,
      "ronic": 9984,
      "UR": 9985,
      "wait": 9986,
      "quantum": 9987,
      "cake": 9988,
      "Spr": 9989,
      "Electr": 9990,
      "Intern": 9991,
      "pollution": 9992,
      "mainly": 9993,
      "ictions": 9994,
      "ody": 9995,
      "cauldron": 9996,
      "neigh": 9997,
      "electronic": 9998,
      "toward": 9999,
      "modes": 10000,
      "plas": 10001,
      "ighter": 10002,
      "compounds": 10003,
      "anges": 10004,
      "inv": 10005,
      "ga": 10006,
      "ida": 10007,
      "Open": 10008,
      "sharing": 10009,
      "builds": 10010,
      "transl": 10011,
      "offee": 10012,
      "ilo": 10013,
      "Please": 10014,
      "rent": 10015,
      "logist": 10016,
      "injury": 10017,
      "routine": 10018,
      "interface": 10019,
      "Plant": 10020,
      "attached": 10021,
      "ba": 10022,
      "2023": 10023,
      "visually": 10024,
      "Unlike": 10025,
      "Dif": 10026,
      "itary": 10027,
      "obvious": 10028,
      "nice": 10029,
      "balanced": 10030,
      "refr": 10031,
      "cit": 10032,
      "consult": 10033,
      "pipe": 10034,
      "iture": 10035,
      "deb": 10036,
      "combining": 10037,
      "jun": 10038,
      "tri": 10039,
      "Next": 10040,
      "muscles": 10041,
      "Sal": 10042,
      "300": 10043,
      "bruary": 10044,
      "wit": 10045,
      "dropped": 10046,
      "variants": 10047,
      "pling": 10048,
      "planks": 10049,
      "farmers": 10050,
      "Bi": 10051,
      "strugg": 10052,
      "oce": 10053,
      "equival": 10054,
      "foundation": 10055,
      "mechanisms": 10056,
      "grid": 10057,
      "configuration": 10058,
      "forces": 10059,
      "arrows": 10060,
      "tick": 10061,
      "Energy": 10062,
      "harmful": 10063,
      "drugs": 10064,
      "cities": 10065,
      "Mus": 10066,
      "thread": 10067,
      "outdoor": 10068,
      "trail": 10069,
      "mixture": 10070,
      "February": 10071,
      "launcher": 10072,
      "Fools": 10073,
      "talking": 10074,
      "Publ": 10075,
      "Potion": 10076,
      "corresponding": 10077,
      "Care": 10078,
      "priorit": 10079,
      "hydrogen": 10080,
      "55": 10081,
      "ii": 10082,
      "ees": 10083,
      "pher": 10084,
      "Sum": 10085,
      "spect": 10086,
      "uting": 10087,
      "colored": 10088,
      "39": 10089,
      "aircraft": 10090,
      "saying": 10091,
      "stories": 10092,
      "chlor": 10093,
      "Rep": 10094,
      "showing": 10095,
      "occurring": 10096,
      "hes": 10097,
      "awareness": 10098,
      "printing": 10099,
      "gear": 10100,
      "Off": 10101,
      "office": 10102,
      "aesthetic": 10103,
      "surance": 10104,
      "rice": 10105,
      "golden": 10106,
      "zone": 10107,
      "yard": 10108,
      "flood": 10109,
      "looked": 10110,
      "App": 10111,
      "organizations": 10112,
      "wish": 10113,
      "unused": 10114,
      "automatically": 10115,
      "enabled": 10116,
      "banner": 10117,
      "bones": 10118,
      "stret": 10119,
      "thorough": 10120,
      "Island": 10121,
      "oral": 10122,
      "customize": 10123,
      "Microsoft": 10124,
      "icon": 10125,
      "assu": 10126,
      "cham": 10127,
      "Students": 10128,
      "feat": 10129,
      "Bir": 10130,
      "CE": 10131,
      "useum": 10132,
      "plicit": 10133,
      "absolute": 10134,
      "initi": 10135,
      "illa": 10136,
      "turns": 10137,
      "reporting": 10138,
      "moved": 10139,
      "findings": 10140,
      "cream": 10141,
      "flies": 10142,
      "availability": 10143,
      "flying": 10144,
      "Main": 10145,
      "pressing": 10146,
      "cing": 10147,
      "fts": 10148,
      "column": 10149,
      "Time": 10150,
      "spin": 10151,
      "register": 10152,
      "vessel": 10153,
      "defense": 10154,
      "adequ": 10155,
      "programming": 10156,
      "installed": 10157,
      "illness": 10158,
      "drink": 10159,
      "breast": 10160,
      "Bet": 10161,
      "facilit": 10162,
      "computers": 10163,
      "neuro": 10164,
      "ively": 10165,
      "consci": 10166,
      "estyle": 10167,
      "ran": 10168,
      "waters": 10169,
      "grant": 10170,
      "samples": 10171,
      "accoun": 10172,
      "Sou": 10173,
      "scan": 10174,
      "Pack": 10175,
      "arms": 10176,
      "journal": 10177,
      "choices": 10178,
      "accum": 10179,
      "kept": 10180,
      "monitor": 10181,
      "ashing": 10182,
      "unlock": 10183,
      "artz": 10184,
      "ansion": 10185,
      "improvements": 10186,
      "itors": 10187,
      "thousands": 10188,
      "screenshots": 10189,
      "extensive": 10190,
      "buildings": 10191,
      "International": 10192,
      "monitoring": 10193,
      "detection": 10194,
      "nucle": 10195,
      "stairs": 10196,
      "vs": 10197,
      "folder": 10198,
      "send": 10199,
      "proved": 10200,
      "Real": 10201,
      "asy": 10202,
      "perce": 10203,
      "worry": 10204,
      "performed": 10205,
      "express": 10206,
      "ching": 10207,
      "variant": 10208,
      "City": 10209,
      "agre": 10210,
      "intric": 10211,
      "views": 10212,
      "nic": 10213,
      "pure": 10214,
      "tested": 10215,
      "dream": 10216,
      "tropical": 10217,
      "Mc": 10218,
      "station": 10219,
      "answ": 10220,
      "biological": 10221,
      "measured": 10222,
      "plication": 10223,
      "Command": 10224,
      "frozen": 10225,
      "accuracy": 10226,
      "enzy": 10227,
      "Forest": 10228,
      "Fol": 10229,
      "induc": 10230,
      "manner": 10231,
      "'.": 10232,
      "continues": 10233,
      "treatments": 10234,
      "labe": 10235,
      "tab": 10236,
      "onal": 10237,
      "artificial": 10238,
      "react": 10239,
      "turning": 10240,
      "professionals": 10241,
      "Fire": 10242,
      "Sub": 10243,
      "consists": 10244,
      "eight": 10245,
      "otherwise": 10246,
      "Found": 10247,
      "batteries": 10248,
      "Learning": 10249,
      "define": 10250,
      "River": 10251,
      "killing": 10252,
      "extract": 10253,
      "releases": 10254,
      "joint": 10255,
      "removing": 10256,
      "floating": 10257,
      "Dire": 10258,
      "Home": 10259,
      "partners": 10260,
      "radiation": 10261,
      "minor": 10262,
      "antibiot": 10263,
      "bread": 10264,
      "beauty": 10265,
      "sters": 10266,
      "convers": 10267,
      "island": 10268,
      "Mex": 10269,
      "Gener": 10270,
      "ivil": 10271,
      "opin": 10272,
      "Vis": 10273,
      "editing": 10274,
      "compatible": 10275,
      "ambi": 10276,
      "vertical": 10277,
      "modified": 10278,
      "cript": 10279,
      "rod": 10280,
      "iter": 10281,
      "procedure": 10282,
      "Cap": 10283,
      "Spe": 10284,
      "seven": 10285,
      "seeking": 10286,
      "brewing": 10287,
      "themat": 10288,
      "berries": 10289,
      "diversity": 10290,
      "Adv": 10291,
      "urban": 10292,
      "Safe": 10293,
      "heads": 10294,
      "representation": 10295,
      "iped": 10296,
      "deeper": 10297,
      "contract": 10298,
      "destroyed": 10299,
      "Canada": 10300,
      "teen": 10301,
      "raise": 10302,
      "multiplayer": 10303,
      "compatibility": 10304,
      "tables": 10305,
      "Common": 10306,
      "vine": 10307,
      "fence": 10308,
      "AND": 10309,
      "handling": 10310,
      "pistons": 10311,
      "Organ": 10312,
      "Good": 10313,
      "reser": 10314,
      "concentration": 10315,
      "digest": 10316,
      "impacts": 10317,
      "traffic": 10318,
      "EP": 10319,
      "perhaps": 10320,
      "otic": 10321,
      "beans": 10322,
      "prices": 10323,
      "Engine": 10324,
      "cry": 10325,
      "estimated": 10326,
      "kitchen": 10327,
      "phenomen": 10328,
      "acade": 10329,
      "Associ": 10330,
      "cheese": 10331,
      "trim": 10332,
      "featured": 10333,
      "successfully": 10334,
      "domin": 10335,
      "VID": 10336,
      "unders": 10337,
      "icing": 10338,
      "incred": 10339,
      "holes": 10340,
      "linked": 10341,
      "Grow": 10342,
      "controls": 10343,
      "tour": 10344,
      "whose": 10345,
      "nation": 10346,
      "rays": 10347,
      "British": 10348,
      "Learn": 10349,
      "intelligence": 10350,
      "perman": 10351,
      "sight": 10352,
      "fear": 10353,
      "specify": 10354,
      "Eff": 10355,
      "kinds": 10356,
      "ek": 10357,
      "transparen": 10358,
      "Introduc": 10359,
      "channel": 10360,
      "dress": 10361,
      "White": 10362,
      "oceans": 10363,
      "generator": 10364,
      "skeleton": 10365,
      "shift": 10366,
      "velocity": 10367,
      "Life": 10368,
      "umps": 10369,
      "istration": 10370,
      "44": 10371,
      "audience": 10372,
      "pand": 10373,
      "ado": 10374,
      "breath": 10375,
      "cultiv": 10376,
      "parameters": 10377,
      "gir": 10378,
      "occup": 10379,
      "articles": 10380,
      "indicates": 10381,
      "CS": 10382,
      "truly": 10383,
      "logists": 10384,
      "Color": 10385,
      "dating": 10386,
      "virtual": 10387,
      "Fl": 10388,
      "UN": 10389,
      "inder": 10390,
      "polar": 10391,
      "bath": 10392,
      "neck": 10393,
      "Ta": 10394,
      "tum": 10395,
      "Thus": 10396,
      "phosp": 10397,
      "Chin": 10398,
      "shield": 10399,
      "lime": 10400,
      "Fort": 10401,
      "bass": 10402,
      "immun": 10403,
      "majority": 10404,
      "manufacturing": 10405,
      "false": 10406,
      "rights": 10407,
      "join": 10408,
      "seek": 10409,
      "letter": 10410,
      "chat": 10411,
      "inspired": 10412,
      "equivalent": 10413,
      "tension": 10414,
      "careful": 10415,
      "failure": 10416,
      "healing": 10417,
      "intro": 10418,
      "preventing": 10419,
      "arrange": 10420,
      "datab": 10421,
      "JS": 10422,
      "complexity": 10423,
      "photos": 10424,
      "shelter": 10425,
      "slowly": 10426,
      "combine": 10427,
      "periods": 10428,
      "subs": 10429,
      "spirit": 10430,
      "coll": 10431,
      "statement": 10432,
      "phones": 10433,
      "berry": 10434,
      "math": 10435,
      "hus": 10436,
      "convent": 10437,
      "emo": 10438,
      "finish": 10439,
      "mph": 10440,
      "animation": 10441,
      "edges": 10442,
      "drinking": 10443,
      "town": 10444,
      "definitely": 10445,
      "jud": 10446,
      "Post": 10447,
      "ander": 10448,
      "falls": 10449,
      "pull": 10450,
      "motiv": 10451,
      "tube": 10452,
      "keys": 10453,
      "stands": 10454,
      "clinical": 10455,
      "85": 10456,
      "clust": 10457,
      "stained": 10458,
      "organized": 10459,
      "amazing": 10460,
      "FA": 10461,
      "inks": 10462,
      "lder": 10463,
      "Fish": 10464,
      "Sch": 10465,
      "selecting": 10466,
      "icky": 10467,
      "windows": 10468,
      "Sea": 10469,
      "planted": 10470,
      "vulner": 10471,
      "toler": 10472,
      "applying": 10473,
      "photography": 10474,
      "belong": 10475,
      "biology": 10476,
      "icts": 10477,
      "fs": 10478,
      "discovery": 10479,
      "vitamin": 10480,
      "ament": 10481,
      "fiber": 10482,
      "Dragon": 10483,
      "loved": 10484,
      "Hard": 10485,
      "clothing": 10486,
      "Flor": 10487,
      "marks": 10488,
      "Look": 10489,
      "fan": 10490,
      "Moun": 10491,
      "stom": 10492,
      "molecular": 10493,
      "IL": 10494,
      "Mid": 10495,
      "agree": 10496,
      "Op": 10497,
      "plenty": 10498,
      "potatoes": 10499,
      "gathering": 10500,
      "cil": 10501,
      "scenario": 10502,
      "generates": 10503,
      "loaded": 10504,
      "King": 10505,
      "eras": 10506,
[...]
