{
  "version": "1.0",
  "truncation": null,
  "padding": null,
  "added_tokens": [
    {
      "id": 0,
      "content": "<PAD>",
      "single_word": false,
      "lstrip": false,
      "rstrip": false,
      "normalized": false,
      "special": true
    },
    {
      "id": 1,
      "content": "<UNK>",
      "single_word": false,
      "lstrip": false,
      "rstrip": false,
      "normalized": false,
      "special": true
    },
    {
      "id": 2,
      "content": "<BOS>",
      "single_word": false,
      "lstrip": false,
      "rstrip": false,
      "normalized": false,
      "special": true
    },
    {
      "id": 3,
      "content": "<EOS>",
      "single_word": false,
      "lstrip": false,
      "rstrip": false,
      "normalized": false,
      "special": true
    }
  ],
  "normalizer": null,
  "pre_tokenizer": {
    "type": "ByteLevel",
    "add_prefix_space": true,
    "trim_offsets": true,
    "use_regex": true
  },
  "post_processor": null,
  "decoder": null,
  "model": {
    "type": "BPE",
    "dropout": null,
    "unk_token": null,
    "continuing_subword_prefix": null,
    "end_of_word_suffix": null,
    "fuse_unk": false,
    "byte_fallback": false,
    "ignore_merges": false,
    "vocab": {
      "<PAD>": 0,
      "<UNK>": 1,
      "<BOS>": 2,
      "<EOS>": 3,
      "!": 4,
      "\"": 5,
      "#": 6,
      "$": 7,
      "%": 8,
      "&": 9,
      "'": 10,
      "(": 11,
      ")": 12,
      "*": 13,
      "+": 14,
      ",": 15,
      "-": 16,
      ".": 17,
      "/": 18,
      "0": 19,
      "1": 20,
      "2": 21,
      "3": 22,
      "4": 23,
      "5": 24,
      "6": 25,
      "7": 26,
      "8": 27,
      "9": 28,
      ":": 29,
      ";": 30,
      "<": 31,
      "=": 32,
      ">": 33,
      "?": 34,
      "@": 35,
      "A": 36,
      "B": 37,
      "C": 38,
      "D": 39,
      "E": 40,
      "F": 41,
      "G": 42,
      "H": 43,
      "I": 44,
      "J": 45,
      "K": 46,
      "L": 47,
      "M": 48,
      "N": 49,
      "O": 50,
      "P": 51,
      "Q": 52,
      "R": 53,
      "S": 54,
      "T": 55,
      "U": 56,
      "V": 57,
      "W": 58,
      "X": 59,
      "Y": 60,
      "Z": 61,
      "[": 62,
      "\\": 63,
      "]": 64,
      "^": 65,
      "_": 66,
      "`": 67,
      "a": 68,
      "b": 69,
      "c": 70,
      "d": 71,
      "e": 72,
      "f": 73,
      "g": 74,
      "h": 75,
      "i": 76,
      "j": 77,
      "k": 78,
      "l": 79,
      "m": 80,
      "n": 81,
      "o": 82,
      "p": 83,
      "q": 84,
      "r": 85,
      "s": 86,
      "t": 87,
      "u": 88,
      "v": 89,
      "w": 90,
      "x": 91,
      "y": 92,
      "z": 93,
      "{": 94,
      "|": 95,
      "}": 96,
      "~": 97,
      "¡": 98,
      "¢": 99,
      "£": 100,
      "¤": 101,
      "¥": 102,
      "¦": 103,
      "§": 104,
      "¨": 105,
      "©": 106,
      "ª": 107,
      "«": 108,
      "¬": 109,
      "®": 110,
      "¯": 111,
      "°": 112,
      "±": 113,
      "²": 114,
      "³": 115,
      "´": 116,
      "µ": 117,
      "¶": 118,
      "·": 119,
      "¸": 120,
      "¹": 121,
      "º": 122,
      "»": 123,
      "¼": 124,
      "½": 125,
      "¾": 126,
      "¿": 127,
      "Â": 128,
      "Ã": 129,
      "Ä": 130,
      "Å": 131,
      "Æ": 132,
      "Ç": 133,
      "È": 134,
      "É": 135,
      "Ê": 136,
      "Ë": 137,
      "Ì": 138,
      "Í": 139,
      "Î": 140,
      "Ï": 141,
      "Ð": 142,
      "Ñ": 143,
      "Ò": 144,
      "Ó": 145,
      "Ô": 146,
      "Õ": 147,
      "Ö": 148,
      "×": 149,
      "Ø": 150,
      "Ù": 151,
      "Ú": 152,
      "Û": 153,
      "Ü": 154,
      "Ý": 155,
      "Þ": 156,
      "ß": 157,
      "à": 158,
      "á": 159,
      "â": 160,
      "ã": 161,
      "ä": 162,
      "å": 163,
      "æ": 164,
      "ç": 165,
      "è": 166,
      "é": 167,
      "ê": 168,
      "ë": 169,
      "ì": 170,
      "í": 171,
      "î": 172,
      "ï": 173,
      "ð": 174,
      "ñ": 175,
      "ó": 176,
      "ô": 177,
      "Ĉ": 178,
      "ĉ": 179,
      "Ċ": 180,
      "Č": 181,
      "č": 182,
      "Ġ": 183,
      "Ģ": 184,
      "ģ": 185,
      "Ĥ": 186,
      "ĥ": 187,
      "Ħ": 188,
      "ħ": 189,
      "Ĩ": 190,
      "ĩ": 191,
      "Ī": 192,
      "ī": 193,
      "Ĭ": 194,
      "ĭ": 195,
      "Į": 196,
      "į": 197,
      "İ": 198,
      "ı": 199,
      "Ĳ": 200,
      "ĳ": 201,
      "Ĵ": 202,
      "ĵ": 203,
      "Ķ": 204,
      "ķ": 205,
      "ĸ": 206,
      "Ĺ": 207,
      "ĺ": 208,
      "Ļ": 209,
      "ļ": 210,
      "Ľ": 211,
      "ľ": 212,
      "Ŀ": 213,
      "ŀ": 214,
      "Ł": 215,
      "ł": 216,
      "Ń": 217,
      "Ġt": 218,
      "Ġa": 219,
      "in": 220,
      "he": 221,
      "re": 222,
      "on": 223,
      "Ġthe": 224,
      "er": 225,
      "Ġs": 226,
      "at": 227,
      "Ġc": 228,
      "Ġo": 229,
      "čĊ": 230,
      "es": 231,
      "en": 232,
      "Ġw": 233,
      "nd": 234,
      "it": 235,
      "ing": 236,
      "is": 237,
      "Ġp": 238,
      "Ġb": 239,
      "or": 240,
      "Ġf": 241,
      "ou": 242,
      "al": 243,
      "an": 244,
      "Ġm": 245,
      "ed": 246,
      "Ġto": 247,
      "Ġof": 248,
      "Ġin": 249,
      "ar": 250,
      "Ġand": 251,
      "Ġd": 252,
      "ion": 253,
      "ic": 254,
      "le": 255,
      "ro": 256,
      "as": 257,
      "Ġth": 258,
      "Ġh": 259,
      "ct": 260,
      "Ġe": 261,
      "ent": 262,
      "Ġl": 263,
      "ve": 264,
      "il": 265,
      "Ġre": 266,
      "om": 267,
      "ĠT": 268,
      "us": 269,
      "Ġis": 270,
      "Ġn": 271,
      "Ġy": 272,
      "et": 273,
      "ĠčĊ": 274,
      "ly": 275,
      "Ġg": 276,
      "Ġyou": 277,
      "ĠA": 278,
      "ow": 279,
      "Ġbe": 280,
      "ĠI": 281,
      "ut": 282,
      "ot": 283,
      "im": 284,
      "id": 285,
      "st": 286,
      "ol": 287,
      "ce": 288,
      "ig": 289,
      "Ġfor": 290,
      "ra": 291,
      "ch": 292,
      "ur": 293,
      "ation": 294,
      "Ġon": 295,
      "Ġst": 296,
      "Ġthat": 297,
      "ir": 298,
      "ĠS": 299,
      "el": 300,
      "ver": 301,
      "Ġit": 302,
      "Ġare": 303,
      "ul": 304,
      "ĠThe": 305,
      "ay": 306,
      "ith": 307,
      "Ġpro": 308,
      "ĠC": 309,
      "se": 310,
      "if": 311,
      "Ġan": 312,
      "Ġwith": 313,
      "am": 314,
      "ĠW": 315,
      "Ġcon": 316,
      "Ġor": 317,
      "Ġas": 318,
      "est": 319,
      "Ġal": 320,
      "od": 321,
      "her": 322,
      "ad": 323,
      "ter": 324,
      "un": 325,
      "ke": 326,
      "Ġcan": 327,
      "Ġwh": 328,
      "ge": 329,
      "ure": 330,
      "ess": 331,
      "Ġha": 332,
      "ate": 333,
      "Ġcom": 334,
      "ill": 335,
      "um": 336,
      "Ġex": 337,
      "ab": 338,
      "ĠP": 339,
      "Ġhe": 340,
      "ant": 341,
      "ers": 342,
      "pe": 343,
      "ore": 344,
      "ĠM": 345,
      "ĠB": 346,
      "qu": 347,
      "igh": 348,
      "ive": 349,
      "th": 350,
      "'s": 351,
      "Ġus": 352,
      "em": 353,
      "Ġv": 354,
      "Ġyour": 355,
      "ies": 356,
      "ment": 357,
      "Ġwe": 358,
      "op": 359,
      "ity": 360,
      "ac": 361,
      "Ġ(": 362,
      "os": 363,
      "ain": 364,
      "ist": 365,
      "Ġde": 366,
      "ĠH": 367,
      "ld": 368,
      "rom": 369,
      "ĠD": 370,
      "ect": 371,
      "Ġne": 372,
      "ĠF": 373,
      "pp": 374,
      "Ġch": 375,
      "Ġen": 376,
      "Ġr": 377,
      "Ġsu": 378,
      "Ġse": 379,
      "Ġat": 380,
      "Ġ1": 381,
      "Ġsh": 382,
      "ial": 383,
      "Ġhave": 384,
      "Ġfrom": 385,
      "iv": 386,
      "ort": 387,
      "Ġle": 388,
      "ight": 389,
      "Ġdo": 390,
      "ĠE": 391,
      "Ġby": 392,
      "nt": 393,
      "res": 394,
      "Ġpl": 395,
      "Ġnot": 396,
      "ĠR": 397,
      "oc": 398,
      "art": 399,
      "per": 400,
      "ud": 401,
      "and": 402,
      "ust": 403,
      "all": 404,
      "Ġthis": 405,
      "ical": 406,
      "ome": 407,
      "Ġ2": 408,
      "ri": 409,
      "ide": 410,
      "Ġab": 411,
      "ĠN": 412,
      "Ġu": 413,
      "rou": 414,
      "ould": 415,
      "ine": 416,
      "ĠL": 417,
      "pt": 418,
      "out": 419,
      "act": 420,
      "Ġim": 421,
      "ns": 422,
      "og": 423,
      "Ġma": 424,
      "ost": 425,
      "ard": 426,
      "ell": 427,
      "ions": 428,
      "ĠO": 429,
      "du": 430,
      "ĠWh": 431,
      "Ġwhe": 432,
      "âĢ": 433,
      "Ġcomp": 434,
      "red": 435,
      "ich": 436,
      "Ġwill": 437,
      "Ġwor": 438,
      "ff": 439,
      "ast": 440,
      "Ġk": 441,
      "Ġint": 442,
      "gh": 443,
      "ĠTh": 444,
      "Ġthey": 445,
      "our": 446,
      "Ġtheir": 447,
      "ĠG": 448,
      "ther": 449,
      "ood": 450,
      "iz": 451,
      "age": 452,
      "king": 453,
      "Ġad": 454,
      "pl": 455,
      "ater": 456,
      "Ġall": 457,
      "Ġwas": 458,
      "ĠIn": 459,
      "Ġ\"": 460,
      "ated": 461,
      "ag": 462,
      "able": 463,
      "Ġmore": 464,
      "end": 465,
      "Ġcont": 466,
      "ere": 467,
      "Ġbut": 468,
      "ult": 469,
      "ally": 470,
      "ib": 471,
      "Ġso": 472,
      "ans": 473,
      "oo": 474,
      "ks": 475,
      "ĠQ": 476,
      "Ġinc": 477,
      "ip": 478,
      "ous": 479,
      "ru": 480,
      "Ġme": 481,
      "wer": 482,
      "so": 483,
      "00": 484,
      "ind": 485,
      "Ġte": 486,
      "ep": 487,
      "Ġj": 488,
      "Ġres": 489,
      "ry": 490,
      "Ġcl": 491,
      "cc": 492,
      "ike": 493,
      "estion": 494,
      "ong": 495,
      "ance": 496,
      "orm": 497,
      "are": 498,
      "ĠQu": 499,
      "Ġdis": 500,
      "Ġwhich": 501,
      "Ġhas": 502,
      "ĠU": 503,
      "Ġout": 504,
      "ĠIt": 505,
      "vel": 506,
      "Ġsp": 507,
      "ations": 508,
      "Ġun": 509,
      "Ġimp": 510,
      "ear": 511,
      "Ġother": 512,
      "ie": 513,
      "ĠAns": 514,
      "Ġalso": 515,
      "ĠAnswer": 516,
      "one": 517,
      "Ġman": 518,
      "av": 519,
      "ents": 520,
      "'t": 521,
      "ĠQuestion": 522,
      "Ġone": 523,
      "Ġspe": 524,
      "Ġtim": 525,
      "ction": 526,
      "aus": 527,
      "reat": 528,
      "ens": 529,
      "ign": 530,
      "ĠThis": 531,
      "very": 532,
      "ence": 533,
      "ĠWhat": 534,
      "ace": 535,
      "ice": 536,
      "ĠY": 537,
      "..": 538,
      "ach": 539,
      "ap": 540,
      "Ġfe": 541,
      "ass": 542,
      "ase": 543,
      "ition": 544,
      "Ġthem": 545,
      "Ġper": 546,
      "Ġabout": 547,
      "ack": 548,
      "low": 549,
      "ors": 550,
      "ary": 551,
      "Ġlike": 552,
      "Ġup": 553,
      "ress": 554,
      "Ġpre": 555,
      "Ġsc": 556,
      "Ġro": 557,
      "iff": 558,
      "Ġqu": 559,
      "Ġwhen": 560,
      "Ġsome": 561,
      "ire": 562,
      "Ġev": 563,
      "now": 564,
      "ue": 565,
      "ile": 566,
      "ild": 567,
      "Ġsy": 568,
      "Ġif": 569,
      "ia": 570,
      "ite": 571,
      "ound": 572,
      "Ġpart": 573,
      "Ġneed": 574,
      "ces": 575,
      "ose": 576,
      "Ġdiff": 577,
      "Ġinto": 578,
      "Ġcol": 579,
      "Ġuse": 580,
      "Ġmay": 581,
      "Ġapp": 582,
      "Ġtime": 583,
      "Ġhow": 584,
      "ak": 585,
      "ĠâĢ": 586,
      "form": 587,
      "ric": 588,
      "ame": 589,
      "Ġ3": 590,
      "Ġthan": 591,
      "ll": 592,
      "Ġthere": 593,
      "ber": 594,
      "ays": 595,
      "Ġits": 596,
      "ail": 597,
      "row": 598,
      "Ġhel": 599,
      "Ġar": 600,
      "Ġbec": 601,
      "ĠSt": 602,
      "Ġany": 603,
      "Ġtra": 604,
      "lect": 605,
      "ings": 606,
      "Ġpe": 607,
      "ree": 608,
      "Ġrec": 609,
      "Ġover": 610,
      "Ġbl": 611,
      "ause": 612,
      "Ġcomm": 613,
      "ific": 614,
      "Ġhelp": 615,
      "ĠJ": 616,
      "Ġbet": 617,
      "als": 618,
      "ating": 619,
      "Ġspec": 620,
      "cess": 621,
      "Ġcons": 622,
      "Ġthese": 623,
      "Ġknow": 624,
      "ang": 625,
      "nder": 626,
      "Ġgo": 627,
      "ove": 628,
      "ord": 629,
      "les": 630,
      "ish": 631,
      "ough": 632,
      "Ġ-": 633,
      "ond": 634,
      "Ġget": 635,
      "int": 636,
      "Ġdes": 637,
      "olog": 638,
      "Ġtr": 639,
      "ake": 640,
      "we": 641,
      "Ġstud": 642,
      "Ġsa": 643,
      "Ġwater": 644,
      "Ġind": 645,
      "stem": 646,
      "ons": 647,
      "rough": 648,
      "Ġused": 649,
      "ph": 650,
      "Ġprodu": 651,
      "Ġwhat": 652,
      "ount": 653,
      "Ġeff": 654,
      "Ġco": 655,
      "Ġour": 656,
      "ub": 657,
      "Ġra": 658,
      "ory": 659,
      "ature": 660,
      "ms": 661,
      "Ġfl": 662,
      "ular": 663,
      "Ġdiffere": 664,
      "Ġgen": 665,
      "ari": 666,
      "Ġph": 667,
      "te": 668,
      "ĠHow": 669,
      "ĠIf": 670,
      "Ġmost": 671,
      "Ġyear": 672,
      "ys": 673,
      "Ġoff": 674,
      "round": 675,
      "ning": 676,
      "lud": 677,
      "ook": 678,
      "alth": 679,
      "Ġact": 680,
      "ople": 681,
      "ting": 682,
      "ĠK": 683,
      "Ġacc": 684,
      "Ġsuch": 685,
      "Ġwho": 686,
      "Ġprov": 687,
      "vers": 688,
      "Ġam": 689,
      "erv": 690,
      "ick": 691,
      "Ġunder": 692,
      "ck": 693,
      "Ġmake": 694,
      "ĠV": 695,
      "eth": 696,
      "Ġwere": 697,
      "Ġ20": 698,
      "ne": 699,
      "ient": 700,
      "ple": 701,
      "Ġadd": 702,
      "Ġag": 703,
      "Ġnew": 704,
      "Ġshould": 705,
      "Ġsm": 706,
      "ates": 707,
      "Ġtw": 708,
      "xt": 709,
      "Ġem": 710,
      "ility": 711,
      "Ġbeen": 712,
      "ject": 713,
      "ful": 714,
      "Ġcar": 715,
      "Ġwould": 716,
      "oth": 717,
      "Ġpeople": 718,
      "uring": 719,
      "irst": 720,
      "ange": 721,
      ").": 722,
      "erg": 723,
      "Ġinclud": 724,
      "Ġsystem": 725,
      "Ġthrough": 726,
      "ments": 727,
      "Ġwork": 728,
      "oss": 729,
      "Ġjust": 730,
      "Ġdi": 731,
      "Ġty": 732,
      "Ġpr": 733,
      "Ġno": 734,
      "hes": 735,
      "Ġonly": 736,
      "ble": 737,
      "ower": 738,
      "ov": 739,
      "ics": 740,
      "Ġpo": 741,
      "ative": 742,
      "Ġplant": 743,
      "ities": 744,
      "ise": 745,
      "its": 746,
      "ced": 747,
      "Ġinter": 748,
      "Ġke": 749,
      "ĠCh": 750,
      "Ġsur": 751,
      "ten": 752,
      "ark": 753,
      "Ġmany": 754,
      "Ġhigh": 755,
      "ob": 756,
      "ĠYou": 757,
      "Ġreg": 758,
      "Ġrel": 759,
      "Ġwell": 760,
      "Ġ4": 761,
      "Ġmy": 762,
      "ible": 763,
      "velop": 764,
      "ual": 765,
      "hen": 766,
      "own": 767,
      "Ġbu": 768,
      "Ġhealth": 769,
      "Ġtwo": 770,
      "Ġdoes": 771,
      "old": 772,
      "fore": 773,
      "Ġdifferent": 774,
      "chn": 775,
      "ract": 776,
      "Ġac": 777,
      "tain": 778,
      "Ġwhere": 779,
      "fter": 780,
      "Ġrem": 781,
      "Ġfirst": 782,
      "lic": 783,
      "Ġexper": 784,
      "ink": 785,
      "ience": 786,
      "ren": 787,
      "ĠAs": 788,
      "ween": 789,
      "Ġmod": 790,
      "Ġ5": 791,
      "ram": 792,
      "ased": 793,
      "ft": 794,
      "Ġtrans": 795,
      "Ġlong": 796,
      "Ġche": 797,
      "hed": 798,
      "Ġimport": 799,
      "Ġob": 800,
      "Ġdevelop": 801,
      "Ġrep": 802,
      "Ġway": 803,
      "get": 804,
      "Ġbetween": 805,
      "Ġsupp": 806,
      "Ġprocess": 807,
      "cy": 808,
      "uch": 809,
      "Ġsim": 810,
      "ize": 811,
      "ĠThey": 812,
      "ife": 813,
      "Ġvari": 814,
      "Ġpat": 815,
      "ade": 816,
      "Ġthen": 817,
      "Ġdec": 818,
      "arm": 819,
      "Ġusing": 820,
      "ually": 821,
      "rit": 822,
      "Ġcould": 823,
      "erm": 824,
      "ential": 825,
      "ĠWe": 826,
      "Ġdet": 827,
      "Ġinst": 828,
      "ĠRe": 829,
      "Ġinv": 830,
      "Ġbecause": 831,
      "Ġass": 832,
      "Ġfood": 833,
      "Ġeven": 834,
      "Ġinf": 835,
      "Ġevery": 836,
      "rib": 837,
      "ts": 838,
      "Ġcre": 839,
      "Ġgrow": 840,
      "Ġatt": 841,
      "ious": 842,
      "iron": 843,
      "iss": 844,
      "wn": 845,
      "Ġform": 846,
      "ically": 847,
      "Ġeffect": 848,
      "Ġmain": 849,
      "Ġtechn": 850,
      "Ġvery": 851,
      "ever": 852,
      "Ġsub": 853,
      "Ġsee": 854,
      "ily": 855,
      "gan": 856,
      "ps": 857,
      "pect": 858,
      "'re": 859,
      "iqu": 860,
      "ef": 861,
      "ines": 862,
      "ural": 863,
      "ution": 864,
      "arch": 865,
      "ĠâĢĵ": 866,
      "Ġrequ": 867,
      "Ġsign": 868,
      "ins": 869,
      "Ġlear": 870,
      "Ġext": 871,
      "Ġeach": 872,
      "Ġsk": 873,
      "ool": 874,
      "Ġnum": 875,
      "Ġmuch": 876,
      "Ġlar": 877,
      "ures": 878,
      "ĠFor": 879,
      "Ġrese": 880,
      "Ġhum": 881,
      "ĠAn": 882,
      "Ġexp": 883,
      "Ġins": 884,
      "gg": 885,
      "Ġlight": 886,
      "Ġback": 887,
      "Ġgener": 888,
      "ology": 889,
      "ness": 890,
      "mer": 891,
      "Ġgood": 892,
      "Ġimportant": 893,
      "ody": 894,
      "Ġdon": 895,
      "vent": 896,
      "Ġexam": 897,
      "Ġgra": 898,
      "Ġset": 899,
      "Ġwant": 900,
      "ian": 901,
      "Ġhad": 902,
      "Ġfol": 903,
      "cial": 904,
      "Ġyears": 905,
      "ron": 906,
      "Ġmin": 907,
      "Ġsol": 908,
      "Ġdisc": 909,
      "ata": 910,
      "ergy": 911,
      "Ġchild": 912,
      "Ġfun": 913,
      "Ġfind": 914,
      "Ġ19": 915,
      "Ġincre": 916,
      "Ġpers": 917,
      "viron": 918,
      "oy": 919,
      "ruct": 920,
      "ĠUn": 921,
      "Ġsmall": 922,
      "ĠPro": 923,
      "uc": 924,
      "elf": 925,
      "Ġwhile": 926,
      "stand": 927,
      "Ġav": 928,
      "Ġhis": 929,
      "Ġafter": 930,
      "Ġcle": 931,
      "Ġve": 932,
      "Ġear": 933,
      "ety": 934,
      "Ġpres": 935,
      "),": 936,
      "Ġelect": 937,
      "Ġstart": 938,
      "Ġloc": 939,
      "Ġmed": 940,
      "ues": 941,
      "ĠAl": 942,
      "Ġdog": 943,
      "ĠThere": 944,
      "Ġresult": 945,
      "Ġtake": 946,
      "ality": 947,
      "ied": 948,
      "Ġgl": 949,
      "ational": 950,
      "Ġair": 951,
      "Ġfound": 952,
      "Ġdesign": 953,
      "other": 954,
      "Ġref": 955,
      "Ġcur": 956,
      "Ġbeing": 957,
      "ĠTo": 958,
      "ix": 959,
      "...": 960,
      "Ġsec": 961,
      "ĠWhen": 962,
      "Ġworld": 963,
      "Ġart": 964,
      "urn": 965,
      "ices": 966,
      "ists": 967,
      "Ġcell": 968,
      "Ġlevel": 969,
      "ds": 970,
      "Ġval": 971,
      "Ġ6": 972,
      "nce": 973,
      "ros": 974,
      "Ġfact": 975,
      "Ġfollow": 976,
      "ases": 977,
      "Ġher": 978,
      "Ġeas": 979,
      "tle": 980,
      "Ġ201": 981,
      "Ġbefore": 982,
      "Ġduring": 983,
      "cept": 984,
      "Ġcor": 985,
      "Ġaround": 986,
      "Ġcall": 987,
      "Ġcomple": 988,
      "ĠHe": 989,
      "Ġpot": 990,
      "Ġbre": 991,
      "Ġhand": 992,
      "Ġinform": 993,
      "aterial": 994,
      "Ġdep": 995,
      "vironment": 996,
      "ock": 997,
      "Ġdist": 998,
      "Ġsame": 999,
      "Ġbr": 1000,
      "ages": 1001,
      "Ġshe": 1002,
      "Ġprog": 1003,
      "Ġallow": 1004,
      "Ġdown": 1005,
      "Ġproble": 1006,
      "Ġtem": 1007,
      "ives": 1008,
      "ider": 1009,
      "Ġown": 1010,
      "Ġstr": 1011,
      "ized": 1012,
      "ward": 1013,
      "Ġmon": 1014,
      "Ġbo": 1015,
      "Ġpartic": 1016,
      "dition": 1017,
      "Ġthose": 1018,
      "els": 1019,
      "Ġexpl": 1020,
      "Ġredu": 1021,
      "ection": 1022,
      "omm": 1023,
      "Ġtyp": 1024,
      "Ġent": 1025,
      "air": 1026,
      "cer": 1027,
      "Ġlife": 1028,
      "Ġenergy": 1029,
      "chool": 1030,
      "cl": 1031,
      "tern": 1032,
      "Ġlead": 1033,
      "Ġcontro": 1034,
      "Ġboth": 1035,
      "Ġoften": 1036,
      "Ġanim": 1037,
      "Ġaut": 1038,
      "Ġshow": 1039,
      "--": 1040,
      ".\"": 1041,
      "Ġright": 1042,
      "Ġkeep": 1043,
      "ĠThese": 1044,
      "aw": 1045,
      "ather": 1046,
      "Ġpower": 1047,
      "ets": 1048,
      "Ġbest": 1049,
      "Ġ'": 1050,
      "Ġdata": 1051,
      "ath": 1052,
      "ident": 1053,
      "Ġread": 1054,
      "ger": 1055,
      "ale": 1056,
      "Ġmaterial": 1057,
      "ew": 1058,
      "Ġopt": 1059,
      "io": 1060,
      "Ġtoo": 1061,
      "ĠBe": 1062,
      "Ġgu": 1063,
      "Ġvis": 1064,
      "Ġmade": 1065,
      "ides": 1066,
      "Ġchar": 1067,
      "Ġed": 1068,
      "Ġbody": 1069,
      "iew": 1070,
      "ĠSo": 1071,
      "ien": 1072,
      "ty": 1073,
      "ium": 1074,
      "atter": 1075,
      "ĠBut": 1076,
      "Ġless": 1077,
      "Ġsom": 1078,
      "rop": 1079,
      "Ġperson": 1080,
      "Ġcommon": 1081,
      "Ġdr": 1082,
      "Ġpop": 1083,
      "Ġend": 1084,
      "read": 1085,
      "Ġproduct": 1086,
      "Ġprot": 1087,
      "Ġcare": 1088,
      "ats": 1089,
      "ving": 1090,
      "ĠCon": 1091,
      "ted": 1092,
      "Ġposs": 1093,
      "Ġtest": 1094,
      "Ġplay": 1095,
      "ĠAnd": 1096,
      "Ġ10": 1097,
      "ull": 1098,
      "ars": 1099,
      "reen": 1100,
      "iel": 1101,
      "iving": 1102,
      "Ġenvironment": 1103,
      "rain": 1104,
      "Ġeng": 1105,
      "Ġadv": 1106,
      "ional": 1107,
      "Ġmet": 1108,
      "Ġunderstand": 1109,
      "ĠAd": 1110,
      "imate": 1111,
      "Ġdef": 1112,
      "ier": 1113,
      "Ġday": 1114,
      "aking": 1115,
      "eng": 1116,
      "Ġpoint": 1117,
      "ited": 1118,
      "Ġinformation": 1119,
      "ave": 1120,
      "Ġresp": 1121,
      "Ġhome": 1122,
      "acter": 1123,
      "Ġsaid": 1124,
      "Ġcommun": 1125,
      "ute": 1126,
      "Ġlit": 1127,
      "rent": 1128,
      "Ġequ": 1129,
      "ĠEn": 1130,
      "Ġspecies": 1131,
      "cing": 1132,
      "Ġmeth": 1133,
      "Ġtreat": 1134,
      "ivers": 1135,
      "ason": 1136,
      "Ġorgan": 1137,
      "Ġproper": 1138,
      "led": 1139,
      "up": 1140,
      "Ġnumber": 1141,
      "ves": 1142,
      "ivid": 1143,
      "ved": 1144,
      "cent": 1145,
      "ict": 1146,
      "ĠSe": 1147,
      "Ġsaf": 1148,
      "perature": 1149,
      "Ġens": 1150,
      "der": 1151,
      "Ġnow": 1152,
      "ven": 1153,
      "oci": 1154,
      "Ġben": 1155,
      "Ġmight": 1156,
      "ands": 1157,
      "ids": 1158,
      "Ġ7": 1159,
      "Ġplan": 1160,
      "Ġprovide": 1161,
      "Ġlook": 1162,
      "Ġpol": 1163,
      ",\"": 1164,
      "any": 1165,
      "Ġstudy": 1166,
      "Ġserv": 1167,
      "Ġdire": 1168,
      "Ġap": 1169,
      "ork": 1170,
      "Ġaw": 1171,
      "Ġfam": 1172,
      "Ġclass": 1173,
      "ash": 1174,
      "Ġbetter": 1175,
      "Ġcent": 1176,
      "Ġsupport": 1177,
      "bs": 1178,
      "ĠHowever": 1179,
      "Ġresearch": 1180,
      "Ġimpro": 1181,
      "ining": 1182,
      "Ġdid": 1183,
      "Ġ8": 1184,
      "Ġgreat": 1185,
      "Ġwithout": 1186,
      "Ġpur": 1187,
      "hip": 1188,
      "Ġmethod": 1189,
      "ired": 1190,
      "itions": 1191,
      "Ġop": 1192,
      "Ġtemperature": 1193,
      "Ġbeh": 1194,
      "Ġstill": 1195,
      "und": 1196,
      "Ġaff": 1197,
      "ots": 1198,
      "inal": 1199,
      "ways": 1200,
      "Ġdise": 1201,
      "Ġactiv": 1202,
      "Ġstudents": 1203,
      "Ġplants": 1204,
      "ants": 1205,
      "Ġlarge": 1206,
      "kes": 1207,
      "less": 1208,
      "Ġprof": 1209,
      "__": 1210,
      "ined": 1211,
      "ince": 1212,
      "itive": 1213,
      "ulation": 1214,
      "ĠSc": 1215,
      "Ġexample": 1216,
      "Ġcreat": 1217,
      "Ġincluding": 1218,
      "Ġchange": 1219,
      "000": 1220,
      "Ġpos": 1221,
      "ering": 1222,
      "Ġhy": 1223,
      "âĢĻ": 1224,
      "Ġgrou": 1225,
      "Ġmem": 1226,
      "Ġmaking": 1227,
      "Ġris": 1228,
      "atch": 1229,
      "ability": 1230,
      "day": 1231,
      "Ġflow": 1232,
      "Ġnat": 1233,
      "20": 1234,
      "Ġthink": 1235,
      "Ġbuild": 1236,
      "Ġiss": 1237,
      "ert": 1238,
      "Ġcontrol": 1239,
      "Ġtop": 1240,
      "Ġocc": 1241,
      "Ġtext": 1242,
      "ĠEx": 1243,
      "here": 1244,
      "Ġpain": 1245,
      "ention": 1246,
      "Ġfew": 1247,
      "ism": 1248,
      "Ġtype": 1249,
      "oms": 1250,
      "Ġagain": 1251,
      "Ġide": 1252,
      "ĠIs": 1253,
      "ior": 1254,
      "Ġbenef": 1255,
      "Ġchang": 1256,
      "ross": 1257,
      "Ġhapp": 1258,
      "Ġknown": 1259,
      "Ġ0": 1260,
      "Ġser": 1261,
      "Ġcreate": 1262,
      "Ġcontain": 1263,
      "Ġperform": 1264,
      "Ġsl": 1265,
      "Ġey": 1266,
      "Ġpract": 1267,
      "ared": 1268,
      "Ġhuman": 1269,
      "Ġcaus": 1270,
      "con": 1271,
      "line": 1272,
      "ĠPl": 1273,
      "Ġthree": 1274,
      "Ġsw": 1275,
      "ouse": 1276,
      "hers": 1277,
      "Ġplace": 1278,
      "ator": 1279,
      "co": 1280,
      "apt": 1281,
      "ify": 1282,
      "ording": 1283,
      "Ġele": 1284,
      "Ġbel": 1285,
      "ital": 1286,
      "be": 1287,
      "Ġthough": 1288,
      "Ġcount": 1289,
      "Ġcal": 1290,
      "Ġrun": 1291,
      "Ġlearn": 1292,
      "Ġbas": 1293,
      "me": 1294,
      "Ġlow": 1295,
      "Ġproject": 1296,
      "Ġmust": 1297,
      "ters": 1298,
      "ĠSh": 1299,
      "oid": 1300,
      "Ġmeas": 1301,
      "Ġthings": 1302,
      "gen": 1303,
      "Ġfeel": 1304,
      "ral": 1305,
      "Ġchildren": 1306,
      "Ġdev": 1307,
      "Ġcause": 1308,
      "Ġess": 1309,
      "ooking": 1310,
      "Ġarea": 1311,
      "Ġschool": 1312,
      "Ġindivid": 1313,
      "Ġmus": 1314,
      "Ġsure": 1315,
      "ĠCan": 1316,
      "Ġpress": 1317,
      "'ll": 1318,
      "Ġconf": 1319,
      "Ġappro": 1320,
      "Ġdel": 1321,
      "Ġsurf": 1322,
      "Ġpotential": 1323,
      "ner": 1324,
      "Ġphys": 1325,
      "iness": 1326,
      "Ġconst": 1327,
      "iven": 1328,
      "Ġhard": 1329,
      "Ġtre": 1330,
      "ole": 1331,
      "Ġwithin": 1332,
      "Ġbi": 1333,
      "rodu": 1334,
      "Ġ9": 1335,
      "Ġcost": 1336,
      "ield": 1337,
      "irc": 1338,
      "ething": 1339,
      "de": 1340,
      "Ġcurrent": 1341,
      "Ġconn": 1342,
      "Ġprevent": 1343,
      "Ġcontin": 1344,
      "ique": 1345,
      "Ġdam": 1346,
      "Ġcalled": 1347,
      "Ġbir": 1348,
      "ĠAr": 1349,
      "Ġsour": 1350,
      "put": 1351,
      "ax": 1352,
      "Ġgr": 1353,
      "Ġphot": 1354,
      "Ġpub": 1355,
      "ense": 1356,
      "Ġclean": 1357,
      "meric": 1358,
      "ĠWith": 1359,
      "br": 1360,
      "ĠBy": 1361,
      "Ġwhy": 1362,
      "aring": 1363,
      "ug": 1364,
      "Ġreal": 1365,
      "ĠDe": 1366,
      "Ġcap": 1367,
      "icle": 1368,
      "'ve": 1369,
      "ination": 1370,
      "ern": 1371,
      "Ġtry": 1372,
      "Ġsomething": 1373,
      "Ġreally": 1374,
      "ling": 1375,
      "Ġmove": 1376,
      "Ġspecific": 1377,
      "ape": 1378,
      "Ġinclude": 1379,
      "Ġmark": 1380,
      "ills": 1381,
      "Ġexperience": 1382,
      "Ġsecond": 1383,
      "Ġstep": 1384,
      "Ġoper": 1385,
      "ĠCl": 1386,
      "Ġsignific": 1387,
      "Ġsit": 1388,
      "ime": 1389,
      "erest": 1390,
      "Ġrest": 1391,
      "Ġfollowing": 1392,
      "iver": 1393,
      "Ġfunction": 1394,
      "ank": 1395,
      "ental": 1396,
      "ogra": 1397,
      "Ġconsider": 1398,
      "Ġstate": 1399,
      "Ġident": 1400,
      "Ġpossible": 1401,
      "ected": 1402,
      "ization": 1403,
      "Ġanother": 1404,
      "Ġdue": 1405,
      "Ġable": 1406,
      "pr": 1407,
      "ients": 1408,
      "Ġstand": 1409,
      "Ġavail": 1410,
      "Ġnatural": 1411,
      "osed": 1412,
      "Ġgoing": 1413,
      "Ġcour": 1414,
      "Ġhere": 1415,
      "Ġimm": 1416,
      "Ġtool": 1417,
      "Ġ200": 1418,
      "uss": 1419,
      "ertain": 1420,
      "Ġaddition": 1421,
      "Ġdirect": 1422,
      "ex": 1423,
      "ĠAt": 1424,
      "ĠAmeric": 1425,
      "com": 1426,
      "ently": 1427,
      "Ġfree": 1428,
      "Ġsym": 1429,
      "Ġcond": 1430,
      "Ġlot": 1431,
      "Ġprogram": 1432,
      "Ġant": 1433,
      "Ġ[": 1434,
      "iversity": 1435,
      "Ġwee": 1436,
      "Ġcolor": 1437,
      "ocus": 1438,
      "Ġamount": 1439,
      "Ġbus": 1440,
      "ends": 1441,
      "Ġfil": 1442,
      "Ġblood": 1443,
      "Ġcells": 1444,
      "ĠDo": 1445,
      "Ġbecome": 1446,
      "etic": 1447,
      "Ġvarious": 1448,
      "Ġsoil": 1449,
      "port": 1450,
      "ĠRes": 1451,
      "Ġhead": 1452,
      "Ġmeans": 1453,
      "raw": 1454,
      "akes": 1455,
      "Ġpar": 1456,
      "Ġcome": 1457,
      "Ġput": 1458,
      "Ġalways": 1459,
      "land": 1460,
      "Ġappe": 1461,
      "Ġlittle": 1462,
      "Ġfish": 1463,
      "eg": 1464,
      "Ġanal": 1465,
      "Ġimpact": 1466,
      "ration": 1467,
      "eds": 1468,
      "Ġold": 1469,
      "Ġret": 1470,
      "ished": 1471,
      "Ġstruct": 1472,
      "ĠPh": 1473,
      "Ġcomput": 1474,
      "Ġsay": 1475,
      "Ġopen": 1476,
      "Ġsever": 1477,
      "oot": 1478,
      "Ġlim": 1479,
      "thing": 1480,
      "Ġvol": 1481,
      "Ġlet": 1482,
      "Ġlast": 1483,
      "Ġest": 1484,
      "Ġinvol": 1485,
      "Ġel": 1486,
      "Ġneeds": 1487,
      "ĠCom": 1488,
      "Ġpass": 1489,
      "Ġcirc": 1490,
      "ĠWhich": 1491,
      "Ġhig": 1492,
      "ane": 1493,
      "to": 1494,
      "Ġmult": 1495,
      "ĠOne": 1496,
      "Ġpresent": 1497,
      "Ġcomb": 1498,
      "ption": 1499,
      "Ġspace": 1500,
      "Ġheat": 1501,
      "ccess": 1502,
      "aste": 1503,
      "Ġnut": 1504,
      "aves": 1505,
      "Ġsize": 1506,
      "Ġ$": 1507,
      "ush": 1508,
      "Ġproblem": 1509,
      "Ġcat": 1510,
      "gin": 1511,
      "Ġ=": 1512,
      "cle": 1513,
      "ead": 1514,
      "Ġes": 1515,
      "Ġsignificant": 1516,
      "Ġlay": 1517,
      "Ġprovid": 1518,
      "Ġcr": 1519,
      "Ġrequire": 1520,
      "oad": 1521,
      "aper": 1522,
      "ode": 1523,
      "ified": 1524,
      "Ġavailable": 1525,
      "Ġmean": 1526,
      "ateg": 1527,
      "ered": 1528,
      "bers": 1529,
      "ones": 1530,
      "Ġareas": 1531,
      "Ġet": 1532,
      "Ġdevelopment": 1533,
      "ĠInd": 1534,
      "Ġcut": 1535,
      "ĠThat": 1536,
      "Ġtypes": 1537,
      "Ġfin": 1538,
      "arden": 1539,
      "Ġcam": 1540,
      "iod": 1541,
      "Ġcy": 1542,
      "ilar": 1543,
      "arent": 1544,
      "Ġrange": 1545,
      "Ġinterest": 1546,
      "ox": 1547,
      "ries": 1548,
      "Ġfeature": 1549,
      "Ġapplic": 1550,
      "Ġfocus": 1551,
      "Ġseveral": 1552,
      "Ġprom": 1553,
      "ably": 1554,
      "Ġdem": 1555,
      "Ġunt": 1556,
      "Ġindust": 1557,
      "Ġlearning": 1558,
      "Ġmot": 1559,
      "Ġensure": 1560,
      "ieve": 1561,
      "Ġbased": 1562,
      "ocial": 1563,
      "ote": 1564,
      "ending": 1565,
      "Ġfre": 1566,
      "Ġtimes": 1567,
      "ĠSome": 1568,
      "Ġkey": 1569,
      "orn": 1570,
      "ards": 1571,
      "Ġscient": 1572,
      "ended": 1573,
      "Ġsens": 1574,
      "Ġdisease": 1575,
      "atic": 1576,
      "ances": 1577,
      "Ġmic": 1578,
      "ips": 1579,
      "aces": 1580,
      "Ġdeterm": 1581,
      "over": 1582,
      "ĠNew": 1583,
      "pecial": 1584,
      "Ġprofess": 1585,
      "Ġobject": 1586,
      "Ġsystems": 1587,
      "Ġeffective": 1588,
      "ton": 1589,
      "Ġusually": 1590,
      "Ġessential": 1591,
      "Ġgive": 1592,
      "Ġenough": 1593,
      "par": 1594,
      "Ġoccur": 1595,
      "Ġpost": 1596,
      "Ġaccess": 1597,
      "ems": 1598,
      "Ġmonth": 1599,
      "Ġmakes": 1600,
      "Ġconditions": 1601,
      "'m": 1602,
      "Ġrisk": 1603,
      "Ġteam": 1604,
      "Ġquality": 1605,
      "az": 1606,
      "Ġoil": 1607,
      "Ġanimals": 1608,
      "Ġbig": 1609,
      "ency": 1610,
      "ision": 1611,
      "âĢĶ": 1612,
      "Ġnon": 1613,
      "Ġsal": 1614,
      "gn": 1615,
      "Ġchem": 1616,
      "Ġspecial": 1617,
      "Ġsurface": 1618,
      "Ġhist": 1619,
      "ours": 1620,
      "Ġengine": 1621,
      "Ġdesc": 1622,
      "Ġside": 1623,
      "outh": 1624,
      "Ġlist": 1625,
      "Ġopp": 1626,
      "fort": 1627,
      "Ġcertain": 1628,
      "alk": 1629,
      "af": 1630,
      "Ġline": 1631,
      "Ġparticular": 1632,
      "au": 1633,
      "urther": 1634,
      "Ġorder": 1635,
      "ĠOn": 1636,
      "Ġtechnology": 1637,
      "Ġdig": 1638,
      "Ġz": 1639,
      "of": 1640,
      "ological": 1641,
      "Ġcho": 1642,
      "arc": 1643,
      "ĠĠ": 1644,
      "the": 1645,
      "ah": 1646,
      "view": 1647,
      "Ġmaterials": 1648,
      "ograph": 1649,
      "Ġmill": 1650,
      "Ġeffic": 1651,
      "Ġpressure": 1652,
      "ples": 1653,
      "Ġconsum": 1654,
      "ories": 1655,
      "Ġsound": 1656,
      "Ġmil": 1657,
      "ires": 1658,
      "ring": 1659,
      "Ġimprove": 1660,
      "Ġ&": 1661,
      "ĠTe": 1662,
      "Ġbehav": 1663,
      "rap": 1664,
      "10": 1665,
      "cul": 1666,
      "ication": 1667,
      "ĠBl": 1668,
      "oose": 1669,
      "bon": 1670,
      "olution": 1671,
      "aut": 1672,
      "Ġsince": 1673,
      "The": 1674,
      "Ġgroup": 1675,
      "Ġprim": 1676,
      "Ġuntil": 1677,
      "ustom": 1678,
      "oring": 1679,
      "Ġtoget": 1680,
      "Ġtogether": 1681,
      "Ġlevels": 1682,
      "Ġwind": 1683,
      "Ġweight": 1684,
      "ables": 1685,
      "Ġter": 1686,
      "Ġeduc": 1687,
      "Ġreport": 1688,
      "asing": 1689,
      "ĠIm": 1690,
      "hor": 1691,
      "iting": 1692,
      "Ġrecomm": 1693,
      "Ġproblems": 1694,
      "fer": 1695,
      "ĠYour": 1696,
      "Ġfeed": 1697,
      "Ġ12": 1698,
      "ains": 1699,
      "Ġsuccess": 1700,
      "aster": 1701,
      "Ġmar": 1702,
      "Ġcase": 1703,
      "Ġfamily": 1704,
      "ately": 1705,
      "Ġnear": 1706,
      "Ġfore": 1707,
      "Ġaway": 1708,
      "Ġmov": 1709,
      "NA": 1710,
      "Ġshort": 1711,
      "Ġinfl": 1712,
      "Ġresults": 1713,
      "Ġworks": 1714,
      "ĠWhile": 1715,
      "let": 1716,
      "Ġbra": 1717,
      "Ġname": 1718,
      "Ġworking": 1719,
      "inc": 1720,
      "Ġnext": 1721,
      "uture": 1722,
      "Ġcult": 1723,
      "Ġcomplete": 1724,
      "Ġhaving": 1725,
      "ury": 1726,
      "Ġi": 1727,
      "Ġsun": 1728,
      "ĠSp": 1729,
      "Ġperiod": 1730,
      "Ġchall": 1731,
      "Ġkind": 1732,
      "Ġincrease": 1733,
      "Ġrad": 1734,
      "Ġalong": 1735,
      "Ġ.": 1736,
      "Ġrepl": 1737,
      "ored": 1738,
      "Ġmaintain": 1739,
      "Ġsugg": 1740,
      "ember": 1741,
      "omen": 1742,
      "Ġdays": 1743,
      "Ġproducts": 1744,
      "Ġnecess": 1745,
      "Ġrele": 1746,
      "Ġsing": 1747,
      "utes": 1748,
      "ither": 1749,
      "ware": 1750,
      "Ġleg": 1751,
      "pecially": 1752,
      "ump": 1753,
      "Ġcou": 1754,
      "jor": 1755,
      "Ġtru": 1756,
      "50": 1757,
      "fact": 1758,
      "oint": 1759,
      "Ġcomes": 1760,
      "bit": 1761,
      "Ġmach": 1762,
      "Ġhigher": 1763,
      "Ġturn": 1764,
      "Ġlocal": 1765,
      "ĠUniversity": 1766,
      "agement": 1767,
      "icult": 1768,
      "Ġearly": 1769,
      "Ġquick": 1770,
      "inter": 1771,
      "oney": 1772,
      "Ġmeasure": 1773,
      "Ġgrowth": 1774,
      "Ġprotect": 1775,
      "por": 1776,
      "Ġothers": 1777,
      "Ġcourse": 1778,
      "imes": 1779,
      "Ġprote": 1780,
      "Ġeasy": 1781,
      "Ġchanges": 1782,
      "ogn": 1783,
      "Ġtreatment": 1784,
      "Ġlikely": 1785,
      "Ġlab": 1786,
      "une": 1787,
      "âĢ¦": 1788,
      "work": 1789,
      "Ġsuggest": 1790,
      "Ġstrong": 1791,
      "Ġsimilar": 1792,
      "duct": 1793,
      "Ġmodel": 1794,
      "Ġ18": 1795,
      "Ġsocial": 1796,
      "Ġgarden": 1797,
      "ĠAll": 1798,
      "erc": 1799,
      "Ġbusiness": 1800,
      "Ġvalue": 1801,
      "ĠZ": 1802,
      "Ġactually": 1803,
      "Ġleast": 1804,
      "Ġreduce": 1805,
      "ches": 1806,
      "Ġfull": 1807,
      "omes": 1808,
      "Ġground": 1809,
      "Ġenc": 1810,
      "ĠOr": 1811,
      ".,": 1812,
      "ĠCol": 1813,
      "Ġlower": 1814,
      "Ġfri": 1815,
      "ators": 1816,
      "ret": 1817,
      "Ġhealthy": 1818,
      "ĠNo": 1819,
      "Ġgreen": 1820,
      "Ġste": 1821,
      "light": 1822,
      "Ġfac": 1823,
      "osp": 1824,
      "Ġdry": 1825,
      "Ġdoesn": 1826,
      "Ġrece": 1827,
      "ler": 1828,
      "Ġorig": 1829,
      "Ġtur": 1830,
      "ream": 1831,
      "aging": 1832,
      "Ġ*": 1833,
      "Ġfrequ": 1834,
      "ipp": 1835,
      "Ġans": 1836,
      "ised": 1837,
      "ooks": 1838,
      "oor": 1839,
      "Ġissues": 1840,
      "Ġsimple": 1841,
      "Ġrole": 1842,
      "Ġpred": 1843,
      "Ġmajor": 1844,
      "Ġsoft": 1845,
      "Ġreason": 1846,
      "ivity": 1847,
      "ann": 1848,
      "Ġcharacter": 1849,
      "Ġhim": 1850,
      "Ġresour": 1851,
      "rect": 1852,
      "Ġsum": 1853,
      "Ġred": 1854,
      "Ġassoci": 1855,
      "Ġdogs": 1856,
      "vious": 1857,
      "Ġwarm": 1858,
      "ames": 1859,
      "not": 1860,
      "Ġlive": 1861,
      "Ġinvest": 1862,
      "ym": 1863,
      "Ġfour": 1864,
      "izing": 1865,
      "Ġfuture": 1866,
      "atory": 1867,
      "Ġunique": 1868,
      "Ġbro": 1869,
      "Ġwrit": 1870,
      "agn": 1871,
      "Ġespecially": 1872,
      "Ġabove": 1873,
      "Ġavoid": 1874,
      "Ġcustom": 1875,
      "Ġheart": 1876,
      "Ġreact": 1877,
      "Ġways": 1878,
      "Ġfar": 1879,
      "Ġproduction": 1880,
      "Ġmind": 1881,
      "ression": 1882,
      "Ġobs": 1883,
      "Ġvir": 1884,
      "Ġage": 1885,
      "Ġacross": 1886,
      "Ġeat": 1887,
      "yl": 1888,
      "Ġthing": 1889,
      "ng": 1890,
      "Ġdiet": 1891,
      "Ġnorm": 1892,
      "Ġfield": 1893,
      "rag": 1894,
      "Ġbit": 1895,
      "hem": 1896,
      "Ġsafe": 1897,
      "bo": 1898,
      "ilities": 1899,
      "chan": 1900,
      "Ġgas": 1901,
      "Ġdone": 1902,
      "ĠInst": 1903,
      "Ġcheck": 1904,
      "Ġprob": 1905,
      "Ġgiven": 1906,
      "Ġpie": 1907,
      "Ġnever": 1908,
      "usion": 1909,
      "astic": 1910,
      "Ġmarket": 1911,
      "ived": 1912,
      "verage": 1913,
      "orth": 1914,
      "----": 1915,
      "Ġvide": 1916,
      "Ġflu": 1917,
      "fect": 1918,
      "Ġagainst": 1919,
      "ustain": 1920,
      "Ġdamage": 1921,
      "Ġaccording": 1922,
      "Ġaffect": 1923,
      "ission": 1924,
      "Ġbegin": 1925,
      "ott": 1926,
      "side": 1927,
      "ĠWhy": 1928,
      "Ġdifficult": 1929,
      "iple": 1930,
      "uro": 1931,
      "Ġgre": 1932,
      "though": 1933,
      "idence": 1934,
      "Ġskin": 1935,
      "Ġpublic": 1936,
      "ray": 1937,
      "ledge": 1938,
      "estions": 1939,
      "Ġpaper": 1940,
      "ffic": 1941,
      "Ġeye": 1942,
      "Ġcompon": 1943,
      "Ġeffects": 1944,
      "Ġclear": 1945,
      "anced": 1946,
      "Ġbook": 1947,
      "Ġloss": 1948,
      "ĠHere": 1949,
      "self": 1950,
      "Ġabs": 1951,
      "Ġsingle": 1952,
      "pos": 1953,
      "Ġregular": 1954,
      "Ġcool": 1955,
      "Ġbatter": 1956,
      "Ġhouse": 1957,
      "Ġpast": 1958,
      "Ġach": 1959,
      "Ġrespons": 1960,
      "omet": 1961,
      "most": 1962,
      "Ġrepres": 1963,
      "hy": 1964,
      "Ġintern": 1965,
      "wards": 1966,
      "Ġdiscuss": 1967,
      "Ġwhite": 1968,
      "Ġland": 1969,
      "yle": 1970,
      "amm": 1971,
      "igns": 1972,
      "Ġsource": 1973,
      "Ġleft": 1974,
      "Ġterm": 1975,
      "Ġsays": 1976,
      "Ġchemical": 1977,
      "Ġparts": 1978,
      "Ġcontrib": 1979,
      "ĠâĢĶ": 1980,
      "ibility": 1981,
      "Ġdetail": 1982,
      "Ġlooking": 1983,
      "Ġhelps": 1984,
      "Ġsubst": 1985,
      "Ġbenefits": 1986,
      "Ġview": 1987,
      "Ġ15": 1988,
      "Ġphysical": 1989,
      "Ġelectric": 1990,
      "Ġpopular": 1991,
      "Ġwide": 1992,
      "Ġresearc": 1993,
      "Ġcomplex": 1994,
      "lish": 1995,
      "Ġclose": 1996,
      "Ġwr": 1997,
      "19": 1998,
      "Ġer": 1999,
      "ĠEng": 2000,
      "uals": 2001,
      "Ġfactors": 2002,
      "ee": 2003,
      "Ġunderstanding": 2004,
      "lement": 2005,
      "Ġmass": 2006,
      "ĠUS": 2007,
      "resh": 2008,
      "ĠNe": 2009,
      "joy": 2010,
      "Ġ30": 2011,
      "Ġtraining": 2012,
      "Ġcondition": 2013,
      "Ġdesigned": 2014,
      "ising": 2015,
      "Ġeither": 2016,
      "avor": 2017,
      "ER": 2018,
      "tal": 2019,
      "Ġnet": 2020,
      "ensive": 2021,
      "raft": 2022,
      "ae": 2023,
      "ptoms": 2024,
      "Ġbal": 2025,
      "Ġamong": 2026,
      "orts": 2027,
      "Ġhold": 2028,
      "lection": 2029,
      "Ġthin": 2030,
      "Ġweek": 2031,
      "Ġfurther": 2032,
      "Ġonce": 2033,
      "ruction": 2034,
      "Ġexpect": 2035,
      "ification": 2036,
      "Ġoffer": 2037,
      "Ġspeed": 2038,
      "Ġcru": 2039,
      "ĠDr": 2040,
      "ufact": 2041,
      "Ġclimate": 2042,
      "Ġgame": 2043,
      "Ġdescrib": 2044,
      "Ġdeg": 2045,
      "ĠEar": 2046,
      "Ġproduce": 2047,
      "Ġwhether": 2048,
      "ores": 2049,
      "Ġstress": 2050,
      "angu": 2051,
      "Ġquestion": 2052,
      "ope": 2053,
      "Ġprovides": 2054,
      "ploy": 2055,
      "Ġallows": 2056,
      "Ġtoday": 2057,
      "Ġindic": 2058,
      "Ġpercent": 2059,
      "ortun": 2060,
      "Ġanimal": 2061,
      "Ġgetting": 2062,
      "alf": 2063,
      "Ġill": 2064,
      "Ġability": 2065,
      "Ġvers": 2066,
      "Ġcomputer": 2067,
      "Ġegg": 2068,
      "ĠUs": 2069,
      "Ġcarbon": 2070,
      "Ġfall": 2071,
      "Ġauthor": 2072,
      "Ġwild": 2073,
      "ĠAI": 2074,
      "ready": 2075,
      "Ġstop": 2076,
      "Ġskills": 2077,
      "ĠAfter": 2078,
      "lished": 2079,
      "Ġwood": 2080,
      "Ġscience": 2081,
      "ystem": 2082,
      "ina": 2083,
      "Ġmatter": 2084,
      "Ġdifference": 2085,
      "Ġinteract": 2086,
      "Ġfu": 2087,
      "Ġblack": 2088,
      "istic": 2089,
      "Ġpet": 2090,
      "Ġveh": 2091,
      "Ġdraw": 2092,
      "Ġenh": 2093,
      "man": 2094,
      "by": 2095,
      "ery": 2096,
      "Ġnecessary": 2097,
      "idd": 2098,
      "ument": 2099,
      "Ġrecord": 2100,
      "Ġcoll": 2101,
      "Ġperformance": 2102,
      "Ġsmo": 2103,
      "ength": 2104,
      "Ġmechan": 2105,
      "Ġbelow": 2106,
      "Ġvariety": 2107,
      "Ġlif": 2108,
      "like": 2109,
      "Ġparent": 2110,
      "Ġhyd": 2111,
      "ried": 2112,
      "Ġexperien": 2113,
      "....": 2114,
      "aching": 2115,
      "hing": 2116,
      "Ġox": 2117,
      "ming": 2118,
      "Ġveget": 2119,
      "Ġselect": 2120,
      "Ġstructure": 2121,
      "itch": 2122,
      "conom": 2123,
      "Ġcrit": 2124,
      "ik": 2125,
      "Ġindividual": 2126,
      "Ġbrain": 2127,
      "ĠDes": 2128,
      "Ġimage": 2129,
      "ales": 2130,
      "Ġtell": 2131,
      "Ġenjoy": 2132,
      "ird": 2133,
      "Ġlove": 2134,
      "Ġhours": 2135,
      "Ġalready": 2136,
      "mit": 2137,
      "Ġconcer": 2138,
      "Ġdoing": 2139,
      "Ġcommunity": 2140,
      "Ġneeded": 2141,
      "aken": 2142,
      "lying": 2143,
      "Ġconnect": 2144,
      "Ġglob": 2145,
      "Ġsafety": 2146,
      "Ġbacter": 2147,
      "Ġfru": 2148,
      "oes": 2149,
      "Ġexist": 2150,
      "Ġpersonal": 2151,
      "iques": 2152,
      "ney": 2153,
      "ask": 2154,
      "Ġevent": 2155,
      "ĠWor": 2156,
      "Ġtree": 2157,
      "edi": 2158,
      "Ġinit": 2159,
      "Ġfeatures": 2160,
      "Ġsle": 2161,
      "overed": 2162,
      "Ġhistory": 2163,
      "rel": 2164,
      "rate": 2165,
      "Ġemb": 2166,
      "ĠLe": 2167,
      "Ġindustry": 2168,
      "Ġcontent": 2169,
      "Ġ100": 2170,
      "Ġknowledge": 2171,
      "Ġpath": 2172,
      "utions": 2173,
      "Ġresist": 2174,
      "ysis": 2175,
      "Ġrate": 2176,
      "Ġmicro": 2177,
      "Ġmix": 2178,
      "Ġsn": 2179,
      "eral": 2180,
      "Ġhappen": 2181,
      "Ġbuy": 2182,
      "ĠShe": 2183,
      "igure": 2184,
      "Ġmo": 2185,
      "erence": 2186,
      "rown": 2187,
      "ĠComm": 2188,
      "vert": 2189,
      "____": 2190,
      "Ġrequired": 2191,
      "aps": 2192,
      "Ġsustain": 2193,
      "Ġask": 2194,
      "Ġfat": 2195,
      "Ġleaves": 2196,
      "Ġever": 2197,
      "Ġhot": 2198,
      "Ġmanufact": 2199,
      "pose": 2200,
      "Ġtradition": 2201,
      "Ġsuper": 2202,
      "just": 2203,
      "nam": 2204,
      "Ġbreak": 2205,
      "Ġonline": 2206,
      "ĠCons": 2207,
      "Ġseen": 2208,
      "for": 2209,
      "ĠCar": 2210,
      "ule": 2211,
      "Ġaddress": 2212,
      "Ġinside": 2213,
      "iment": 2214,
      "Ġ...": 2215,
      "Ġstrateg": 2216,
      "ilt": 2217,
      "Ġactivities": 2218,
      "Ġneg": 2219,
      "Ġtools": 2220,
      "Ġarticle": 2221,
      "Ġself": 2222,
      "Ġquestions": 2223,
      "12": 2224,
      "ibr": 2225,
      "ĠCont": 2226,
      "Ġslow": 2227,
      "Ġlonger": 2228,
      "ĠAmerican": 2229,
      "ply": 2230,
      "Ġminim": 2231,
      "ĠFl": 2232,
      "Ġchalleng": 2233,
      "Ġbar": 2234,
      "Ġtar": 2235,
      "Ġsymptoms": 2236,
      "Ġmethods": 2237,
      "ows": 2238,
      "Ġcorrect": 2239,
      "ĠNow": 2240,
      "Ġuser": 2241,
      "gs": 2242,
      "Ġresearchers": 2243,
      "Ġbuilding": 2244,
      "aling": 2245,
      "pro": 2246,
      "Ġfarm": 2247,
      "Ġprec": 2248,
      "Ġprint": 2249,
      "sel": 2250,
      "ĠMy": 2251,
      "Ġpay": 2252,
      "Ġcontact": 2253,
      "Ġmat": 2254,
      "Ġopportun": 2255,
      "sh": 2256,
      "fully": 2257,
      "Ġenvironmental": 2258,
      "Ġgeneral": 2259,
      "Ġpan": 2260,
      "Ġidea": 2261,
      "ĠPre": 2262,
      "way": 2263,
      "Ġactivity": 2264,
      "ĠKe": 2265,
      "ĠInt": 2266,
      "reng": 2267,
      "ura": 2268,
      "Ġwhole": 2269,
      "Ġtaking": 2270,
      "Ġport": 2271,
      "Ġpositive": 2272,
      "ĠTr": 2273,
      "Ġdeep": 2274,
      "Ġcompany": 2275,
      "ĠCent": 2276,
      "sc": 2277,
      "Ġnature": 2278,
      "aving": 2279,
      "Ġmole": 2280,
      "Ġmonths": 2281,
      "ĠAre": 2282,
      "inary": 2283,
      "gar": 2284,
      "Ġhumans": 2285,
      "Ġapproach": 2286,
      "ront": 2287,
      "Ġremov": 2288,
      "ites": 2289,
      "Ġliving": 2290,
      "Ġelectr": 2291,
      "Ġposition": 2292,
      "Ġinstall": 2293,
      "nces": 2294,
      "Ġrelations": 2295,
      "Ġindividuals": 2296,
      "Ġexerc": 2297,
      "illed": 2298,
      "upp": 2299,
      "Ġperfect": 2300,
      "Ġbehavior": 2301,
      "Ġlaw": 2302,
      "ctor": 2303,
      "Ġmagn": 2304,
      "amp": 2305,
      "Ġmention": 2306,
      "Ġappear": 2307,
      "ties": 2308,
      "ervation": 2309,
      "Ġsqu": 2310,
      "Ġeasily": 2311,
      "Ġsam": 2312,
      "Ġintrodu": 2313,
      "Ġhor": 2314,
      "Ġtypically": 2315,
      "Ġseason": 2316,
      "use": 2317,
      "Ġfit": 2318,
      "ĠAb": 2319,
      "Ġencou": 2320,
      "Ġsomeone": 2321,
      "ĠCO": 2322,
      "selves": 2323,
      "ĠYes": 2324,
      "30": 2325,
      "app": 2326,
      "Ġyoung": 2327,
      "ume": 2328,
      "Ġsitu": 2329,
      "ding": 2330,
      "Ġtrees": 2331,
      "Ġcancer": 2332,
      "ĠApp": 2333,
      "Ġut": 2334,
      "ĠX": 2335,
      "Ġ11": 2336,
      "Ġanswer": 2337,
      "iency": 2338,
      "Ġtravel": 2339,
      "ises": 2340,
      "ĠAm": 2341,
      "erve": 2342,
      "ĠMost": 2343,
      "idered": 2344,
      "verse": 2345,
      "uck": 2346,
      "Ġcases": 2347,
      "Ġjour": 2348,
      "Ġgrowing": 2349,
      "room": 2350,
      "osing": 2351,
      "Ġisn": 2352,
      "Ġentire": 2353,
      "Ġvac": 2354,
      "Ġlangu": 2355,
      "Ġmoney": 2356,
      "Ġla": 2357,
      "cell": 2358,
      "Ġetc": 2359,
      "Ġassociated": 2360,
      "Ġtechniques": 2361,
      "aches": 2362,
      "Ġcollect": 2363,
      "amin": 2364,
      "urs": 2365,
      "Ġmillion": 2366,
      "Ġextra": 2367,
      "Ġjob": 2368,
      "reme": 2369,
      "Ġprep": 2370,
      "Ġsolution": 2371,
      "iation": 2372,
      "Ġmeet": 2373,
      "based": 2374,
      "Ġminutes": 2375,
      "het": 2376,
      "Ġmanagement": 2377,
      "Ġroom": 2378,
      "âĢĵ": 2379,
      "Ġoverall": 2380,
      "Ġbring": 2381,
      "Ġwall": 2382,
      "Ġcrucial": 2383,
      "eter": 2384,
      "ze": 2385,
      "Ġvideo": 2386,
      "Ġgot": 2387,
      "Ġrather": 2388,
      "Ġresources": 2389,
      "cre": 2390,
      "Ġaud": 2391,
      "Ġlater": 2392,
      "ging": 2393,
      "ges": 2394,
      "Ġconsidered": 2395,
      "Ġharm": 2396,
      "Ġmedical": 2397,
      "ese": 2398,
      "Ġrecogn": 2399,
      "ene": 2400,
      "Ġrepresent": 2401,
      "Ġdevice": 2402,
      "aced": 2403,
      "ulations": 2404,
      "Ġinflu": 2405,
      "Ġpoll": 2406,
      "Ġmen": 2407,
      "osis": 2408,
      "Ġpatients": 2409,
      "ĠNot": 2410,
      "Ġcreating": 2411,
      "uit": 2412,
      "Ġprimary": 2413,
      "Ġhowever": 2414,
      "ĠResear": 2415,
      "Ġwar": 2416,
      "Ġcover": 2417,
      "Ġuses": 2418,
      "Ġcold": 2419,
      "Ġing": 2420,
      "Ġstay": 2421,
      "ĠFe": 2422,
      "Ġsepar": 2423,
      "Ġcapt": 2424,
      "Ġgover": 2425,
      "Ġbeaut": 2426,
      "uff": 2427,
      "ival": 2428,
      "Ġstreng": 2429,
      "ĠAcc": 2430,
      "Ġaverage": 2431,
      "cks": 2432,
      "ĠMed": 2433,
      "Ġthroughout": 2434,
      "Ġsense": 2435,
      "wh": 2436,
      "Ġcomfort": 2437,
      "Ġtarget": 2438,
      "Ġquickly": 2439,
      "Ġrelationship": 2440,
      "Ġchoose": 2441,
      "sect": 2442,
      "ĠMore": 2443,
      "Ġpopulation": 2444,
      "Ġinteg": 2445,
      "Ġconcept": 2446,
      "Ġyourself": 2447,
      "ĠCal": 2448,
      "Ġservice": 2449,
      "Ġeconom": 2450,
      "Ġappl": 2451,
      "ĠPr": 2452,
      "Ġthought": 2453,
      "ounds": 2454,
      "Ġidentify": 2455,
      "era": 2456,
      "Ġfund": 2457,
      "Ġpack": 2458,
      "Ġprofessional": 2459,
      "Ġincludes": 2460,
      "Ġwomen": 2461,
      "Ġ50": 2462,
      "aily": 2463,
      "Ġbirds": 2464,
      "Ġacid": 2465,
      "ĠMany": 2466,
      "Ġdispl": 2467,
      "Ġprotein": 2468,
      "xim": 2469,
      "ĠStud": 2470,
      "Ġ16": 2471,
      "lex": 2472,
      "Ġsubject": 2473,
      "aged": 2474,
      "Ġconsist": 2475,
      "Ġincreased": 2476,
      "Ġsleep": 2477,
      "Ġmultiple": 2478,
      "mon": 2479,
      "Ġprobably": 2480,
      "icles": 2481,
      "rated": 2482,
      "Ġec": 2483,
      "eding": 2484,
      "Ġpractice": 2485,
      "Ġtakes": 2486,
      "erous": 2487,
      "ES": 2488,
      "Ġnormal": 2489,
      "Ġoptions": 2490,
      "IN": 2491,
      "Ġdeveloped": 2492,
      "Ġoutside": 2493,
      "Ġcreated": 2494,
      "Ġbad": 2495,
      "rict": 2496,
      "Ġcop": 2497,
      "ĠÂ": 2498,
      "Ġcook": 2499,
      "Ġheav": 2500,
      "ĠMe": 2501,
      "Ġcannot": 2502,
      "Ġexc": 2503,
      "Ġrelated": 2504,
      "ils": 2505,
      "Ġfoot": 2506,
      "val": 2507,
      "ipment": 2508,
      "Ġstudies": 2509,
      "Ġquant": 2510,
      "Ġsimply": 2511,
      "Ġissue": 2512,
      "Ġoptim": 2513,
      "Ġfeet": 2514,
      "Ġwebs": 2515,
      "Ġhalf": 2516,
      "Ġadult": 2517,
      "Ġur": 2518,
      "Ġmachine": 2519,
      "Ġeyes": 2520,
      "lease": 2521,
      "ellow": 2522,
      "ĠFrom": 2523,
      "Ġsat": 2524,
      "Ġbur": 2525,
      "Ġcompan": 2526,
      "Ġfram": 2527,
      "Ġgovern": 2528,
      "Ġstra": 2529,
      "ĠNational": 2530,
      "Ġfast": 2531,
      "Ġtend": 2532,
      "Ġcompet": 2533,
      "ĠUse": 2534,
      "Ġ+": 2535,
      "Ġnight": 2536,
      "Ġmodern": 2537,
      "âĢĿ": 2538,
      "ĠâĢľ": 2539,
      "Ġ14": 2540,
      "aff": 2541,
      "Ġcauses": 2542,
      "Ġlog": 2543,
      "ĠUnited": 2544,
      "Ġemploy": 2545,
      "Ġalmost": 2546,
      "ĠOf": 2547,
      "ĠGen": 2548,
      "Ġsomet": 2549,
      "Ġservices": 2550,
      "AT": 2551,
      "Ġconduct": 2552,
      "Ġelements": 2553,
      "Ġrob": 2554,
      "Ġremain": 2555,
      "Ġlength": 2556,
      "Ġann": 2557,
      "urope": 2558,
      "rams": 2559,
      "Ġteac": 2560,
      "Ġinstead": 2561,
      "Ġsil": 2562,
      "Ġparticip": 2563,
      "Ġfuel": 2564,
      "Ġfoods": 2565,
      "ĠMan": 2566,
      "ively": 2567,
      "augh": 2568,
      "Ġeducation": 2569,
      "elling": 2570,
      "ĠOur": 2571,
      "onst": 2572,
      "Ġattention": 2573,
      "oh": 2574,
      "oll": 2575,
      "Ġlarger": 2576,
      "Ġglobal": 2577,
      "ĠHealth": 2578,
      "Ġfive": 2579,
      "itor": 2580,
      "Ġtotal": 2581,
      "Ġwaste": 2582,
      "cies": 2583,
      "Ġapplications": 2584,
      "Ġincreasing": 2585,
      "Ġpict": 2586,
      "Ġlayer": 2587,
      "nov": 2588,
      "ĠâĢ¢": 2589,
      "Ġaltern": 2590,
      "Ġdetermine": 2591,
      "Ġshape": 2592,
      "ured": 2593,
      "ison": 2594,
      "ĠDis": 2595,
      "ĠMay": 2596,
      "Ġfail": 2597,
      "Ġshows": 2598,
      "Ġautom": 2599,
      "ift": 2600,
      "Ġwon": 2601,
      "Ġpri": 2602,
      "Ġtraditional": 2603,
      "Ġcountry": 2604,
      "Ġextreme": 2605,
      "Ġaccount": 2606,
      "Ġwinter": 2607,
      "ĠOnce": 2608,
      "Ġshown": 2609,
      "Ġbab": 2610,
      "Ġcompared": 2611,
      "Ġ202": 2612,
      "Ġhabit": 2613,
      "ĠCo": 2614,
      "Ġdom": 2615,
      "abor": 2616,
      "AR": 2617,
      "Ġestab": 2618,
      "aim": 2619,
      "Ġ199": 2620,
      "asc": 2621,
      "onse": 2622,
      "Ġsometimes": 2623,
      "ĠEarth": 2624,
      "Ġwa": 2625,
      "rogen": 2626,
      "fl": 2627,
      "Ġweather": 2628,
      "Ġge": 2629,
      "Ġscientists": 2630,
      "Ġspread": 2631,
      "ians": 2632,
      "Ġbattery": 2633,
      "urity": 2634,
      "Ġang": 2635,
      "Ġbasic": 2636,
      "itud": 2637,
      "Ġproviding": 2638,
      "Ġadvant": 2639,
      "Ġface": 2640,
      "Ġ/": 2641,
      "Ġefficient": 2642,
      "Ġsite": 2643,
      "Ġfresh": 2644,
      "sy": 2645,
      "Ġremove": 2646,
      "Ġadjust": 2647,
      "Ġeverything": 2648,
      "Ġrelative": 2649,
      "acks": 2650,
      "Ġanything": 2651,
      "ĠEurope": 2652,
      "Ġexplain": 2653,
      "ners": 2654,
      "Ġyet": 2655,
      "ropri": 2656,
      "ung": 2657,
      "ĠAf": 2658,
      "asons": 2659,
      "Ġchoice": 2660,
      "Ġdevices": 2661,
      "ĠPe": 2662,
      "ned": 2663,
      "ĠEm": 2664,
      "Ġseem": 2665,
      "\".": 2666,
      "Ġcaused": 2667,
      "Ġtrue": 2668,
      "Ġquite": 2669,
      "Ġ|": 2670,
      "Ġtaken": 2671,
      "isms": 2672,
      "gest": 2673,
      "ley": 2674,
      "ED": 2675,
      "min": 2676,
      "Ġcomponents": 2677,
      "Ġoffers": 2678,
      "cean": 2679,
      "ont": 2680,
      "umb": 2681,
      "Ġgenerally": 2682,
      "Ġcontinu": 2683,
      "Ġfem": 2684,
      "Ġstory": 2685,
      "Ġadapt": 2686,
      "Ġcra": 2687,
      "ĠLet": 2688,
      "ules": 2689,
      "Ġnutri": 2690,
      "Ġmedic": 2691,
      "ged": 2692,
      "Ġsurv": 2693,
      "Ġanalysis": 2694,
      "ctions": 2695,
      "Ġgroups": 2696,
      "Ġmetal": 2697,
      "Ġstandard": 2698,
      "ground": 2699,
      "Ġsuit": 2700,
      "Ġterms": 2701,
      "Ġlanguage": 2702,
      "Ġfire": 2703,
      "Ġequipment": 2704,
      "Ġprevious": 2705,
      "hib": 2706,
      "Ġexact": 2707,
      "Ġones": 2708,
      "Ġrot": 2709,
      "rip": 2710,
      "Ġcode": 2711,
      "oph": 2712,
      "ino": 2713,
      "izes": 2714,
      "AS": 2715,
      "ement": 2716,
      "11": 2717,
      "Ġwords": 2718,
      "icial": 2719,
      "Ġbacteria": 2720,
      "ension": 2721,
      "Ġfib": 2722,
      "Ġbott": 2723,
      "ĠOver": 2724,
      "Ġstarted": 2725,
      "ronic": 2726,
      "Ġprovided": 2727,
      "icy": 2728,
      "imately": 2729,
      "Ġassess": 2730,
      "ched": 2731,
      "Ġshare": 2732,
      "rad": 2733,
      "Ġdark": 2734,
      "rapy": 2735,
      "istics": 2736,
      "Ġlo": 2737,
      "li": 2738,
      "Ġinj": 2739,
      "Ġtrying": 2740,
      "go": 2741,
      "Ġbox": 2742,
      "Ġmom": 2743,
      "Ġdy": 2744,
      "Ġsignal": 2745,
      "Ġdigital": 2746,
      "Ġitself": 2747,
      "hern": 2748,
      "Ġsoftware": 2749,
      "ights": 2750,
      "Ġthemselves": 2751,
      "Ġdru": 2752,
      "Ġtable": 2753,
      "OT": 2754,
      "Ġforce": 2755,
      "ĠReg": 2756,
      "Ġago": 2757,
      "Ġsummer": 2758,
      "Ġproperties": 2759,
      "Ġball": 2760,
      "Ġreading": 2761,
      "ĠRem": 2762,
      "Ġgain": 2763,
      "ests": 2764,
      "Ġpurpose": 2765,
      "Ġâ": 2766,
      "Ġaspect": 2767,
      "Ġsea": 2768,
      "Ġir": 2769,
      "Ġsteps": 2770,
      "Ġobserv": 2771,
      "Ġregard": 2772,
      "Ġprop": 2773,
      "ĠChe": 2774,
      "Ġbelieve": 2775,
      "Ġbase": 2776,
      "ography": 2777,
      "Ġrequires": 2778,
      "ĠGu": 2779,
      "Ġarr": 2780,
      "Ġswe": 2781,
      "cause": 2782,
      "Ġachieve": 2783,
      "ĠDNA": 2784,
      "Ġx": 2785,
      "Ġload": 2786,
      "ĠAddition": 2787,
      "Ġdistrib": 2788,
      "ĠAss": 2789,
      "Ġkids": 2790,
      "Ġmentioned": 2791,
      "15": 2792,
      "Ġmeat": 2793,
      "Ġdaily": 2794,
      "Ġ#": 2795,
      "acy": 2796,
      "Ġresponse": 2797,
      "Ġrout": 2798,
      "Ġemot": 2799,
      "arily": 2800,
      "Ġcard": 2801,
      "Ġsmaller": 2802,
      "Ġice": 2803,
      "Ġfront": 2804,
      "Ġoutput": 2805,
      "alking": 2806,
      "ĠComp": 2807,
      "Ġdoc": 2808,
      "Ġmilk": 2809,
      "Ġglass": 2810,
      "Ġadditional": 2811,
      "ening": 2812,
      "ON": 2813,
      "aries": 2814,
      "ences": 2815,
      "Ġbelie": 2816,
      "Ġadded": 2817,
      "Ġ13": 2818,
      "ĠAfric": 2819,
      "tenance": 2820,
      "Ġdefin": 2821,
      "Ġplastic": 2822,
      "Ġ25": 2823,
      "ĠAust": 2824,
      "Ġbehind": 2825,
      "ipe": 2826,
      "Ġaction": 2827,
      "ĠAlso": 2828,
      "Ġfamil": 2829,
      "ĠStates": 2830,
      "Ġwond": 2831,
      "Ġexplore": 2832,
      "ĠGo": 2833,
      "Ġparticularly": 2834,
      "ĠThen": 2835,
      "Ġmoist": 2836,
      "Ġtou": 2837,
      "Ġblue": 2838,
      "Ġmaxim": 2839,
      "ĠDep": 2840,
      "Ġlink": 2841,
      "pid": 2842,
      "emic": 2843,
      "rig": 2844,
      "Ġdiseases": 2845,
      "life": 2846,
      "Ġeating": 2847,
      "Ġmess": 2848,
      "Ġ17": 2849,
      "'d": 2850,
      "Ġcolors": 2851,
      "Ġinsect": 2852,
      "Ġoption": 2853,
      "ricult": 2854,
      "Ġpoints": 2855,
      "Ġdirectly": 2856,
      "Ġdiagn": 2857,
      "Ġregion": 2858,
      "Ġ,": 2859,
      "ID": 2860,
      "Ġcapac": 2861,
      "ĠNorth": 2862,
      "oles": 2863,
      "Ġassist": 2864,
      "where": 2865,
      "inct": 2866,
      "iot": 2867,
      "Ġhighly": 2868,
      "Ġimplement": 2869,
      "Ġreview": 2870,
      "oon": 2871,
      "Ġtiss": 2872,
      "Ġtowards": 2873,
      "Ġleading": 2874,
      "Ġdest": 2875,
      "Ġinput": 2876,
      "ĠPer": 2877,
      "Ġconcent": 2878,
      "Ġnegative": 2879,
      "sequ": 2880,
      "Ġrespect": 2881,
      "iring": 2882,
      "Ġbul": 2883,
      "Ġapplication": 2884,
      "ĠAccording": 2885,
      "iding": 2886,
      "Ġingred": 2887,
      "ĠScience": 2888,
      "Ġevidence": 2889,
      "Ġparents": 2890,
      "ec": 2891,
      "Ġeggs": 2892,
      "Ġemerg": 2893,
      "Ġvehicle": 2894,
      "nter": 2895,
      "Ġaware": 2896,
      "ulate": 2897,
      "ĠSchool": 2898,
      "Ġstudent": 2899,
      "Ġcontinue": 2900,
      "Ġsolar": 2901,
      "Ġappropri": 2902,
      "Ġinvolved": 2903,
      "Ġreach": 2904,
      "Ġdou": 2905,
      "Ġweeks": 2906,
      "Ġmodels": 2907,
      "rition": 2908,
      "Ġsources": 2909,
      "ĠFr": 2910,
      "Ġful": 2911,
      "alu": 2912,
      "illing": 2913,
      "iddle": 2914,
      "Ġpoly": 2915,
      "Ġhar": 2916,
      "Ġproduced": 2917,
      "itation": 2918,
      "Ġstat": 2919,
      "Ġcats": 2920,
      "ai": 2921,
      "Ġforest": 2922,
      "nal": 2923,
      "ades": 2924,
      "Ġeveryone": 2925,
      "ĠFirst": 2926,
      "vant": 2927,
      "Ġcalcul": 2928,
      "water": 2929,
      "Ġpurch": 2930,
      "Ġkit": 2931,
      "ription": 2932,
      "clusion": 2933,
      "Ġunit": 2934,
      "Ġrecommend": 2935,
      "ĠMar": 2936,
      "ĠOther": 2937,
      "yp": 2938,
      "Ġsearch": 2939,
      "Ġmembers": 2940,
      "Ġ<": 2941,
      "Ġdecre": 2942,
      "Ġrecommended": 2943,
      "Ġlives": 2944,
      "Ġsugar": 2945,
      "ma": 2946,
      "Ġvit": 2947,
      "Ġimages": 2948,
      "head": 2949,
      "Ġgenetic": 2950,
      "Ġlands": 2951,
      "vere": 2952,
      "time": 2953,
      "rist": 2954,
      "ĠâĢ¦": 2955,
      "artment": 2956,
      "Ġmor": 2957,
      "Ġelse": 2958,
      "Ġconstant": 2959,
      "back": 2960,
      "Ġpret": 2961,
      "ĠStep": 2962,
      "Ġguide": 2963,
      "ops": 2964,
      "Ġeasier": 2965,
      "unch": 2966,
      "Ġstrength": 2967,
      "ĠResearch": 2968,
      "Ġroad": 2969,
      "Ġteeth": 2970,
      "Ġearth": 2971,
      "**": 2972,
      "Ġtransform": 2973,
      "orpor": 2974,
      "ĠAlthough": 2975,
      "Ġitems": 2976,
      "Ġcountries": 2977,
      "anks": 2978,
      "Ġdeath": 2979,
      "Ġdidn": 2980,
      "come": 2981,
      "new": 2982,
      "Ġblock": 2983,
      "ĠLear": 2984,
      "Ġ24": 2985,
      "Ġliqu": 2986,
      "Ġnumbers": 2987,
      "Ġstore": 2988,
      "Ġrecent": 2989,
      "ror": 2990,
      "reg": 2991,
      "Ġreplace": 2992,
      "Ġwebsite": 2993,
      "ĠSm": 2994,
      "Ġhair": 2995,
      "Ġhun": 2996,
      "Ġtemperatures": 2997,
      "Ġprior": 2998,
      "Ġgoal": 2999,
      "Ġtips": 3000,
      "ygen": 3001,
      "Ġbed": 3002,
      "Ġexercise": 3003,
      "Ġevents": 3004,
      "pan": 3005,
      "Ġgreater": 3006,
      "Ġcontroll": 3007,
      "osure": 3008,
      "Ġrunning": 3009,
      "ĠWater": 3010,
      "Ġword": 3011,
      "wor": 3012,
      "cles": 3013,
      "ĠBecause": 3014,
      "Ġcompletely": 3015,
      "Ġaim": 3016,
      "Ġdang": 3017,
      "Ġmiss": 3018,
      "Ġprocesses": 3019,
      "Ġuseful": 3020,
      "Ġtransport": 3021,
      "Ġscreen": 3022,
      "Ġfix": 3023,
      "Ġlines": 3024,
      "Ġmeaning": 3025,
      "ellig": 3026,
      "Ġ--": 3027,
      "Ġflowers": 3028,
      "Ġmovement": 3029,
      "att": 3030,
      "Ġbreat": 3031,
      "Ġseeds": 3032,
      "aur": 3033,
      "rast": 3034,
      "Ġsupply": 3035,
      "aks": 3036,
      "irm": 3037,
      "Ġalg": 3038,
      "Ġspeak": 3039,
      "rm": 3040,
      "pper": 3041,
      "terns": 3042,
      "Ġactive": 3043,
      "Ġbrand": 3044,
      "Ġprefer": 3045,
      "Ġserious": 3046,
      "Ġsand": 3047,
      "Ġ40": 3048,
      "Ġsequ": 3049,
      "Ġwear": 3050,
      "18": 3051,
      "Ġpatient": 3052,
      "Ġvalues": 3053,
      "ĠGl": 3054,
      "ensity": 3055,
      "ĠDi": 3056,
      "Ġproperly": 3057,
      "vest": 3058,
      "Ġfert": 3059,
      "Ġinitial": 3060,
      "Ġbalance": 3061,
      "ociety": 3062,
      "Ġspring": 3063,
      "Ġanaly": 3064,
      "Ġrain": 3065,
      "Ġvisual": 3066,
      "ocks": 3067,
      "Ġseries": 3068,
      "Ġmedia": 3069,
      "Ġreflect": 3070,
      "ĠUnder": 3071,
      "Ġprinc": 3072,
      "Ġfriend": 3073,
      "orage": 3074,
      "rial": 3075,
      "Ġefficiency": 3076,
      "iles": 3077,
      "ster": 3078,
      "abric": 3079,
      "ĠAdditionally": 3080,
      "ĠSouth": 3081,
      "Ġtalk": 3082,
      "Ġcamera": 3083,
      "Ġrefer": 3084,
      "icate": 3085,
      "Ġevolution": 3086,
      "Ġvisit": 3087,
      "Ġclaim": 3088,
      "ĠJust": 3089,
      "Ġcross": 3090,
      "ancy": 3091,
      "itute": 3092,
      "bol": 3093,
      "Ġcommunication": 3094,
      "Ġsix": 3095,
      "Ġsus": 3096,
      "Ġguid": 3097,
      "Ġcontains": 3098,
      "load": 3099,
      "16": 3100,
      "Ġlocation": 3101,
      "ĠSim": 3102,
      "Ġchallenges": 3103,
      "AC": 3104,
      "ections": 3105,
      "Ġstyle": 3106,
      "rees": 3107,
      "Ġpiece": 3108,
      "set": 3109,
      "ĠWorld": 3110,
      ".)": 3111,
      "sych": 3112,
      "Ġthreat": 3113,
      "Ġcarry": 3114,
      "Ġgoes": 3115,
      "tings": 3116,
      "iful": 3117,
      "mb": 3118,
      "Ġmoving": 3119,
      "Ġcritical": 3120,
      "abet": 3121,
      "Ġprograms": 3122,
      "Ġdrive": 3123,
      "Ġforms": 3124,
      "ript": 3125,
      "ucle": 3126,
      "Ġcosts": 3127,
      "imin": 3128,
      "Ġpatterns": 3129,
      "ached": 3130,
      "Ġusers": 3131,
      "Ġthick": 3132,
      "Ġscientific": 3133,
      "ĠAustral": 3134,
      "uted": 3135,
      "Ġhands": 3136,
      "ĠWhe": 3137,
      "Ġbenefit": 3138,
      "hens": 3139,
      "Ġimmedi": 3140,
      "Ġdemonst": 3141,
      "Ġbuilt": 3142,
      "ĠWho": 3143,
      "ĠSince": 3144,
      "ĠRed": 3145,
      "Ġabsor": 3146,
      "Ġprojects": 3147,
      "Ġdeal": 3148,
      "Ġinnov": 3149,
      "atives": 3150,
      "Ġorganic": 3151,
      "elt": 3152,
      "Ġgovernment": 3153,
      "ping": 3154,
      "board": 3155,
      "oe": 3156,
      "Ġdepending": 3157,
      "ĠEven": 3158,
      "fficient": 3159,
      "Ġplat": 3160,
      "Ġinstruct": 3161,
      "OR": 3162,
      "Ġcompanies": 3163,
      "Ġmotor": 3164,
      "Ġfruit": 3165,
      "Th": 3166,
      "Ġmemory": 3167,
      "ĠEach": 3168,
      "\",": 3169,
      "ĠGra": 3170,
      "Ġbird": 3171,
      "ightly": 3172,
      "Ġdirection": 3173,
      "Ġallowing": 3174,
      "Ġprice": 3175,
      "Ġfriends": 3176,
      "ĠMake": 3177,
      "Ġleave": 3178,
      "epend": 3179,
      "Ġsurround": 3180,
      "Ġmusic": 3181,
      "Ġnews": 3182,
      "Ġtheory": 3183,
      "Ġreasons": 3184,
      "Ġchick": 3185,
      "rum": 3186,
      "ĠArt": 3187,
      "Ġdisplay": 3188,
      "Ġdeveloping": 3189,
      "Ġwatch": 3190,
      "na": 3191,
      "Ġvirus": 3192,
      "ĠAmerica": 3193,
      "Ġattract": 3194,
      "Ġcommonly": 3195,
      "Ġappropriate": 3196,
      "EN": 3197,
      "Ġreturn": 3198,
      "Ġsuff": 3199,
      "Ġarg": 3200,
      "Ġdistance": 3201,
      "oming": 3202,
      "airs": 3203,
      "Ġbag": 3204,
      "wise": 3205,
      "ĠAnother": 3206,
      "Ġmaintenance": 3207,
      "ube": 3208,
      "Ġenhance": 3209,
      "ĠTra": 3210,
      "Ġseems": 3211,
      "IS": 3212,
      "Ġgets": 3213,
      "Ġhappens": 3214,
      "Ġprotection": 3215,
      "iable": 3216,
      "ocol": 3217,
      "Ġvolt": 3218,
      "rs": 3219,
      "ĠDon": 3220,
      "Ġlimited": 3221,
      "cape": 3222,
      "ĠAc": 3223,
      "14": 3224,
      "ext": 3225,
      "Ġpublished": 3226,
      "ĠUsing": 3227,
      "Ġimportance": 3228,
      "Ġcry": 3229,
      "Ġobjects": 3230,
      "onds": 3231,
      "Ġpage": 3232,
      "Ġoriginal": 3233,
      "istry": 3234,
      "itude": 3235,
      "Ġbecomes": 3236,
      "ĠGe": 3237,
      "Ġpretty": 3238,
      "Ġpen": 3239,
      "Ġevalu": 3240,
      "Ġmental": 3241,
      "Ġdetect": 3242,
      "ls": 3243,
      "term": 3244,
      "Ġcame": 3245,
      "Ġproced": 3246,
      "uge": 3247,
      "Ġvacc": 3248,
      "odies": 3249,
      "Ġupon": 3250,
      "Ġelectrical": 3251,
      "Ġremember": 3252,
      "Ġnetwork": 3253,
      "Ġresistance": 3254,
      "AN": 3255,
      "Ġstates": 3256,
      "Ġmount": 3257,
      "Ġce": 3258,
      "eration": 3259,
      "Ġgrass": 3260,
      "Ġfine": 3261,
      "ĠIntern": 3262,
      "ĠAir": 3263,
      "Ġult": 3264,
      "Ġsigns": 3265,
      "Ġcircuit": 3266,
      "issions": 3267,
      "Ġcooking": 3268,
      "Ġcenter": 3269,
      "Ġgar": 3270,
      "rops": 3271,
      "Ġelement": 3272,
      "Ġoxygen": 3273,
      "iny": 3274,
      "Ġaccur": 3275,
      "Ġexcept": 3276,
      "ĠTheir": 3277,
      "ĠAg": 3278,
      "Ġideas": 3279,
      "Ġseed": 3280,
      "ologies": 3281,
      "Â°": 3282,
      "Ġpractices": 3283,
      "Ġbottom": 3284,
      "mosp": 3285,
      "IC": 3286,
      "Ġutil": 3287,
      "Ġsoon": 3288,
      "Ġvision": 3289,
      "Ġroot": 3290,
      "Ġrare": 3291,
      "Ġsection": 3292,
      "Ġinfection": 3293,
      "Ġorigin": 3294,
      "Ġpick": 3295,
      "Ġlate": 3296,
      "Ġobtain": 3297,
      "Ġsave": 3298,
      "Ġvary": 3299,
      "Ġver": 3300,
      "Ġexcess": 3301,
      "yond": 3302,
      "zz": 3303,
      "asks": 3304,
      "Ġgives": 3305,
      "iate": 3306,
      "Ġbaby": 3307,
      "Ġrat": 3308,
      "Ġkn": 3309,
      "ĠAct": 3310,
      "Ġtail": 3311,
      "ula": 3312,
      "Ġexcell": 3313,
      "Ġready": 3314,
      "Ġcity": 3315,
      "ĠAut": 3316,
      "Ġfavor": 3317,
      "Ġshap": 3318,
      "vey": 3319,
      "Ġ:": 3320,
      "Ġaccept": 3321,
      "Ġanc": 3322,
      "Ġarch": 3323,
      "dd": 3324,
      "Ġfabric": 3325,
      "Ġdisord": 3326,
      "Ġlens": 3327,
      "aly": 3328,
      "irt": 3329,
      "Ġbill": 3330,
      "ĠTw": 3331,
      "cking": 3332,
      "Ġtesting": 3333,
      "hol": 3334,
      "Ġhost": 3335,
      "Ġsustainable": 3336,
      "ĠTechn": 3337,
      "ero": 3338,
      "Ġreducing": 3339,
      "rol": 3340,
      "ields": 3341,
      "Ġimmune": 3342,
      "Ġwriting": 3343,
      "mission": 3344,
      "Ġjo": 3345,
      "Ġpriv": 3346,
      "Ġideal": 3347,
      "Ġtouch": 3348,
      "ĠSw": 3349,
      "lor": 3350,
      "rec": 3351,
      "ĠHigh": 3352,
      "idge": 3353,
      "ulated": 3354,
      "Ġworth": 3355,
      "hood": 3356,
      "Ġthinking": 3357,
      "Ġexpress": 3358,
      "Ġsolutions": 3359,
      "60": 3360,
      "ky": 3361,
      "umin": 3362,
      "mber": 3363,
      "Ġsent": 3364,
      "Ġsuitable": 3365,
      "rage": 3366,
      "Ġinvolves": 3367,
      "Ġmanufacture": 3368,
      "Ġrequirements": 3369,
      "Ġhope": 3370,
      "Ġresponsible": 3371,
      "Ġplatform": 3372,
      "Ġboard": 3373,
      "Ġimpl": 3374,
      "isions": 3375,
      "Ġstorage": 3376,
      "oud": 3377,
      "Ġrev": 3378,
      "Ġcleaning": 3379,
      "Ġfro": 3380,
      "13": 3381,
      "Ġpow": 3382,
      "Ġsignificantly": 3383,
      "Ġlack": 3384,
      "Ġpull": 3385,
      "Ġhearing": 3386,
      "overy": 3387,
      "Ġgames": 3388,
      "Ġensuring": 3389,
      "care": 3390,
      "Ġprogress": 3391,
      "ĠFin": 3392,
      "ĠDuring": 3393,
      "Ġstarting": 3394,
      "Ġvalu": 3395,
      "Ġlimit": 3396,
      "--------": 3397,
      "ĠPhot": 3398,
      "Ġgold": 3399,
      "Ġfinal": 3400,
      "Ġcycle": 3401,
      "25": 3402,
      "ana": 3403,
      "Ġrich": 3404,
      "ogen": 3405,
      "Ġnothing": 3406,
      "ha": 3407,
      "lege": 3408,
      "ĠRead": 3409,
      "ĠMod": 3410,
      "AM": 3411,
      "Ġfile": 3412,
      "ĠMin": 3413,
      "ony": 3414,
      "Ġpoor": 3415,
      "Ġrock": 3416,
      "Ġthr": 3417,
      "hold": 3418,
      "Ġliquid": 3419,
      "Ġdri": 3420,
      "ixt": 3421,
      "Ġinvestig": 3422,
      "Ġyellow": 3423,
      "Ġtransfer": 3424,
      "empt": 3425,
      "Ġstage": 3426,
      "Ġbeautiful": 3427,
      "craft": 3428,
      "Ġtook": 3429,
      "ok": 3430,
      "Ġcommit": 3431,
      "ĠPart": 3432,
      "Ġfactor": 3433,
      "Ġantib": 3434,
      "Ġgraph": 3435,
      "ifically": 3436,
      "17": 3437,
      "ously": 3438,
      "Ġoutd": 3439,
      "ĠSpe": 3440,
      "Ġspot": 3441,
      "Ġreaction": 3442,
      "bor": 3443,
      "ibly": 3444,
      "Ġadding": 3445,
      "ĠEvery": 3446,
      "Ġsevere": 3447,
      "enn": 3448,
      "Ġfrequency": 3449,
      "Ġnutrients": 3450,
      "ball": 3451,
      "Ġweb": 3452,
      "Ġconstruction": 3453,
      "Ġpowerful": 3454,
      "rought": 3455,
      "abetes": 3456,
      "Ġapplied": 3457,
      "Ġroll": 3458,
      "more": 3459,
      "Ġpattern": 3460,
      "Ġtrack": 3461,
      "Ġingredients": 3462,
      "Ġmoment": 3463,
      "acing": 3464,
      "Ġcommer": 3465,
      "ĠDoes": 3466,
      "Ġatmosp": 3467,
      "Ġtechnique": 3468,
      "Ġiron": 3469,
      "Ġthird": 3470,
      "inking": 3471,
      "Ġsetting": 3472,
      "Ġswitch": 3473,
      "Ġsalt": 3474,
      "We": 3475,
      "Ġaren": 3476,
      "Ġconvers": 3477,
      "40": 3478,
      "Ġprocessing": 3479,
      "Ġsmooth": 3480,
      "osystem": 3481,
      "Ġdiam": 3482,
      "ister": 3483,
      "Ġheavy": 3484,
      "Ġfully": 3485,
      "Ġbehavi": 3486,
      "rehens": 3487,
      "Ġrapid": 3488,
      "Ġnutrition": 3489,
      "IT": 3490,
      "Ġled": 3491,
      "mat": 3492,
      "char": 3493,
      "Ġwrong": 3494,
      "pite": 3495,
      "ĠWest": 3496,
      "rew": 3497,
      "Ġcharge": 3498,
      "Ġbroad": 3499,
      "ault": 3500,
      "inks": 3501,
      "oun": 3502,
      "Ġestim": 3503,
      "Ġplaces": 3504,
      "Ġtox": 3505,
      "lands": 3506,
      "Ġpieces": 3507,
      "cular": 3508,
      "ĠĠĠĠ": 3509,
      "Ġdepend": 3510,
      "Ġvegetables": 3511,
      "Ġapply": 3512,
      "Ġhorse": 3513,
      "Ġinteresting": 3514,
      "ĠKeep": 3515,
      "Ġlocated": 3516,
      "apter": 3517,
      "Ġgene": 3518,
      "Ġimag": 3519,
      "Ġvoltage": 3520,
      "Ġwire": 3521,
      "Ġcentury": 3522,
      "Ġcausing": 3523,
      "Ġsituation": 3524,
      "ĠRep": 3525,
      "80": 3526,
      "Ġ60": 3527,
      "arr": 3528,
      "Ġfunctions": 3529,
      "Ġocean": 3530,
      "Ġdead": 3531,
      "hetic": 3532,
      "Ġcurrently": 3533,
      "Ġagricult": 3534,
      "Ġsuccessful": 3535,
      "ashion": 3536,
      "Ġexperiment": 3537,
      "standing": 3538,
      "Ġbud": 3539,
      "arian": 3540,
      "Ġconnected": 3541,
      "Ġvia": 3542,
      "Ġpromot": 3543,
      "Ġlat": 3544,
      "Ġowners": 3545,
      "ffect": 3546,
      "Ġsex": 3547,
      "Ġinterf": 3548,
      "Ġjoint": 3549,
      "Ġep": 3550,
      "Ġincorpor": 3551,
      "Ġsecurity": 3552,
      "che": 3553,
      "ened": 3554,
      "Ġscale": 3555,
      "Ġoccurs": 3556,
      "Ġexactly": 3557,
      "iction": 3558,
      "Ġwalk": 3559,
      "Ġanyone": 3560,
      "200": 3561,
      "Ġintellig": 3562,
      "amed": 3563,
      "Ġculture": 3564,
      "pping": 3565,
      "ĠJoh": 3566,
      "Ġfaster": 3567,
      "odes": 3568,
      "Ġcoming": 3569,
      "ĠGet": 3570,
      "Ġliter": 3571,
      "Ġcapacity": 3572,
      "Ġdemand": 3573,
      "duc": 3574,
      "Ġstraight": 3575,
      "Ġexposure": 3576,
      "Ġdocument": 3577,
      "Ġeffectively": 3578,
      "ĠBi": 3579,
      "Ġcommercial": 3580,
      "Ġdescribed": 3581,
      "Ġreve": 3582,
      "ificial": 3583,
      "Ġdecision": 3584,
      "Ġresid": 3585,
      "ester": 3586,
      "roll": 3587,
      "Ġpump": 3588,
      "ycl": 3589,
      "ĠEnglish": 3590,
      "Ġinsp": 3591,
      "ĠBrit": 3592,
      "Ġopportunity": 3593,
      "Ġexpert": 3594,
      "imens": 3595,
      "Ġexcellent": 3596,
      "ancing": 3597,
      "bl": 3598,
      "Ġsymbol": 3599,
      "ĠTrans": 3600,
      "enge": 3601,
      "Ġnucle": 3602,
      "ĠIts": 3603,
      "Ġtherefore": 3604,
      "Ġsolid": 3605,
      "Ġtaste": 3606,
      "Ġtask": 3607,
      "Ġmuscle": 3608,
      "Ġbreed": 3609,
      "AL": 3610,
      "Ġreceive": 3611,
      "estic": 3612,
      "Ġmis": 3613,
      "ĠNOT": 3614,
      "Ġreduced": 3615,
      "Ġtherm": 3616,
      "Ġcombination": 3617,
      "Ġproperty": 3618,
      "ada": 3619,
      "osition": 3620,
      "Ġstrategies": 3621,
      "ender": 3622,
      "Ġincluded": 3623,
      "oration": 3624,
      "Ġcars": 3625,
      "Ġswim": 3626,
      "Ġshar": 3627,
      "Ġmouth": 3628,
      "Ġmoisture": 3629,
      "Ġnote": 3630,
      "ĠProf": 3631,
      "Ġexamples": 3632,
      "hel": 3633,
      "ĠChrist": 3634,
      "Ġwet": 3635,
      "met": 3636,
      "ĠSec": 3637,
      "ĠWell": 3638,
      "Ġbutter": 3639,
      "Ġlooks": 3640,
      "ET": 3641,
      "Ġcloth": 3642,
      "ĠAv": 3643,
      "Ġtherapy": 3644,
      "Ġcontext": 3645,
      "Ġchance": 3646,
      "Ġexperiences": 3647,
      "itis": 3648,
      "Ġbecame": 3649,
      "Ġcollabor": 3650,
      "ĠGerm": 3651,
      "erson": 3652,
      "Ġfertil": 3653,
      "Ġdetails": 3654,
      "Ġthus": 3655,
      "book": 3656,
      "Ġcamp": 3657,
      "ĠState": 3658,
      "Ġforward": 3659,
      "Ġadvanced": 3660,
      "Ġfilm": 3661,
      "ĠTH": 3662,
      "ober": 3663,
      "Ġclin": 3664,
      "Ġcontribute": 3665,
      "Ġjourney": 3666,
      "Ġwat": 3667,
      "Ġund": 3668,
      "Ġdrain": 3669,
      "ĠSystem": 3670,
      "Ġtank": 3671,
      "Ġschools": 3672,
      "olar": 3673,
      "Ġpref": 3674,
      "Ġpresence": 3675,
      "amb": 3676,
      "Ġflex": 3677,
      "urt": 3678,
      "Ġpsych": 3679,
      "zy": 3680,
      "ĠMon": 3681,
      "iar": 3682,
      "anging": 3683,
      "ĠBu": 3684,
      "Ġdoctor": 3685,
      "Ġpaint": 3686,
      "Ġinches": 3687,
      "Ġbirth": 3688,
      "Ġphotos": 3689,
      "Ġelectricity": 3690,
      "ãģ": 3691,
      "ĠMic": 3692,
      "Ġroof": 3693,
      "avig": 3694,
      "Ġgiving": 3695,
      "Ġkeeping": 3696,
      "Ġgradu": 3697,
      "Ġwrite": 3698,
      "OS": 3699,
      "Ġparticles": 3700,
      "xi": 3701,
      "othes": 3702,
      "Ġeffort": 3703,
      "Ġbeyond": 3704,
      "uration": 3705,
      "ĠPar": 3706,
      "Ġarm": 3707,
      "Ġgenes": 3708,
      "Ġextremely": 3709,
      "iforn": 3710,
      "Ġconsumption": 3711,
      "fish": 3712,
      "ĠAnt": 3713,
      "Ġexpensive": 3714,
      "cohol": 3715,
      "Ġstream": 3716,
      "orith": 3717,
      "Ġtissue": 3718,
      "Ġthous": 3719,
      "Ġnotice": 3720,
      "Ġwin": 3721,
      "ided": 3722,
      "erences": 3723,
      "Ġmaximum": 3724,
      "ancial": 3725,
      "Ġalternative": 3726,
      "Ġnative": 3727,
      "Ġupd": 3728,
      "Ġalthough": 3729,
      "Ġrecently": 3730,
      "Ġaqu": 3731,
      "Ġbrown": 3732,
      "Ġheight": 3733,
      "Ġcoast": 3734,
      "roduction": 3735,
      "ux": 3736,
      "ĠWhether": 3737,
      "ĠSu": 3738,
      "Ġnoise": 3739,
      "Ġfigure": 3740,
      "Ġbooks": 3741,
      "lier": 3742,
      "ĠCle": 3743,
      "Ġsynt": 3744,
      "Ġexpected": 3745,
      "iling": 3746,
      "ÂŃ": 3747,
      "Ġvolume": 3748,
      "Ġincreases": 3749,
      "right": 3750,
      "Ġecosystem": 3751,
      "Ġtit": 3752,
      "gra": 3753,
      "Ġpregn": 3754,
      "Ġdegrees": 3755,
      "ĠWhere": 3756,
      "Ġsaw": 3757,
      "Ġmob": 3758,
      "Ġtests": 3759,
      "oman": 3760,
      "Ġhuge": 3761,
      "Ġtri": 3762,
      "Ġbran": 3763,
      "Ġonto": 3764,
      "apan": 3765,
      "izations": 3766,
      "ails": 3767,
      "Ġhandle": 3768,
      "zing": 3769,
      "Ġstructures": 3770,
      "Ġspect": 3771,
      "Ġmother": 3772,
      "Ġaffected": 3773,
      "Ġmiddle": 3774,
      "Ġolder": 3775,
      "ĠCenter": 3776,
      "Ġfair": 3777,
      "Ġcommunities": 3778,
      "Ġlost": 3779,
      "tes": 3780,
      "Ġsteel": 3781,
      "house": 3782,
      "cules": 3783,
      "haps": 3784,
      "Ġeth": 3785,
      "Ġattempt": 3786,
      "Ġsites": 3787,
      "pped": 3788,
      "Ġmut": 3789,
      "ĠFood": 3790,
      "Ġrelease": 3791,
      "Ġlargest": 3792,
      "Ġmonit": 3793,
      "dom": 3794,
      "ifornia": 3795,
      "Ġslightly": 3796,
      "Ġfemale": 3797,
      "Ġclim": 3798,
      "Ġrelatively": 3799,
      "Ġdifferences": 3800,
      "Ġremains": 3801,
      "Ġsmart": 3802,
      "ĠTherefore": 3803,
      "Ġconservation": 3804,
      "ĠDog": 3805,
      "Ġtrend": 3806,
      "alt": 3807,
      "Ġtasks": 3808,
      "Ġreported": 3809,
      "ipl": 3810,
      "It": 3811,
      "Ġemissions": 3812,
      "bits": 3813,
      "inding": 3814,
      "Ġdiv": 3815,
      "Ġcharacteristics": 3816,
      "Ġcutting": 3817,
      "Ġplaced": 3818,
      "Ġstim": 3819,
      "abilities": 3820,
      "Ġmedium": 3821,
      "Ġpicture": 3822,
      "rick": 3823,
      "Ġchanging": 3824,
      "ĠAny": 3825,
      "ica": 3826,
      "Ġplanet": 3827,
      "ipes": 3828,
      "Ġopportunities": 3829,
      "Ġdepends": 3830,
      "Ġflavor": 3831,
      "Ġversion": 3832,
      "enty": 3833,
      "Ġdepth": 3834,
      "uries": 3835,
      "Ġdiscovered": 3836,
      "ams": 3837,
      "rench": 3838,
      "Ġapprox": 3839,
      "Ġfluid": 3840,
      "Ġmotion": 3841,
      "Ġteaching": 3842,
      "ban": 3843,
      "gery": 3844,
      "Ġhyp": 3845,
      "Ġproteins": 3846,
      "Ġstri": 3847,
      "off": 3848,
      "Ġclos": 3849,
      "In": 3850,
      "Ġphone": 3851,
      "rates": 3852,
      "cast": 3853,
      "Ġhit": 3854,
      "crete": 3855,
      "ĠIndia": 3856,
      "IG": 3857,
      "Ġgoals": 3858,
      "ĠServ": 3859,
      "ĠProg": 3860,
      "Ġdriving": 3861,
      "Ġteachers": 3862,
      "Ġcred": 3863,
      "Ġadvantage": 3864,
      "Ġvaluable": 3865,
      "Ġmeasures": 3866,
      "Ġcateg": 3867,
      "Ġcomfortable": 3868,
      "bing": 3869,
      "Ġsnow": 3870,
      "Ġflat": 3871,
      "rier": 3872,
      "ĠGod": 3873,
      "Ġround": 3874,
      "Ġinstance": 3875,
      "Ġexpand": 3876,
      "Ġvirt": 3877,
      "Ġconnection": 3878,
      "ĠCalifornia": 3879,
      "Ġmid": 3880,
      "aught": 3881,
      "Ġsounds": 3882,
      "riend": 3883,
      "Ġbow": 3884,
      "Ġadults": 3885,
      "omy": 3886,
      "Ġadop": 3887,
      "ĠAbout": 3888,
      "Ġcomprehens": 3889,
      "oors": 3890,
      "Ġstar": 3891,
      "Ġstuff": 3892,
      "ĠElect": 3893,
      "Ġtechnologies": 3894,
      "Ġflight": 3895,
      "Ġbackground": 3896,
      "Ġsess": 3897,
      "Ġfilter": 3898,
      "Ġsold": 3899,
      "Ġindepend": 3900,
      "Ġresulting": 3901,
      "flow": 3902,
      "Ġnit": 3903,
      "celer": 3904,
      "Ã©": 3905,
      "ĠEd": 3906,
      "ĠLike": 3907,
      "pre": 3908,
      "Ġast": 3909,
      "Ġalgorith": 3910,
      "lebr": 3911,
      "Ġdat": 3912,
      "urally": 3913,
      "Ġalone": 3914,
      "Ġtrig": 3915,
      "ĠJapan": 3916,
      "Ġprofession": 3917,
      "Ġphase": 3918,
      "Ġmag": 3919,
      "hyd": 3920,
      "Ġlabor": 3921,
      "Ġmanage": 3922,
      "Ġbright": 3923,
      "Ġagg": 3924,
      "Ġachie": 3925,
      "vity": 3926,
      "Ġwent": 3927,
      "Ġrules": 3928,
      "Ġhistor": 3929,
      "hest": 3930,
      "Ġdistinct": 3931,
      "Ġtrou": 3932,
      "Ġinsects": 3933,
      "isc": 3934,
      "Ġefforts": 3935,
      "Ġsweet": 3936,
      "Ġinfluence": 3937,
      "70": 3938,
      "Ġder": 3939,
      "Ġrecycl": 3940,
      "Ġbone": 3941,
      "ĠHum": 3942,
      "roph": 3943,
      "EM": 3944,
      "Ġrates": 3945,
      "ĠJan": 3946,
      "Ġaspects": 3947,
      "Ġkill": 3948,
      "wers": 3949,
      "Ġroots": 3950,
      "ĠPeople": 3951,
      "].": 3952,
      "iments": 3953,
      "Ġaccom": 3954,
      "hop": 3955,
      "Ġdate": 3956,
      "Ġdynam": 3957,
      "ĠEduc": 3958,
      "Ġ>": 3959,
      "Ġdiabetes": 3960,
      "Ġequal": 3961,
      "Ġmale": 3962,
      "Ġpopulations": 3963,
      "onic": 3964,
      "Ġevol": 3965,
      "Ġexisting": 3966,
      "Ġfeeling": 3967,
      "raction": 3968,
      "Ġcomponent": 3969,
      "Ġillust": 3970,
      "Ġbegan": 3971,
      "Ġdeb": 3972,
      "Ġ21": 3973,
      "Ġwritten": 3974,
      "ĠAdd": 3975,
      "oom": 3976,
      "Ġspir": 3977,
      "ille": 3978,
      "EC": 3979,
      "22": 3980,
      "Ġmatch": 3981,
      "Wh": 3982,
      "Ġplanning": 3983,
      "St": 3984,
      "ĠRel": 3985,
      "ads": 3986,
      "wide": 3987,
      "Ġdoor": 3988,
      "Ġoperation": 3989,
      "ĠInstitute": 3990,
      "free": 3991,
      "cop": 3992,
      "Ġattack": 3993,
      "ressive": 3994,
      "Ġactual": 3995,
      "Ġsurpr": 3996,
      "nown": 3997,
      "ĠWill": 3998,
      "Ġfight": 3999,
      "Ġfinancial": 4000,
      "urance": 4001,
      "ĠBefore": 4002,
      "equ": 4003,
      "ype": 4004,
      "undred": 4005,
      "Ġserve": 4006,
      "being": 4007,
      "Ġfinding": 4008,
      "ĠIns": 4009,
      "ĠII": 4010,
      "ĠChar": 4011,
      "Ġrespond": 4012,
      "Ġtooth": 4013,
      "ĠExpl": 4014,
      "bed": 4015,
      "Ġbeginning": 4016,
      "ken": 4017,
      "Ġsort": 4018,
      "Ġpal": 4019,
      "Ġfashion": 4020,
      "ĠGreen": 4021,
      "ĠSur": 4022,
      "semb": 4023,
      "mar": 4024,
      "Ġimmediately": 4025,
      "unction": 4026,
      "ĠTake": 4027,
      "Ġconver": 4028,
      "Ġcompar": 4029,
      "Ġcollection": 4030,
      "encies": 4031,
      "resp": 4032,
      "Ġsample": 4033,
      "Ġrub": 4034,
      "ĠFurther": 4035,
      "ogle": 4036,
      "Ġmolecules": 4037,
      "Ġhear": 4038,
      "Ġrise": 4039,
      "Ġcentral": 4040,
      "Ġwonder": 4041,
      "Ġchallenge": 4042,
      "Ġmaintaining": 4043,
      "Ġformed": 4044,
      "Ġparam": 4045,
      "xiety": 4046,
      "ses": 4047,
      "Ġfurn": 4048,
      "Ġfoss": 4049,
      "Ġtrust": 4050,
      "Ġdish": 4051,
      "Ġpool": 4052,
      "Ġpig": 4053,
      "Ġwel": 4054,
      "Ġded": 4055,
      "Ġappearance": 4056,
      "Ġpush": 4057,
      "ĠWar": 4058,
      "Ġseparate": 4059,
      "Ġhabitat": 4060,
      "Ġcovered": 4061,
      "Ġhighlight": 4062,
      "ying": 4063,
      "Ġcalc": 4064,
      "ups": 4065,
      "Ġregions": 4066,
      "</": 4067,
      "Ġspecifically": 4068,
      "uce": 4069,
      "izer": 4070,
      "Ġdegree": 4071,
      "Ġplease": 4072,
      "Ġinstructions": 4073,
      "ĠCur": 4074,
      "abol": 4075,
      "Ġallowed": 4076,
      "Ġrepe": 4077,
      "ternal": 4078,
      "Ġfly": 4079,
      "ĠJu": 4080,
      "rupt": 4081,
      "ĠApr": 4082,
      "Ġregularly": 4083,
      "):": 4084,
      "Ġpric": 4085,
      "Ġfr": 4086,
      "oice": 4087,
      "Ġtax": 4088,
      "Ġchann": 4089,
      "Ġdiscover": 4090,
      "Ġqual": 4091,
      "Ġelectron": 4092,
      "Ġconsult": 4093,
      "Ġnational": 4094,
      "Ġfloor": 4095,
      "Ġasked": 4096,
      "ĠCor": 4097,
      "Ġselection": 4098,
      "iant": 4099,
      "Ġlights": 4100,
      "Ġcustomers": 4101,
      "ĠDay": 4102,
      "ĠAug": 4103,
      "icks": 4104,
      "ĠEnvironment": 4105,
      "Ġbound": 4106,
      "ĠOct": 4107,
      "Ġestablish": 4108,
      "rows": 4109,
      "Ġvital": 4110,
      "ĠCount": 4111,
      "Ġchicken": 4112,
      "Ġcore": 4113,
      "Ġpets": 4114,
      "ĠHy": 4115,
      "ĠUK": 4116,
      "chen": 4117,
      "bre": 4118,
      "ocal": 4119,
      "Ġscen": 4120,
      "Ġblog": 4121,
      "inger": 4122,
      "inder": 4123,
      "aled": 4124,
      "ishing": 4125,
      "Ġframe": 4126,
      "ĠGr": 4127,
      "que": 4128,
      "Ġnearly": 4129,
      "Ġfamilies": 4130,
      "Ġspend": 4131,
      "Ġdistribution": 4132,
      "ĠAfrica": 4133,
      "Ġaccurate": 4134,
      "Ġ22": 4135,
      "Ġinternal": 4136,
      "ief": 4137,
      "Ġstaff": 4138,
      "PS": 4139,
      "ibrary": 4140,
      "Ġalcohol": 4141,
      "ĠChild": 4142,
      "uary": 4143,
      "orial": 4144,
      "Ġpromote": 4145,
      "ilit": 4146,
      "Ġcouple": 4147,
      "can": 4148,
      "Ġrisks": 4149,
      "Ġcomplic": 4150,
      "ĠSk": 4151,
      "Ġju": 4152,
      "Ġapprec": 4153,
      "Ġphen": 4154,
      "eters": 4155,
      "Ġcounter": 4156,
      "Ġweak": 4157,
      "Ġmiles": 4158,
      "Ġnavig": 4159,
      "ashing": 4160,
      "cription": 4161,
      "Ġhour": 4162,
      "ny": 4163,
      "minist": 4164,
      "ĠBr": 4165,
      "iverse": 4166,
      "ĠBo": 4167,
      "agram": 4168,
      "Ġelimin": 4169,
      "Ġgeneration": 4170,
      "ications": 4171,
      "ares": 4172,
      "Ġstick": 4173,
      "Ġhelping": 4174,
      "Ġsuggests": 4175,
      "Ġfrequently": 4176,
      "ĠMain": 4177,
      "Ġshel": 4178,
      "oly": 4179,
      "Ġbasis": 4180,
      "Ġpractical": 4181,
      "ĠEl": 4182,
      "Ġmarine": 4183,
      "Ġchemicals": 4184,
      "Ġwave": 4185,
      "azing": 4186,
      "key": 4187,
      "pen": 4188,
      "ĠDepartment": 4189,
      "Ġstandards": 4190,
      "ek": 4191,
      "aser": 4192,
      "Ġmel": 4193,
      "omic": 4194,
      "Ġstem": 4195,
      "ĠBra": 4196,
      "iol": 4197,
      "Ġign": 4198,
      "Ġfeeding": 4199,
      "ching": 4200,
      "Ġcand": 4201,
      "________": 4202,
      "Ġenter": 4203,
      "ĠHist": 4204,
      "Ġbodies": 4205,
      "Ġdivers": 4206,
      "Ġobserved": 4207,
      "Ġexhib": 4208,
      "ĠBoth": 4209,
      "ament": 4210,
      "ĠBar": 4211,
      "ĠPres": 4212,
      "Ġcontract": 4213,
      "ĠHave": 4214,
      "ollow": 4215,
      "Ġspl": 4216,
      "Ġbecoming": 4217,
      "eties": 4218,
      "!!": 4219,
      "Ġplayers": 4220,
      "Ġlighting": 4221,
      "Ġhundred": 4222,
      "Ġrobot": 4223,
      "Ġmig": 4224,
      "Ġeconomic": 4225,
      "Ġgear": 4226,
      "ĠOut": 4227,
      "Ġplaying": 4228,
      "Ġtopic": 4229,
      "alle": 4230,
      "ipped": 4231,
      "related": 4232,
      "itect": 4233,
      "Ġtiny": 4234,
      "Ġ80": 4235,
      "ĠUp": 4236,
      "AD": 4237,
      "RE": 4238,
      "Ġdie": 4239,
      "ĠTod": 4240,
      "Ġatmosphere": 4241,
      "ixture": 4242,
      "vention": 4243,
      "Ġstru": 4244,
      "ĠDiff": 4245,
      "Ġ\\": 4246,
      "Ġdrawing": 4247,
      "Ġvent": 4248,
      "Ġcustomer": 4249,
      "used": 4250,
      "Ġhomes": 4251,
      "Ġidentified": 4252,
      "ĠConsider": 4253,
      "Ġlov": 4254,
      "Ġnan": 4255,
      "year": 4256,
      "Ġanti": 4257,
      "Ġcelebr": 4258,
      "Ġveter": 4259,
      "Ġrepair": 4260,
      "icated": 4261,
      "Ġadvice": 4262,
      "Ġwanted": 4263,
      "Ġlearned": 4264,
      "elines": 4265,
      "oxide": 4266,
      "Ġhappy": 4267,
      "Ġexperienced": 4268,
      "ums": 4269,
      "Ġfruits": 4270,
      "Ġsche": 4271,
      "ss": 4272,
      "uth": 4273,
      "Ġgenerate": 4274,
      "Ġdouble": 4275,
      "Ġpredict": 4276,
      "Ġdangerous": 4277,
      "Ġinterested": 4278,
      "Ġimproved": 4279,
      "Ġinternational": 4280,
      "atically": 4281,
      "Ġregarding": 4282,
      "Ġmember": 4283,
      "ios": 4284,
      "ĠRec": 4285,
      "Ġdrug": 4286,
      "Ġsociety": 4287,
      "Ġinfections": 4288,
      "ĠAustralia": 4289,
      "mm": 4290,
      "Ġwildlife": 4291,
      "ped": 4292,
      "Ġdura": 4293,
      "Ġleaf": 4294,
      "Ġdin": 4295,
      "Ġdiverse": 4296,
      "Ġneut": 4297,
      "alse": 4298,
      "Ġkid": 4299,
      "ĠChina": 4300,
      "Ġadvance": 4301,
      "vironments": 4302,
      "Ġfill": 4303,
      "friend": 4304,
      "umn": 4305,
      "ĠYork": 4306,
      "unk": 4307,
      "ION": 4308,
      "Ġpotentially": 4309,
      "Ġfields": 4310,
      "ĠPC": 4311,
      "Ġremoved": 4312,
      "spe": 4313,
      "Ġedge": 4314,
      "Ġchain": 4315,
      "ING": 4316,
      "Ġconsequ": 4317,
      "Ġchanged": 4318,
      "ĠBlack": 4319,
      "Ġ2020": 4320,
      "ST": 4321,
      "Ġwindow": 4322,
      "Ġsav": 4323,
      "ĠSub": 4324,
      "Ġleaders": 4325,
      "wood": 4326,
      "Ġexec": 4327,
      "ius": 4328,
      "Ġvehicles": 4329,
      "Ġacceler": 4330,
      "Ġreference": 4331,
      "Ġfavorite": 4332,
      "Ġdrop": 4333,
      "Ġsatis": 4334,
      "Ġlose": 4335,
      "ĠCheck": 4336,
      "Ġpair": 4337,
      "Ġfed": 4338,
      "ulating": 4339,
      "Ġbond": 4340,
      "Ġsecure": 4341,
      "Ġamounts": 4342,
      "Ġnumerous": 4343,
      "Ġfear": 4344,
      "ira": 4345,
      "ĠClass": 4346,
      "Ġmold": 4347,
      "ĠST": 4348,
      "rome": 4349,
      "Ġradio": 4350,
      "Ġinflamm": 4351,
      "Ġbeg": 4352,
      "Ġmuscles": 4353,
      "Ġhelpful": 4354,
      "Ġmaybe": 4355,
      "Ġteach": 4356,
      "cil": 4357,
      "Ġallerg": 4358,
      "ĠAC": 4359,
      "ĠInter": 4360,
      "ĠHer": 4361,
      "ulf": 4362,
      "Ġorganization": 4363,
      "ifying": 4364,
      "atural": 4365,
      "Ġpul": 4366,
      "Ġmist": 4367,
      "Ġaudio": 4368,
      "Ġ23": 4369,
      "Ġworked": 4370,
      "Ġcreative": 4371,
      "ource": 4372,
      "ĠPhys": 4373,
      "Ġelectro": 4374,
      "ffee": 4375,
      "Ġsignals": 4376,
      "olute": 4377,
      "Ġcatch": 4378,
      "eed": 4379,
      "Ġlayers": 4380,
      "rim": 4381,
      "ees": 4382,
      "Ġharvest": 4383,
      "oma": 4384,
      "Ġapproximately": 4385,
      "ĠDevelop": 4386,
      "ĠRemember": 4387,
      "ĠInc": 4388,
      "Ġsurgery": 4389,
      "erate": 4390,
      "ĠProfess": 4391,
      "Ġ)": 4392,
      "Ġtrain": 4393,
      "outhern": 4394,
      "ager": 4395,
      "Ġthor": 4396,
      "Ġconcerns": 4397,
      "place": 4398,
      "Ġdefined": 4399,
      "icious": 4400,
      "icking": 4401,
      "Ġestablished": 4402,
      "Ġaircraft": 4403,
      "Ġartificial": 4404,
      "idity": 4405,
      "Ġsimpl": 4406,
      "Ġenvironments": 4407,
      "Ġheld": 4408,
      "Ġheating": 4409,
      "part": 4410,
      "Ġteacher": 4411,
      "ought": 4412,
      "Ġsports": 4413,
      "Ġsquare": 4414,
      "iveness": 4415,
      "Ġsell": 4416,
      "Ġpolit": 4417,
      "ida": 4418,
      "ceed": 4419,
      "Ġreceived": 4420,
      "iet": 4421,
      "Ġsensor": 4422,
      "Ġanxiety": 4423,
      "ĠDesign": 4424,
      "Ġhealthcare": 4425,
      "body": 4426,
      "ĠPark": 4427,
      "Ġcomprehensive": 4428,
      "orthern": 4429,
      "Ġ90": 4430,
      "Ġsettings": 4431,
      "ublic": 4432,
      "Ġresource": 4433,
      "Ġlandscape": 4434,
      "Ġmostly": 4435,
      "Ġboost": 4436,
      "Ġtold": 4437,
      "eline": 4438,
      "Ġrelax": 4439,
      "Ġpupp": 4440,
      "Ġdesired": 4441,
      "force": 4442,
      "Ġbath": 4443,
      "imal": 4444,
      "Ġflav": 4445,
      "Ġreality": 4446,
      "ĠSte": 4447,
      "Ġencourage": 4448,
      "ĠHar": 4449,
      "Ġoperations": 4450,
      "Ġphoto": 4451,
      "Ġmit": 4452,
      "24": 4453,
      "erals": 4454,
      "asts": 4455,
      "Ġunits": 4456,
      "Ġdecisions": 4457,
      "Ġshowed": 4458,
      "Ġhighest": 4459,
      "Ġhosp": 4460,
      "This": 4461,
      "ĠSupp": 4462,
      "Ġpollution": 4463,
      "ĠThrough": 4464,
      "Ġgrown": 4465,
      "oses": 4466,
      "Ġlots": 4467,
      "phas": 4468,
      "known": 4469,
      "Ġconcrete": 4470,
      "Ġple": 4471,
      "Ġperspect": 4472,
      "ech": 4473,
      "ĠPlant": 4474,
      "Ġtypical": 4475,
      "iers": 4476,
      "ste": 4477,
      "bal": 4478,
      "Ġbeneficial": 4479,
      "wing": 4480,
      "ĠBas": 4481,
      "oughly": 4482,
      "ĠJohn": 4483,
      "med": 4484,
      "Ġcryst": 4485,
      "Ġemp": 4486,
      "atever": 4487,
      "Ġmachines": 4488,
      "Ġencourag": 4489,
      "Ġclasses": 4490,
      "Ġroutine": 4491,
      "Ġsurfaces": 4492,
      "ĠExper": 4493,
      "ta": 4494,
      "ĠJune": 4495,
      "ĠSept": 4496,
      "ĠMarch": 4497,
      "ĠVal": 4498,
      "Ġraw": 4499,
      "org": 4500,
      "Ġlegal": 4501,
      "Ġindustrial": 4502,
      "Ġbusinesses": 4503,
      "Ġoccas": 4504,
      "Ġwidely": 4505,
      "Ġplate": 4506,
      "ĠApril": 4507,
      "Ġburn": 4508,
      "Ġplans": 4509,
      "Ġtoxic": 4510,
      "Ġten": 4511,
      "Ġconstruct": 4512,
      "iced": 4513,
      "Ġengineering": 4514,
      "Ġmeal": 4515,
      "asting": 4516,
      "Ġtalking": 4517,
      "ĠExam": 4518,
      "Ġrid": 4519,
      "Ġcontrast": 4520,
      "Ġinjury": 4521,
      "ĠEuropean": 4522,
      "Ġexposed": 4523,
      "Ġshop": 4524,
      "Ġdesigns": 4525,
      "ĠHel": 4526,
      "osph": 4527,
      "Ġearlier": 4528,
      "Ġreleased": 4529,
      "Ġdrugs": 4530,
      "ĠStart": 4531,
      "iples": 4532,
      "Ġillness": 4533,
      "Ġexperts": 4534,
      "Ġangle": 4535,
      "ĠGreat": 4536,
      "Ġsod": 4537,
      "ĠBen": 4538,
      "Ġtexture": 4539,
      "Ġfung": 4540,
      "orses": 4541,
      "Ġsaying": 4542,
      "ipping": 4543,
      "ĠBet": 4544,
      "Ġharmful": 4545,
      "poses": 4546,
      "?\"": 4547,
      "ĠAN": 4548,
      "ĠToday": 4549,
      "ĠUnderstanding": 4550,
      "Ġhorm": 4551,
      "23": 4552,
      "Ġneigh": 4553,
      "Ġvess": 4554,
      "Ġheard": 4555,
      "Ġtransl": 4556,
      "Ġtour": 4557,
      "sp": 4558,
      "Ġorganisms": 4559,
      "Ġdro": 4560,
      "Ġstarts": 4561,
      "iences": 4562,
      "ded": 4563,
      "Ġsem": 4564,
      "rating": 4565,
      "Ġancient": 4566,
      "Ġwaves": 4567,
      "Ġ198": 4568,
      "my": 4569,
      "ndom": 4570,
      "ĠProgram": 4571,
      "ĠSy": 4572,
      "Ġrice": 4573,
      "Ġassign": 4574,
      "Ġprepared": 4575,
      "ĠÎ": 4576,
      "Ġclick": 4577,
      "Ġupper": 4578,
      "Ġnamed": 4579,
      "quality": 4580,
      "hemat": 4581,
      "osite": 4582,
      "Ġobvious": 4583,
      "Ġflower": 4584,
      "Ġwheel": 4585,
      "Ġwalls": 4586,
      "formation": 4587,
      "Ġemotional": 4588,
      "ocolate": 4589,
      "Ġprimarily": 4590,
      "Ġhom": 4591,
      "Ġeventually": 4592,
      ",,": 4593,
      "Ġassum": 4594,
      "ĠCommun": 4595,
      "Ġnest": 4596,
      "ĠHis": 4597,
      "Ġsamples": 4598,
      "roup": 4599,
      "cious": 4600,
      "Ġcolour": 4601,
      "Ġcert": 4602,
      "Ġrelationships": 4603,
      "AP": 4604,
      "nes": 4605,
      "Ġdiss": 4606,
      "estyle": 4607,
      "ĠSum": 4608,
      "Ġrule": 4609,
      "Ġplays": 4610,
      "Ġmorning": 4611,
      "Ġcheese": 4612,
      "ĠGoogle": 4613,
      "Ġstre": 4614,
      "ĠPat": 4615,
      "cap": 4616,
      "Ġnaturally": 4617,
      "Ġcultural": 4618,
      "Ġdra": 4619,
      "Ġfollowed": 4620,
      "Ġbrush": 4621,
      "Ġleads": 4622,
      "RO": 4623,
      "Ġdental": 4624,
      "Ġrelevant": 4625,
      "ĠEnergy": 4626,
      "za": 4627,
      "Ġlatest": 4628,
      "irect": 4629,
      "Ġmagnetic": 4630,
      "word": 4631,
      "ĠPost": 4632,
      "Ġmaster": 4633,
      "Ġadvantages": 4634,
      "Ġfindings": 4635,
      "Ġextract": 4636,
      "Ġconven": 4637,
      "Ġdetailed": 4638,
      "Ġconc": 4639,
      "Ġshell": 4640,
      "ĠScient": 4641,
      "Ġchrom": 4642,
      "Ġtransmission": 4643,
      "Ġmedicine": 4644,
      "Ġoffice": 4645,
      "works": 4646,
      "Ġpurchase": 4647,
      "Ġax": 4648,
      "itary": 4649,
      "ĠSaf": 4650,
      "Ġnice": 4651,
      "Ġstrategy": 4652,
      "itely": 4653,
      "Ġsets": 4654,
      "Ġstored": 4655,
      "ĠMet": 4656,
      "ĠPlease": 4657,
      "Ġcorresp": 4658,
      "allow": 4659,
      "Ġcarefully": 4660,
      "iter": 4661,
      "ĠPlan": 4662,
      "Ġofficial": 4663,
      "cers": 4664,
      "lt": 4665,
      "Ġreliable": 4666,
      "Ġratio": 4667,
      "inating": 4668,
      "Ġmanufacturing": 4669,
      "Ġpolicy": 4670,
      "Ġquantum": 4671,
      "Ġthousands": 4672,
      "Ġtreated": 4673,
      "Ġsituations": 4674,
      "Ġhous": 4675,
      "Ġ70": 4676,
      "Ġbatteries": 4677,
      "Ġexpression": 4678,
      "Ġoperating": 4679,
      "lev": 4680,
      "bra": 4681,
      "Ġbike": 4682,
      "Ġdetermined": 4683,
      "Ġthread": 4684,
      "Ġmamm": 4685,
      "Ġ2014": 4686,
      "Ġapart": 4687,
      "Ġprofessionals": 4688,
      "Ġhon": 4689,
      "col": 4690,
      "eper": 4691,
      "Ġtoward": 4692,
      "Ġmode": 4693,
      "ĠCre": 4694,
      "........": 4695,
      "Ġmixture": 4696,
      "ologist": 4697,
      "ĠIndian": 4698,
      "ĠTwo": 4699,
      "Ġtreatments": 4700,
      "ĠBritish": 4701,
      "Ġoptimal": 4702,
      "ĠFrench": 4703,
      "Ġ2017": 4704,
      "Ġisol": 4705,
      "Ġcup": 4706,
      "Ġintroduced": 4707,
      "Ġcream": 4708,
      "Ġactions": 4709,
      "ĠLED": 4710,
      "Ġvibr": 4711,
      "Ġdigest": 4712,
      "ĠCanada": 4713,
      "olid": 4714,
      "Ġbeauty": 4715,
      "Ġintelligence": 4716,
      "Ġindicate": 4717,
      "lets": 4718,
      "ĠStudents": 4719,
      "Ġexternal": 4720,
      "Ġappears": 4721,
      "Ġband": 4722,
      "ued": 4723,
      "Ġvert": 4724,
      "Ġlegs": 4725,
      "Ġbot": 4726,
      "ĠFeb": 4727,
      "Ġflo": 4728,
      "Ġ2015": 4729,
      "ĠPower": 4730,
      "Ġalign": 4731,
      "aid": 4732,
      "Ġcraft": 4733,
      "ĠCare": 4734,
      "Ġacqu": 4735,
      "Ġstories": 4736,
      "gl": 4737,
      "uk": 4738,
      "ĠAssoci": 4739,
      "Ġincred": 4740,
      "Ġuns": 4741,
      "isher": 4742,
      "ĠDet": 4743,
      "Ġfishing": 4744,
      "Ġstrugg": 4745,
      "Ġafford": 4746,
      "Ġdescribe": 4747,
      "Ġdream": 4748,
      "Ġformation": 4749,
      "Ġrandom": 4750,
      "Ġ2018": 4751,
      "Ġconsistent": 4752,
      "ĠInternational": 4753,
      "clus": 4754,
      "lines": 4755,
      "Ġperformed": 4756,
      "Ġelectronic": 4757,
      "iture": 4758,
      "icip": 4759,
      "Ġprivate": 4760,
      "Ġbat": 4761,
      "Ġsunlight": 4762,
      "friendly": 4763,
      "Ġoutdoor": 4764,
      "Ġcoord": 4765,
      "Ġhydrogen": 4766,
      "Ġdensity": 4767,
      "Ġbrought": 4768,
      "Ġcrops": 4769,
      "och": 4770,
      "Ġkitchen": 4771,
      "Ġchoosing": 4772,
      "Ġshoot": 4773,
      "ĠMark": 4774,
      "ighter": 4775,
      "Ġmetabol": 4776,
      "ĠRiver": 4777,
      "Ġelev": 4778,
      "Ġ2012": 4779,
      "Ġkept": 4780,
      "Ġvitamin": 4781,
      "Ġstone": 4782,
      "add": 4783,
      "Ġplanting": 4784,
      "Ġmonitoring": 4785,
      "Ġdrink": 4786,
      "Ġprecise": 4787,
      "Ġbutton": 4788,
      "Ġhaz": 4789,
      "Ġbillion": 4790,
      "Ġorganizations": 4791,
      "Ġfarmers": 4792,
      "des": 4793,
      "Ġensures": 4794,
      "Ġchoices": 4795,
      "Ġmessage": 4796,
      "Ġ2013": 4797,
      "ĠEducation": 4798,
      "acking": 4799,
      "Ġbiological": 4800,
      "Ġconcentration": 4801,
      "osa": 4802,
      "aming": 4803,
      "ĠJuly": 4804,
      "hesis": 4805,
      "Ġcoat": 4806,
      "Ġprocedure": 4807,
      "Ġmac": 4808,
      "ĠMc": 4809,
      "Ġarchitect": 4810,
      "ico": 4811,
      "Ġfiber": 4812,
      "Ġstatus": 4813,
      "Ġforces": 4814,
      "Ġvs": 4815,
      "Ġoffering": 4816,
      "Ġemail": 4817,
      "ĠOb": 4818,
      "Ġimpacts": 4819,
      "ishes": 4820,
      "Ġcombined": 4821,
      "ĠLight": 4822,
      "Ġmainly": 4823,
      "Ġemphas": 4824,
      "Ġmembr": 4825,
      "Ġturned": 4826,
      "hab": 4827,
      "Ġreduction": 4828,
      "Ġbreeding": 4829,
      "Ġdu": 4830,
      "Ġmeasured": 4831,
      "ĠWild": 4832,
      "EL": 4833,
      "Ġstret": 4834,
      "Ġsyn": 4835,
      "Ġiniti": 4836,
      "Ġdust": 4837,
      "Ġjournal": 4838,
      "bi": 4839,
      "ĠInstead": 4840,
      "inated": 4841,
      "Ġlabel": 4842,
      "Ġtall": 4843,
      "zen": 4844,
      "Ġcoffee": 4845,
      "cont": 4846,
      "Ġsect": 4847,
      "Ġmonitor": 4848,
      "ĠProt": 4849,
      "Ġprepare": 4850,
      "Ġphotograph": 4851,
      "Ġdeliver": 4852,
      "Ġbreast": 4853,
      "Ġ2016": 4854,
      "Ġhole": 4855,
      "change": 4856,
      "Ġsizes": 4857,
      "ĠWind": 4858,
      "uting": 4859,
      "Ġcontainer": 4860,
      "Ġprinting": 4861,
      "Ġ28": 4862,
      "ĠFinally": 4863,
      "Ġinvolve": 4864,
      "Ġ2019": 4865,
      "Ġlaws": 4866,
      "see": 4867,
      "ometimes": 4868,
      "umber": 4869,
      "mitted": 4870,
      "Ġcreates": 4871,
      "Ġamazing": 4872,
      "Ġminimum": 4873,
      "Ġwait": 4874,
      "uments": 4875,
      "ĠThus": 4876,
      "45": 4877,
      "ĠDef": 4878,
      "rations": 4879,
      "Ġpictures": 4880,
      "Ġcit": 4881,
      "mary": 4882,
      "isp": 4883,
      "Ġwest": 4884,
      "Ġpartners": 4885,
      "Ġchallenging": 4886,
      "Ġeducational": 4887,
      "ĠSet": 4888,
      "ropical": 4889,
      "Ġwhose": 4890,
      "ctors": 4891,
      "ĠSeptember": 4892,
      "ĠTyp": 4893,
      "chers": 4894,
      "ructure": 4895,
      "Ġshared": 4896,
      "Ġlic": 4897,
      "Ġawareness": 4898,
      "Ġsurrounding": 4899,
      "anges": 4900,
      "Ġplayer": 4901,
      "Ġstock": 4902,
      "Ġshowing": 4903,
      "Ġfasc": 4904,
      "Ġimproving": 4905,
      "Ġopin": 4906,
      "Ġ26": 4907,
      "ivil": 4908,
      "Ġpotat": 4909,
      "ĠCommon": 4910,
      "ologists": 4911,
      "ĠAugust": 4912,
      "Ġkinds": 4913,
      "orms": 4914,
      "ĠIS": 4915,
      "Ġreprodu": 4916,
      "Ġconclusion": 4917,
      "Ġgrade": 4918,
      "rot": 4919,
      "Ġrenew": 4920,
      "Ġworry": 4921,
      "Ġble": 4922,
      "Ġacad": 4923,
      "Ġzero": 4924,
      "Ġsuppl": 4925,
      "Ġdress": 4926,
      "ĠOrgan": 4927,
      "Ġshapes": 4928,
      "Ġfold": 4929,
      "ĠLearn": 4930,
      "Ġsmell": 4931,
      "otic": 4932,
      "rich": 4933,
      "Ġcapable": 4934,
      "car": 4935,
      "Ġbees": 4936,
      "ĠFigure": 4937,
      "antic": 4938,
      "Ġsensitive": 4939,
      "top": 4940,
      "Ġeight": 4941,
      "Ġcreation": 4942,
      "PA": 4943,
      "Ġantibiot": 4944,
      "Ġpil": 4945,
      "tered": 4946,
      "Ġgir": 4947,
      "Ġfocused": 4948,
      "ception": 4949,
      "Ġnerv": 4950,
      "Ġtruly": 4951,
      "Ġcompost": 4952,
      "ĠLearning": 4953,
      "porary": 4954,
      "idth": 4955,
      "Ġpurposes": 4956,
      "Ġcontinues": 4957,
      "hus": 4958,
      "Ġestimated": 4959,
      "DA": 4960,
      "Ġship": 4961,
      "Ġmajority": 4962,
      "Ġspin": 4963,
      "Ġmild": 4964,
      "Ġplenty": 4965,
      "Ġfle": 4966,
      "Ġhydro": 4967,
      "Ġtun": 4968,
      "Ġperhaps": 4969,
      "||": 4970,
      "Ġabsolute": 4971,
      "Ġassemb": 4972,
      "Ġradiation": 4973,
      "Ġdecor": 4974,
      "ials": 4975,
      "ingu": 4976,
      "Ġstom": 4977,
      "ĠFound": 4978,
      "olf": 4979,
      "Ġ2010": 4980,
      "Ġleaving": 4981,
      "Ġnames": 4982,
      "ĠConclusion": 4983,
      "OU": 4984,
      "VID": 4985,
      "ĠGood": 4986,
      "Ġcart": 4987,
      "iration": 4988,
      "Ġtransition": 4989,
      "Ġfilled": 4990,
      "omb": 4991,
      "Ġspaces": 4992,
      "umps": 4993,
      "Ġfrag": 4994,
      "weight": 4995,
      "Ġaffects": 4996,
      "Ġfailure": 4997,
      "going": 4998,
      "Ġrefers": 4999,
      "Ġerror": 5000,
      "Ġcultiv": 5001,
      "Ġpreviously": 5002,
      "Ġtub": 5003,
      "ĠSee": 5004,
      "Ġgenerated": 5005,
      "Ġspirit": 5006,
      "Ġcrop": 5007,
      "ĠSch": 5008,
      "Ġselected": 5009,
      "Ġminerals": 5010,
      "ĠEv": 5011,
      "ĠBre": 5012,
      "Ġpin": 5013,
      "dule": 5014,
      "anes": 5015,
      "bles": 5016,
      "osen": 5017,
      "Ġwaters": 5018,
      "Ġflood": 5019,
      "Ġreactions": 5020,
      "Ġdecrease": 5021,
      "Ġcompounds": 5022,
      "Ġconcern": 5023,
      "Ġsouth": 5024,
      "Ġsend": 5025,
      "ĠOctober": 5026,
      "Ġ{": 5027,
      "21": 5028,
      "Ġmobile": 5029,
      "ĠHome": 5030,
      "Ġfo": 5031,
      "Ġvisible": 5032,
      "Ġplane": 5033,
      "arant": 5034,
      "Ġportion": 5035,
      "Ġdestro": 5036,
      "fortun": 5037,
      "ĠBel": 5038,
      "Ġspray": 5039,
      "Ġconducted": 5040,
      "ĠAfrican": 5041,
      "Ġtried": 5042,
      "gy": 5043,
      "ava": 5044,
      "Ġversat": 5045,
      "Ġdisp": 5046,
      "rief": 5047,
      "Ġaid": 5048,
      "point": 5049,
      "crib": 5050,
      "ĠExt": 5051,
      "Ġsides": 5052,
      "Ġuniverse": 5053,
      "35": 5054,
      "Ġconcepts": 5055,
      "anted": 5056,
      "ĠFlor": 5057,
      "Ġbones": 5058,
      "Ġsurvive": 5059,
      "Ġmath": 5060,
      "Ġstatement": 5061,
      "ĠOff": 5062,
      "Ġmechanism": 5063,
      "Ġaer": 5064,
      "inate": 5065,
      "ods": 5066,
      "Ġsequence": 5067,
      "Ġphotography": 5068,
      "Ġproducing": 5069,
      "ĠProject": 5070,
      "Ġperiods": 5071,
      "ĠSan": 5072,
      "active": 5073,
      "Ġlifestyle": 5074,
      "ye": 5075,
      "Ġowner": 5076,
      "Ġvel": 5077,
      "Ġjump": 5078,
      "Ġannual": 5079,
      "ventional": 5080,
      "rowing": 5081,
      "Ġpure": 5082,
      ".[": 5083,
      "print": 5084,
      "igen": 5085,
      "Ġconsidering": 5086,
      "Ġreferred": 5087,
      "ĠEngine": 5088,
      "Ġborn": 5089,
      "ĠNet": 5090,
      "Ġclassroom": 5091,
      "Ġ**": 5092,
      "ĠJanuary": 5093,
      "Ġrestaur": 5094,
      "roke": 5095,
      "Ġden": 5096,
      "Ġseek": 5097,
      "Ġfur": 5098,
      "Ġfamiliar": 5099,
      "ĠMicro": 5100,
      "Ġclothing": 5101,
      "hemical": 5102,
      "ĠIN": 5103,
      "Ġtut": 5104,
      "Ġextensive": 5105,
      "Ġacids": 5106,
      "stract": 5107,
      "ĠTest": 5108,
      "Ġcomposition": 5109,
      "Ġmotiv": 5110,
      "Ġnorth": 5111,
      "Ġvirtual": 5112,
      "Ġcooling": 5113,
      "rote": 5114,
      "Ġfeedback": 5115,
      "Ġtechnical": 5116,
      "Ġrein": 5117,
      "Ġcertainly": 5118,
      "Ġcomputers": 5119,
      "Ġprem": 5120,
      "Ġcontrolled": 5121,
      "inese": 5122,
      "Ġclinical": 5123,
      "Ġotherwise": 5124,
      "==": 5125,
      "Ġtomat": 5126,
      "Ġtrip": 5127,
      "Ġrecorded": 5128,
      "ĠKnow": 5129,
      "Ġ2011": 5130,
      "Ġslowly": 5131,
      "Ġmechanical": 5132,
      "inations": 5133,
      "erent": 5134,
      "Ġcapture": 5135,
      "Ġinternet": 5136,
      "rie": 5137,
      "Ġdivid": 5138,
      "Ġsharp": 5139,
      "asive": 5140,
      "ĠMex": 5141,
      "Ġpresented": 5142,
      "Ġbelong": 5143,
      "Ġabund": 5144,
      "Ġmap": 5145,
      "Ġvul": 5146,
      "Ġcm": 5147,
      "Ġtraffic": 5148,
      "Ġ27": 5149,
      "Ġfossil": 5150,
      "Ġstable": 5151,
      "Ġconsists": 5152,
      "Ġampl": 5153,
      "asp": 5154,
      "ĠWhite": 5155,
      "Ġskill": 5156,
      "Ġelectrons": 5157,
      "Ġatoms": 5158,
      "ĠPol": 5159,
      "Ġplug": 5160,
      "Ġadvent": 5161,
      "organ": 5162,
      "ulum": 5163,
      "ibilities": 5164,
      "ĠKing": 5165,
      "Ġshot": 5166,
      "uracy": 5167,
      "ĠCity": 5168,
      "mic": 5169,
      "Ġcareer": 5170,
      "Ġparticipants": 5171,
      "90": 5172,
      "Ġproduces": 5173,
      "yles": 5174,
      "ormal": 5175,
      "down": 5176,
      "Ġwouldn": 5177,
      "ially": 5178,
      "Ġhoney": 5179,
      "Ġchronic": 5180,
      "irds": 5181,
      "Ġtrade": 5182,
      "Ġshad": 5183,
      "Ġriver": 5184,
      "100": 5185,
      "tion": 5186,
      "Ġrecovery": 5187,
      "Ġring": 5188,
      "anc": 5189,
      "Ġseeing": 5190,
      "mark": 5191,
      "ented": 5192,
      "ĠFurthermore": 5193,
      "lements": 5194,
      "ãĤ": 5195,
      "aker": 5196,
      "Ġwhatever": 5197,
      "ĠMus": 5198,
      "Ġinject": 5199,
      "Ġwalking": 5200,
      "Ġkil": 5201,
      "Ġhousehold": 5202,
      "Ġbread": 5203,
      "Ġrelig": 5204,
      "Ġbudget": 5205,
      "27": 5206,
      "Ġemergency": 5207,
      "Ġnormally": 5208,
      "Ġhorses": 5209,
      "Ġinfluen": 5210,
      "Ġneck": 5211,
      "Ġwants": 5212,
      "lim": 5213,
      "Ġtopics": 5214,
      "Ġessay": 5215,
      "Ġdisorders": 5216,
      "Ġurban": 5217,
      "Ġunless": 5218,
      "Ġsurvival": 5219,
      "Ġchocolate": 5220,
      "Ġshut": 5221,
      "itting": 5222,
      "Ġvideos": 5223,
      "Ġholes": 5224,
      "Ġpainting": 5225,
      "Ġmixed": 5226,
      "Ġcolon": 5227,
      "Ġfunctional": 5228,
      "Ġprinciples": 5229,
      "Ġdiversity": 5230,
      "ĠLook": 5231,
      "ĠSun": 5232,
      "Ġcopy": 5233,
      "onal": 5234,
      "Ġseconds": 5235,
      "Ġwarming": 5236,
      "pring": 5237,
      "ĠDav": 5238,
      "Ġcommand": 5239,
      "Ġinsights": 5240,
      "26": 5241,
      "requ": 5242,
      "Ġdamaged": 5243,
      "Ġpages": 5244,
      "Ġvarieties": 5245,
      "comes": 5246,
      "Ġsufficient": 5247,
      "Ġseg": 5248,
      "Ġhoriz": 5249,
      "Ġinterp": 5250,
      "mp": 5251,
      "emy": 5252,
      "Ġcarried": 5253,
      "Ġwasn": 5254,
      "Ġturns": 5255,
      "ĠTop": 5256,
      "Ġfa": 5257,
      "Ġprices": 5258,
      "ardens": 5259,
      "Ġremote": 5260,
      "hors": 5261,
      "ris": 5262,
      "ii": 5263,
      "Ġdecided": 5264,
      "sec": 5265,
      "Ġlinked": 5266,
      "Ġdecades": 5267,
      "Ġmissing": 5268,
      "rest": 5269,
      "Ġsou": 5270,
      "Ġclosely": 5271,
      "SA": 5272,
      "Ġclearly": 5273,
      "Ġsong": 5274,
      "Ġinflammation": 5275,
      "Ġbreath": 5276,
      "Ġrepresents": 5277,
      "Ġtube": 5278,
      "Ġspeaker": 5279,
      "ĠGarden": 5280,
      "ĠWork": 5281,
      "\":": 5282,
      "ĠCat": 5283,
      "Ġdishes": 5284,
      "ĠTechnology": 5285,
      "Ġstation": 5286,
      "aul": 5287,
      "Ġdownload": 5288,
      "Ġassessment": 5289,
      "Ġtested": 5290,
      "amental": 5291,
      "Ġphysics": 5292,
      "Ġban": 5293,
      "Ġcorrespond": 5294,
      "Ġcontaining": 5295,
      "Ġtum": 5296,
      "Ġenable": 5297,
      "'.": 5298,
      "dden": 5299,
      "ĠLife": 5300,
      "Ġgut": 5301,
      "Ġguess": 5302,
      "ĠSometimes": 5303,
      "Ġcycl": 5304,
      "Ġmolecular": 5305,
      "Ġfiles": 5306,
      "Ġgall": 5307,
      "Ġhop": 5308,
      "Ġtoler": 5309,
      "ĠDist": 5310,
      "west": 5311,
      "Ġcopper": 5312,
      "airy": 5313,
      "Ġvoice": 5314,
      "Ġintake": 5315,
      "ovember": 5316,
      "28": 5317,
      "Ġfer": 5318,
      "Ġlocations": 5319,
      "ĠClean": 5320,
      "Ġsudden": 5321,
      "Ġcloser": 5322,
      "Ġcorrectly": 5323,
      "Ġspent": 5324,
      "Ġgun": 5325,
      "Ġinstruction": 5326,
      "Ġdefinition": 5327,
      "ĠTime": 5328,
      "which": 5329,
      "MS": 5330,
      "ograp": 5331,
      ");": 5332,
      "ama": 5333,
      "ĠColor": 5334,
      "Ġconfirm": 5335,
      "RI": 5336,
      "Ġrow": 5337,
      "><": 5338,
      "Ġbegins": 5339,
      "99": 5340,
      "phone": 5341,
      "raining": 5342,
      "Ġsurvey": 5343,
      "Ġsed": 5344,
      "ara": 5345,
      "Ġstomach": 5346,
      "Ġod": 5347,
      "Ġpowder": 5348,
      "Ġscenari": 5349,
      "ĠTHE": 5350,
      "Ġattached": 5351,
      "order": 5352,
      "Ġanswers": 5353,
      "ĠKey": 5354,
      "Ġsolve": 5355,
      "Ġformat": 5356,
      "Ġ35": 5357,
      "Ġfacilit": 5358,
      "ĠLab": 5359,
      "Ġpounds": 5360,
      "ĠOpen": 5361,
      "Ġinteractions": 5362,
      "ugg": 5363,
      "Ġdatab": 5364,
      "Ġcalcium": 5365,
      "ĠGold": 5366,
      "Ġbear": 5367,
      "ĠRef": 5368,
      "Ġshift": 5369,
      "Ġcab": 5370,
      "Ġbelief": 5371,
      "paration": 5372,
      "Ġmarketing": 5373,
      "Ġputting": 5374,
      "ĠNatural": 5375,
      "ache": 5376,
      "ias": 5377,
      "Ġscr": 5378,
      "aws": 5379,
      "Ġpercentage": 5380,
      "roid": 5381,
      "Ġfixed": 5382,
      "idden": 5383,
      "ĠTreat": 5384,
      "ĠThanks": 5385,
      "Ġahead": 5386,
      "Ġphenomen": 5387,
      "ĠChildren": 5388,
      "Ġrefrig": 5389,
      "Ġguidelines": 5390,
      "Ġjud": 5391,
      "Ġinvestment": 5392,
      "fall": 5393,
      "ĠVis": 5394,
      "Ġcreatures": 5395,
      "Ġimmun": 5396,
      "Ġreduces": 5397,
      "ĠFind": 5398,
      "Ġviol": 5399,
      "Ġdecide": 5400,
      "Ġturning": 5401,
      "ĠFact": 5402,
      "ĠNote": 5403,
      "Ġadminist": 5404,
      "Ġpregnancy": 5405,
      "ossible": 5406,
      "aked": 5407,
      "ĠpH": 5408,
      "ruary": 5409,
      "cel": 5410,
      "Ġhelped": 5411,
      "ognitive": 5412,
      "ĠChinese": 5413,
      "ĠData": 5414,
      "Ġengage": 5415,
      "Ġvolun": 5416,
      "Ġattrib": 5417,
      "ĠTur": 5418,
      "Ġhappened": 5419,
      "Ġclosed": 5420,
      "Ġmal": 5421,
      "Ġaccuracy": 5422,
      "Ġinner": 5423,
      "Ġrights": 5424,
      "Ġbio": 5425,
      "Ġcollege": 5426,
      "Ġblow": 5427,
      "Ġcolle": 5428,
      "arsh": 5429,
      "ĠId": 5430,
      "box": 5431,
      "Ġinstalled": 5432,
      "Ġbroken": 5433,
      "Ġchlor": 5434,
      "ĠHistory": 5435,
      "acters": 5436,
      "ressed": 5437,
      "Ġsport": 5438,
      "Ġbuying": 5439,
      "Ġapproaches": 5440,
      "orous": 5441,
      "Ġbigger": 5442,
      "ãĥ": 5443,
      "ĠSl": 5444,
      "ĠCounty": 5445,
      "Ġaudience": 5446,
      "Ġcredit": 5447,
      "Ġvast": 5448,
      "Ġ197": 5449,
      "Ġfoundation": 5450,
      "IL": 5451,
      "Ġstages": 5452,
      "Ġ2021": 5453,
      "ĠCOVID": 5454,
      "Ġformula": 5455,
      "Ġmeeting": 5456,
      "fortunately": 5457,
      "ĠOpt": 5458,
      "icon": 5459,
      "ĠFollow": 5460,
      "ĠLa": 5461,
      "apor": 5462,
      "Ġcompr": 5463,
      "Ġobtained": 5464,
      "Ġcareful": 5465,
      "Ġdefinitely": 5466,
      "Ġnitrogen": 5467,
      "Ġbalanced": 5468,
      "cember": 5469,
      "Ġunivers": 5470,
      "Ġperspective": 5471,
      "Ġcorn": 5472,
      "ait": 5473,
      "Ġprompt": 5474,
      "yth": 5475,
      "Ġeconomy": 5476,
      "iler": 5477,
      "Ġinteraction": 5478,
      "Ġdoub": 5479,
      "Ġlooked": 5480,
      "Ġrapidly": 5481,
      "Ġcomment": 5482,
      "ĠMich": 5483,
      "ĠAdv": 5484,
      "Ġmathemat": 5485,
      "Ġbuildings": 5486,
      "Ġnar": 5487,
      "ĠRegular": 5488,
      "Ġlesson": 5489,
      "Ġmedication": 5490,
      "Ġwindows": 5491,
      "Ġsuggested": 5492,
      "Ġprotected": 5493,
      "Ġproport": 5494,
      "Ġnovel": 5495,
      "Ġdioxide": 5496,
      "TS": 5497,
      "Ġlaser": 5498,
      "Ġdisorder": 5499,
      "rors": 5500,
      "eless": 5501,
      "Ġpup": 5502,
      "ĠTex": 5503,
      "ado": 5504,
      "Ġdent": 5505,
      "gans": 5506,
      "Ġagre": 5507,
      "Ġshoes": 5508,
      "Ġdiscussion": 5509,
      "ĠFore": 5510,
      "Ġseven": 5511,
      "Ġmeals": 5512,
      "Ġreports": 5513,
      "Ġenthus": 5514,
      "Ġcollected": 5515,
      "etics": 5516,
      "What": 5517,
      "Ġgreenhouse": 5518,
      "eria": 5519,
      "Ġhyper": 5520,
      "orter": 5521,
      "ifications": 5522,
      "Ġmulti": 5523,
      "Ġworkers": 5524,
      "Ġfost": 5525,
      "Ġconnections": 5526,
      "Ġvulner": 5527,
      "Ġwoman": 5528,
      "Ġaccum": 5529,
      "Ġhunting": 5530,
      "ĠLong": 5531,
      "Ġintended": 5532,
      "Ġsubstance": 5533,
      "Ġworldwide": 5534,
      "ander": 5535,
      "dy": 5536,
      "ĠNext": 5537,
      "long": 5538,
      "Ġtight": 5539,
      "Ġpanel": 5540,
      "Ġfurniture": 5541,
      "Ġpassed": 5542,
      "ivery": 5543,
      "Ġdeeper": 5544,
      "Ġfundamental": 5545,
      "ĠBuild": 5546,
      "Ġdoll": 5547,
      "ĠNovember": 5548,
      "Ġhabits": 5549,
      "Ġinnovative": 5550,
      "ionally": 5551,
      "ifier": 5552,
      "Ġtwice": 5553,
      "Ġsheet": 5554,
      "Ġfirm": 5555,
      "gers": 5556,
      "ĠMoreover": 5557,
      "Ġ45": 5558,
      "Ġcooked": 5559,
      "rant": 5560,
      "Ġsharing": 5561,
      "Ġindependent": 5562,
      "ĠCollege": 5563,
      "Ġnation": 5564,
      "Ġboat": 5565,
      "Ġagriculture": 5566,
      "Ġadds": 5567,
      "ĠTry": 5568,
      "Ġindu": 5569,
      "Ġrab": 5570,
      "Ġpests": 5571,
      "hips": 5572,
      "ĠRuss": 5573,
      "Ġpreventing": 5574,
      "ĠCreat": 5575,
      "Ġsick": 5576,
      "Ġarray": 5577,
      "Ġinstit": 5578,
      "Ġliver": 5579,
      "ĠFlorida": 5580,
      "Ġinjuries": 5581,
      "ocking": 5582,
      "ĠRob": 5583,
      "Ġmeant": 5584,
      "isation": 5585,
      "Ġfig": 5586,
      "Ġwash": 5587,
      "eras": 5588,
      "Ġstability": 5589,
      "',": 5590,
      "Ġprey": 5591,
      "allel": 5592,
      "Ġraised": 5593,
      "urch": 5594,
      "Ġord": 5595,
      "Ġcul": 5596,
      "Ġgather": 5597,
      "ĠEas": 5598,
      "ĠRet": 5599,
      "Ġdecl": 5600,
      "Ġthoughts": 5601,
      "Ġexperiments": 5602,
      "ĠControl": 5603,
      "eling": 5604,
      "irus": 5605,
      "Ġexplan": 5606,
      "Ġlawn": 5607,
      "Ph": 5608,
      "Ġmedications": 5609,
      "iated": 5610,
      "ĠLast": 5611,
      "33": 5612,
      "Ġlessons": 5613,
      "pected": 5614,
      "Ġmir": 5615,
      "ĠFree": 5616,
      "Ġremoving": 5617,
      "CO": 5618,
      "Ġopening": 5619,
      "ĠVol": 5620,
      "iled": 5621,
      "pass": 5622,
      "iance": 5623,
      "ĠGerman": 5624,
      "Ġtow": 5625,
      "vit": 5626,
      "Ġath": 5627,
      "uum": 5628,
      "ĠSecond": 5629,
      "ĠIntroduction": 5630,
      "Cl": 5631,
      "nect": 5632,
      "Ġsustainability": 5633,
      "CA": 5634,
      "oke": 5635,
      "Ġnurs": 5636,
      "Ġbaking": 5637,
      "ctic": 5638,
      "Ġdiagnosis": 5639,
      "ĪĴ": 5640,
      "ĠFebruary": 5641,
      "ndrome": 5642,
      "Ġbiology": 5643,
      "Ġperman": 5644,
      "ĠAvoid": 5645,
      "Ġhardware": 5646,
      "Ġfelt": 5647,
      "Ġbiod": 5648,
      "Ġrace": 5649,
      "Ġstain": 5650,
      "Ġmanner": 5651,
      "Ġstring": 5652,
      "Ġsensors": 5653,
      "cript": 5654,
      "Ġschedule": 5655,
      "Ġinstallation": 5656,
      "Ġmovements": 5657,
      "asure": 5658,
      "rus": 5659,
      "Ġcharacters": 5660,
      "Ġvariable": 5661,
      "Ġagree": 5662,
      "Ġthermal": 5663,
      "Ġpossess": 5664,
      "Ġflying": 5665,
      "Ġforget": 5666,
      "ĠSea": 5667,
      "Ġtitle": 5668,
      "Ġdetection": 5669,
      "Ġraise": 5670,
      "Ġdiscovery": 5671,
      "brid": 5672,
      "ĠBest": 5673,
      "reek": 5674,
      "apers": 5675,
      "ĠDespite": 5676,
      "Ġbiggest": 5677,
      "Ġdiscussed": 5678,
      "Ch": 5679,
      "Ġoffered": 5680,
      "oyal": 5681,
      "Ġequation": 5682,
      "charge": 5683,
      "Ġalumin": 5684,
      "Ġretain": 5685,
      "29": 5686,
      "Ġdrinking": 5687,
      "Ġconfidence": 5688,
      "Ġoverl": 5689,
      "Ġclothes": 5690,
      "Ġmoved": 5691,
      "Ġphosph": 5692,
      "Ġenab": 5693,
      "ocity": 5694,
      "Ġcompleted": 5695,
      "Ġopposite": 5696,
      "Ġnotes": 5697,
      "Ġaccident": 5698,
      "icing": 5699,
      "Ġneuro": 5700,
      "Ġcoal": 5701,
      "what": 5702,
      "Ġprofessor": 5703,
      "Ġdelicious": 5704,
      "Ġdefic": 5705,
      "Ġindustries": 5706,
      "amins": 5707,
      "Ġdriver": 5708,
      "Ġfinish": 5709,
      "Ġexciting": 5710,
      "Ġequival": 5711,
      "ĠDig": 5712,
      "Ġmicros": 5713,
      "Ġincreasingly": 5714,
      "ĠProv": 5715,
      "Ġrecognize": 5716,
      "Ġtal": 5717,
      "ĠDecember": 5718,
      "Ġparas": 5719,
      "Ġyield": 5720,
      "Ġrecipe": 5721,
      "acific": 5722,
      "Ġforests": 5723,
      "Ġcompound": 5724,
      "ĠCam": 5725,
      "ĠTem": 5726,
      "Ġhaven": 5727,
      "Ġconsumers": 5728,
      "ĠSer": 5729,
      "mers": 5730,
      "ran": 5731,
      "Ġdepression": 5732,
      "Ġinsurance": 5733,
      "atin": 5734,
      "oding": 5735,
      "Ġregulations": 5736,
      "Ġdespite": 5737,
      "Ġexploring": 5738,
      "ĠWorks": 5739,
      "ĠShould": 5740,
      "bu": 5741,
      "bur": 5742,
      "Ġment": 5743,
      "Ġemployees": 5744,
      "Ġfamous": 5745,
      "Ġexplains": 5746,
      "ĠEnvironmental": 5747,
      "Ġworse": 5748,
      "Ġflour": 5749,
      "PT": 5750,
      "Ġseeking": 5751,
      "Ġexplained": 5752,
      "Ġtrained": 5753,
      "Ġoccup": 5754,
      "inant": 5755,
      "Ġsupplement": 5756,
      "Ġdedicated": 5757,
      "Ġcovers": 5758,
      "Ġoven": 5759,
      "ĠBro": 5760,
      "Ġemotions": 5761,
      "Ġfriendly": 5762,
      "Ġmeasurement": 5763,
      "Ġbelieved": 5764,
      "ographic": 5765,
      "pet": 5766,
      "Ġsubstances": 5767,
      "Ġprocedures": 5768,
      "Ġsuccessfully": 5769,
      "ĠTV": 5770,
      "Ġtag": 5771,
      "Ġlibrary": 5772,
      "Ġitem": 5773,
      "Ġcircum": 5774,
      "ĠBlue": 5775,
      "Ġcapabilities": 5776,
      "Ġexcessive": 5777,
      "kin": 5778,
      "iform": 5779,
      "Ġcommunicate": 5780,
      "Ġagricultural": 5781,
      "cope": 5782,
      "Ġblocks": 5783,
      "ĠTexas": 5784,
      "ĠService": 5785,
      "Ġgave": 5786,
      "ĠSociety": 5787,
      "Ġpossibly": 5788,
      "ĠAD": 5789,
      "Ġoutcomes": 5790,
      "Ġspots": 5791,
      "ĠStr": 5792,
      "Ġsauce": 5793,
      "Ġ2009": 5794,
      "Ġdram": 5795,
      "Ġcardi": 5796,
      "Ġadequ": 5797,
      "Ġrocks": 5798,
      "Ġconsequences": 5799,
      "ĠEast": 5800,
      "ĠStand": 5801,
      "rue": 5802,
      "Ġreplaced": 5803,
      "OL": 5804,
      "Ġpreserv": 5805,
      "rooms": 5806,
      "tt": 5807,
      "hand": 5808,
      "Ġphysic": 5809,
      "ĠHuman": 5810,
      "arn": 5811,
      "sm": 5812,
      "Ġcompare": 5813,
      "Ġoperate": 5814,
      "iest": 5815,
      "ĠJour": 5816,
      "Ġcompetition": 5817,
      "Ġhistorical": 5818,
      "ĠBack": 5819,
      "=\"": 5820,
      "erative": 5821,
      "Ġcalories": 5822,
      "Ġstores": 5823,
      "Ġinformed": 5824,
      "Ġplayed": 5825,
      "arium": 5826,
      "cal": 5827,
      "plant": 5828,
      "Ġpreferences": 5829,
      "Ġunlike": 5830,
      "Ġregul": 5831,
      "ĠNature": 5832,
      "ĠYear": 5833,
      "Ġpros": 5834,
      "Ġbehaviors": 5835,
      "Ġaest": 5836,
      "Ġsky": 5837,
      "Ġknows": 5838,
      "cons": 5839,
      "Ġdiagram": 5840,
      "Ġguidance": 5841,
      "Ġtor": 5842,
      "Ġrig": 5843,
      "ĠPort": 5844,
      "ĠAsia": 5845,
      "athy": 5846,
      "ker": 5847,
      "Ġconventional": 5848,
      "Ġtip": 5849,
      "Ġdrag": 5850,
      "Ġpeace": 5851,
      "ĠVe": 5852,
      "Ġincl": 5853,
      "zer": 5854,
      "itors": 5855,
      "yn": 5856,
      "Ġcos": 5857,
      "Ġwearing": 5858,
      "Ġears": 5859,
      "ĠWashing": 5860,
      "ĠSal": 5861,
      "ascular": 5862,
      "aint": 5863,
      "idents": 5864,
      "Ġruns": 5865,
      "ĠWood": 5866,
      "otes": 5867,
      "ĠAtt": 5868,
      "rite": 5869,
      "Ġpanels": 5870,
      "ĠPhil": 5871,
      "Ġstudying": 5872,
      "Ġmineral": 5873,
      "ĠAssociation": 5874,
      "Ġconstantly": 5875,
      "Ġpark": 5876,
      "Ġunderlying": 5877,
      "Ġhandling": 5878,
      "Ġmanual": 5879,
      "Ġoral": 5880,
      "Ġsales": 5881,
      "Ġsupposed": 5882,
      "Ġprogramming": 5883,
      "Ġcoc": 5884,
      "ĠMac": 5885,
      "Ġconflic": 5886,
      "ĠSimilar": 5887,
      "bris": 5888,
      "Ġswimming": 5889,
      "Ġusage": 5890,
      "Ġnutrient": 5891,
      "Ġreserv": 5892,
      "eren": 5893,
      "Ġmission": 5894,
      "ĠSol": 5895,
      "ĠSat": 5896,
      "Ġmetals": 5897,
      "Ġends": 5898,
      "ĠProper": 5899,
      "Ġdynamic": 5900,
      "Ġ29": 5901,
      "Ġages": 5902,
      "ford": 5903,
      "ĠDec": 5904,
      "Ġmechanisms": 5905,
      "Ġlisten": 5906,
      "play": 5907,
      "ĠOcean": 5908,
      "ĠWeb": 5909,
      "Ġstrain": 5910,
      "yself": 5911,
      "Ġhospital": 5912,
      "Ġrecords": 5913,
      "Ġpolar": 5914,
      "Ġindex": 5915,
      "ĠSocial": 5916,
      "Ġteams": 5917,
      "ĠOnly": 5918,
      "ĠPot": 5919,
      "ĠPlace": 5920,
      "ĠAP": 5921,
      "Ġmembrane": 5922,
      "CC": 5923,
      "Ġsecret": 5924,
      "riculum": 5925,
      "but": 5926,
      "lin": 5927,
      "Ġstands": 5928,
      "Ġremaining": 5929,
      "Ġindoor": 5930,
      "uits": 5931,
      "ĠEffect": 5932,
      "ĠAtl": 5933,
      "win": 5934,
      "Ġtruth": 5935,
      "stream": 5936,
      "ĠPress": 5937,
      "Ġzone": 5938,
      "ophy": 5939,
      "Ġion": 5940,
      "ĠAng": 5941,
      "Ġfacts": 5942,
      "Ġhumidity": 5943,
      "rument": 5944,
      "Ġvalve": 5945,
      "75": 5946,
      "Ġcards": 5947,
      "Ġmanufacturer": 5948,
      "Ġproposed": 5949,
      "Ġloose": 5950,
      "Ġ500": 5951,
      "Ġpolic": 5952,
      "Ġstudied": 5953,
      "ĠCD": 5954,
      "Ġsupports": 5955,
      "cule": 5956,
      "ĠPract": 5957,
      "Ġalt": 5958,
      "Ġfollows": 5959,
      "bility": 5960,
      "ĠThose": 5961,
      "Ġ`": 5962,
      "uis": 5963,
      "riers": 5964,
      "Ġmeasurements": 5965,
      "otton": 5966,
      "ĠDid": 5967,
      "een": 5968,
      "Ġcalls": 5969,
      "Ġindicates": 5970,
      "uzz": 5971,
      "ĠĠĠ": 5972,
      "Ġcontinued": 5973,
      "Ġvalid": 5974,
      "unning": 5975,
      "Ġvaccine": 5976,
      "ocy": 5977,
      "Ġchart": 5978,
      "iders": 5979,
      "iber": 5980,
      "Ġcontinuous": 5981,
      "Ġwrote": 5982,
      "ĠOh": 5983,
      "PU": 5984,
      "ĠDevelopment": 5985,
      "Ġdestroy": 5986,
      "Ġpolitical": 5987,
      "ĠMount": 5988,
      "ĠSym": 5989,
      "Ġbasically": 5990,
      "how": 5991,
      "iability": 5992,
      "Ġrequest": 5993,
      "Ġbranches": 5994,
      "ifies": 5995,
      "edia": 5996,
      "Ġmining": 5997,
      "Ġrevolution": 5998,
      "Ġmoves": 5999,
      "arter": 6000,
      "ĠPlay": 6001,
      "Ġletter": 6002,
      "Ġshade": 6003,
      "Ġentirely": 6004,
      "Ġfinally": 6005,
      "rence": 6006,
      "Ġyog": 6007,
      "Ġbreathing": 6008,
      "Ġacademic": 6009,
      "500": 6010,
      "Ġinterpret": 6011,
      "Ġdelivery": 6012,
      "Ġreplacement": 6013,
      "ĠGuide": 6014,
      "Ġ300": 6015,
      "ras": 6016,
      "Ġsupporting": 6017,
      "ota": 6018,
      "Ġchannel": 6019,
      "Ġsecondary": 6020,
      "Ġkeeps": 6021,
      "ĠBay": 6022,
      "Ġnose": 6023,
      "If": 6024,
      "Ġbehaviour": 6025,
      "Ġrecycling": 6026,
      "Ġwish": 6027,
      "Ġreward": 6028,
      "Ġachieved": 6029,
      "Ġmyself": 6030,
      "Ġspeech": 6031,
      "Ġtrends": 6032,
      "Ġauthors": 6033,
      "Ġimagine": 6034,
      "Ġaccompl": 6035,
      "ĠMedic": 6036,
      "Ġmice": 6037,
      "Ġconsume": 6038,
      "Ġscene": 6039,
      "Ġscrew": 6040,
      "Ġsusp": 6041,
      "Ġpuppy": 6042,
      "ked": 6043,
      "Ġye": 6044,
      "haust": 6045,
      "LE": 6046,
      "pat": 6047,
      "Ġparameters": 6048,
      "Ġlinks": 6049,
      "Ġdepos": 6050,
      "Ġcourses": 6051,
      "Ġweigh": 6052,
      "36": 6053,
      "Ġfeelings": 6054,
      "Ġcities": 6055,
      "Ġmort": 6056,
      "Ġshed": 6057,
      "Ġedges": 6058,
      "IV": 6059,
      "Ġrecept": 6060,
      "ĠDel": 6061,
      "Ġhundreds": 6062,
      "Ġnerve": 6063,
      "Ġ?": 6064,
      "Ġarticles": 6065,
      "Ġinch": 6066,
      "itches": 6067,
      "Ġengaging": 6068,
      "Ġpoison": 6069,
      "Ġcheap": 6070,
      "Ġgravity": 6071,
      "overn": 6072,
      "ĠChoose": 6073,
      "itter": 6074,
      "Ġinnovation": 6075,
      "US": 6076,
      "Ġfemales": 6077,
      "Ġmillions": 6078,
      "Ġsatisf": 6079,
      "Ġknowing": 6080,
      "Ġexercises": 6081,
      "Ġtransp": 6082,
      "Ġdebris": 6083,
      "Ġsen": 6084,
      "Ġcord": 6085,
      "ĠOF": 6086,
      "ĠÂ·": 6087,
      "ĠJapanese": 6088,
      "32": 6089,
      "Ġinterface": 6090,
      "Ġobst": 6091,
      "Ġvertical": 6092,
      "Ġped": 6093,
      "ĠTer": 6094,
      "Ġmilitary": 6095,
      "Ġ2008": 6096,
      "Ġextended": 6097,
      "cover": 6098,
      "Ġaccessible": 6099,
      "ĠEngland": 6100,
      "Ġfacilities": 6101,
      "ga": 6102,
      "itivity": 6103,
      "Ġham": 6104,
      "ĠShare": 6105,
      "Ġ00": 6106,
      "Ġmassive": 6107,
      "Ġanywhere": 6108,
      "Ġlisted": 6109,
      "Ġfan": 6110,
      "tr": 6111,
      "Ġvegetable": 6112,
      "Ġbags": 6113,
      "Ġcameras": 6114,
      "Ġdirt": 6115,
      "Ġske": 6116,
      "Ġjobs": 6117,
      "Ġsight": 6118,
      "Ġjew": 6119,
      "Ġrestrict": 6120,
      "Ġtap": 6121,
      "Ġnetworks": 6122,
      "ĠComput": 6123,
      "Ġsubstant": 6124,
      "ĠMal": 6125,
      "Ġtea": 6126,
      "Ġfarming": 6127,
      "ĠSil": 6128,
      "uls": 6129,
      "Ġsession": 6130,
      "lers": 6131,
      "Ġtrigger": 6132,
      "Ġmountain": 6133,
      "iratory": 6134,
      "ĠFam": 6135,
      "Ġchapter": 6136,
      "Ġrefriger": 6137,
      "Ġride": 6138,
      "Ġparallel": 6139,
      "Ġsupported": 6140,
      "Ġminute": 6141,
      "Ġcloud": 6142,
      "Ġcable": 6143,
      "ĠFIG": 6144,
      "oves": 6145,
      "Ġsafely": 6146,
      "Ġchol": 6147,
      "Ġton": 6148,
      "Ġcyl": 6149,
      "Ġtissues": 6150,
      "Ġthrive": 6151,
      "Ġgardens": 6152,
      "ondon": 6153,
      "Ġbreeds": 6154,
      "II": 6155,
      "Ġeveryday": 6156,
      "Ġarrange": 6157,
      "Ġgro": 6158,
      "Ġtropical": 6159,
      "ĠTips": 6160,
      "vin": 6161,
      "ĠRad": 6162,
      "Ġimprovement": 6163,
      "ham": 6164,
      "ifts": 6165,
      "Ġserved": 6166,
      "Ġserves": 6167,
      "ĠArch": 6168,
      "Ġlun": 6169,
      "Ġdiameter": 6170,
      "Ġapplying": 6171,
      "Ġframew": 6172,
      "Ġvelocity": 6173,
      "ĠEqu": 6174,
      "Ġorange": 6175,
      "ĠPacific": 6176,
      "Ġbite": 6177,
      "Ġcreativity": 6178,
      "Ġmeasuring": 6179,
      "ĠManagement": 6180,
      "rastructure": 6181,
      "Ġmes": 6182,
      "Ġthanks": 6183,
      "Ġpreparation": 6184,
      "ulin": 6185,
      "Ġstronger": 6186,
      "Ġdescription": 6187,
      "Ġstyles": 6188,
      "ĠProfessor": 6189,
      "uts": 6190,
      "onge": 6191,
      "Ġcontrols": 6192,
      "ĠPublic": 6193,
      "Ġminor": 6194,
      "BC": 6195,
      "ette": 6196,
      "cher": 6197,
      "den": 6198,
      "Ġcognitive": 6199,
      "Ġformer": 6200,
      "Ġherb": 6201,
      "vents": 6202,
      "Ġgone": 6203,
      "Ġholds": 6204,
      "Ġdelay": 6205,
      "Ġembra": 6206,
      "Ġresponses": 6207,
      "Ġgardening": 6208,
      "Ġseal": 6209,
      "berry": 6210,
      "Ġpurs": 6211,
      "Ġplus": 6212,
      "Ġengines": 6213,
      "Ġtransportation": 6214,
      "azon": 6215,
      "son": 6216,
      "Ġouter": 6217,
      "Ġbrief": 6218,
      "amps": 6219,
      "Ġhorizon": 6220,
      "Ġgrows": 6221,
      "Ġbank": 6222,
      "Ġassistance": 6223,
      "Ġdim": 6224,
      "Ġhabitats": 6225,
      "Ġmm": 6226,
      "Ġrod": 6227,
      "Ġchromos": 6228,
      "Ġcommitment": 6229,
      "Ġguarant": 6230,
      "Ġintroduction": 6231,
      "ĠChapter": 6232,
      "Ġclock": 6233,
      "Ġblo": 6234,
      "Ġopinion": 6235,
      "Ġminimize": 6236,
      "orph": 6237,
      "Ġmales": 6238,
      "Ġasking": 6239,
      "Ġwashing": 6240,
      "Ġimpossible": 6241,
      "Ġfault": 6242,
      "cific": 6243,
      "Ġtaught": 6244,
      "Ġlenses": 6245,
      "Ġinhib": 6246,
      "ĠMat": 6247,
      "ĠIsland": 6248,
      "Ġstars": 6249,
      "ĠMeth": 6250,
      "coming": 6251,
      "Ġcivil": 6252,
      "Ġwhereas": 6253,
      "Ġefficiently": 6254,
      "uing": 6255,
      "Ġunw": 6256,
      "roc": 6257,
      "Ġseam": 6258,
      "rix": 6259,
      "Ġbee": 6260,
      "Ġkne": 6261,
      "Ġsector": 6262,
      "Ġremoval": 6263,
      "Ġmanip": 6264,
      "ĠMuse": 6265,
      "Ġvitamins": 6266,
      "Ġchosen": 6267,
      "Ġirrit": 6268,
      "Ġparty": 6269,
      "Ġgreatly": 6270,
      "Ġpest": 6271,
      "ĠMult": 6272,
      "Ġrenewable": 6273,
      "Ġconfig": 6274,
      "men": 6275,
      "ushed": 6276,
      "Ġcampa": 6277,
      "ĠDogs": 6278,
      "Ġinfected": 6279,
      "How": 6280,
      "la": 6281,
      "Ġveterin": 6282,
      "ĠLake": 6283,
      "44": 6284,
      "ĠPen": 6285,
      "Ġfrequent": 6286,
      "Ġresponsibility": 6287,
      "Ġmanufacturers": 6288,
      "Ġspecialized": 6289,
      "Ġchemistry": 6290,
      "Ġprotective": 6291,
      "Ġminimal": 6292,
      "outs": 6293,
      "Ġinstrument": 6294,
      "Ġadvert": 6295,
      "Ġstructural": 6296,
      "Ġexpertise": 6297,
      "Ġvolunte": 6298,
      "Ġbrings": 6299,
      "Ġfinished": 6300,
      "ĠPet": 6301,
      "Ġjoin": 6302,
      "Ġvine": 6303,
      "ĠNews": 6304,
      "ĠSuper": 6305,
      "position": 6306,
      "Ġ2000": 6307,
      "ĠInformation": 6308,
      "ĠClick": 6309,
      "Ġol": 6310,
      "Ġrely": 6311,
      "Ġartists": 6312,
      "ĠResearchers": 6313,
      "Ġcontamin": 6314,
      "nel": 6315,
      "Ġenthusi": 6316,
      "ĠAM": 6317,
      "Ġscan": 6318,
      "stone": 6319,
      "Ġbeans": 6320,
      "illa": 6321,
      "Ġweap": 6322,
      "lings": 6323,
      "Ġmeters": 6324,
      "ĠAmericans": 6325,
      "Ġdistingu": 6326,
      "akers": 6327,
      "IM": 6328,
      "ĠForm": 6329,
      "Ġoxid": 6330,
      "ĠMa": 6331,
      "Ġtrim": 6332,
      "Ġabsorb": 6333,
      "Ġcomparison": 6334,
      "Ġnorthern": 6335,
      "Ġcast": 6336,
      "Ġsouthern": 6337,
      "ĠSpace": 6338,
      "Ġcharging": 6339,
      "EO": 6340,
      "Ġvacuum": 6341,
      "Ġð": 6342,
      "ĠClimate": 6343,
      "Ġexpans": 6344,
      "Ġremark": 6345,
      "Ġfascinating": 6346,
      "Ġprinciple": 6347,
      "Ġtire": 6348,
      "ĠUV": 6349,
      "Ġcere": 6350,
      "Ġ196": 6351,
      "ague": 6352,
      "ĠMedical": 6353,
      "Ġneutral": 6354,
      "Ġunus": 6355,
      "uous": 6356,
      "ĠTable": 6357,
      "ĠCour": 6358,
      "atus": 6359,
      "zed": 6360,
      "ĠDise": 6361,
      "Ġyes": 6362,
      "Ġconcerned": 6363,
      "ĠAT": 6364,
      "Ġï": 6365,
      "Ġdomestic": 6366,
      "Ġecosystems": 6367,
      "aph": 6368,
      "pling": 6369,
      "no": 6370,
      "inction": 6371,
      "vis": 6372,
      "Ġtutorial": 6373,
      "IP": 6374,
      "Ġamb": 6375,
      "38": 6376,
      "Ġequivalent": 6377,
      "ĠEss": 6378,
      "Ġcollaboration": 6379,
      "fe": 6380,
      "Ġsitting": 6381,
      "alled": 6382,
      "Ġfewer": 6383,
      "ĠMot": 6384,
      "Ġflavors": 6385,
      "Ġpromoting": 6386,
      "fra": 6387,
      "Ġalgorithms": 6388,
      "Ġvict": 6389,
      "Ġstanding": 6390,
      "Ġinterior": 6391,
      "esity": 6392,
      "Ġtape": 6393,
      "Ġbowl": 6394,
      "Ġpredators": 6395,
      "Ġretur": 6396,
      "ĠLondon": 6397,
      "Ġresil": 6398,
      "Ġloop": 6399,
      "Ġluck": 6400,
      "Ġmanaging": 6401,
      "Ġsupplies": 6402,
      "Ġdatabase": 6403,
      "Ġran": 6404,
      "Ġautomatically": 6405,
      "Ġpassion": 6406,
      "Ġalgorithm": 6407,
      "ĠFoundation": 6408,
      "umes": 6409,
      "Ġdivided": 6410,
      "Ġresol": 6411,
      "Ġsuffer": 6412,
      "Ġvessels": 6413,
      "Ġexhaust": 6414,
      "ĠWashington": 6415,
      "iam": 6416,
      "----------------": 6417,
      "aughter": 6418,
      "Ġloved": 6419,
      "Ġhappening": 6420,
      "log": 6421,
      "Ġattend": 6422,
      "anged": 6423,
      "Ġinterview": 6424,
      "ĠLar": 6425,
      "ĠGroup": 6426,
      "Ġlaboratory": 6427,
      "inn": 6428,
      "39": 6429,
      "effect": 6430,
      "Ġorgans": 6431,
      "Ġgluc": 6432,
      "cm": 6433,
      "Ġfeels": 6434,
      "Ġattach": 6435,
      "Ġperfectly": 6436,
      "ĠAS": 6437,
      "Ġmolecule": 6438,
      "Ġphotograp": 6439,
      "ĠDifferent": 6440,
      "Ġclassic": 6441,
      "ĠIncre": 6442,
      "ĠHaw": 6443,
      "ĠAcad": 6444,
      "ĠSuch": 6445,
      "Ġnoted": 6446,
      "Ġsignificance": 6447,
      "Ġtrouble": 6448,
      "Ġdairy": 6449,
      "Ġultimately": 6450,
      "Ġcouldn": 6451,
      "ctive": 6452,
      "Ġplatforms": 6453,
      "Ġmicrob": 6454,
      "ora": 6455,
      "Ġparticle": 6456,
      "Ġrecognition": 6457,
      "01": 6458,
      "Ġinsulation": 6459,
      "press": 6460,
      "Ġextent": 6461,
      "Ġease": 6462,
      "agues": 6463,
      "ĠCurrent": 6464,
      "abil": 6465,
      "Ġlogic": 6466,
      "Ġreached": 6467,
      "Ġ@": 6468,
      "ĠThough": 6469,
      "Ġcorner": 6470,
      "Ġclus": 6471,
      "Ġharder": 6472,
      "Ġsmoke": 6473,
      "Ġpix": 6474,
      "atching": 6475,
      "Ġpipe": 6476,
      "angered": 6477,
      "Ġdimens": 6478,
      "ĠConf": 6479,
      "esterol": 6480,
      "Ġsessions": 6481,
      "Ġtables": 6482,
      "ĠIce": 6483,
      "ĠGener": 6484,
      "Ġreef": 6485,
      "ĠSafety": 6486,
      "obal": 6487,
      "Ġtric": 6488,
      "ĠWestern": 6489,
      "Ġwatching": 6490,
      "ka": 6491,
      "ĠMaterial": 6492,
      "Ġlifes": 6493,
      "angle": 6494,
      "Ġgrand": 6495,
      "Ġsoap": 6496,
      "avy": 6497,
      "uel": 6498,
      "level": 6499,
      "Ġfairly": 6500,
      "ĠÃ": 6501,
      "imental": 6502,
      "Ġholding": 6503,
      "ĠMexico": 6504,
      "sts": 6505,
      "Ġknew": 6506,
      "normal": 6507,
      "ĠSam": 6508,
      "proof": 6509,
      "Ġunf": 6510,
      "Ġbacterial": 6511,
      "ella": 6512,
      "Ġchances": 6513,
      "Ġtown": 6514,
      "Ġspr": 6515,
      ".âĢĿ": 6516,
      "Ġalter": 6517,
      "Ġpink": 6518,
      "band": 6519,
      "zym": 6520,
      "Ġwings": 6521,
      "Ġcompl": 6522,
      "ket": 6523,
      "Ġblind": 6524,
      "Ġargument": 6525,
      "ĠHouse": 6526,
      "Ġspectrum": 6527,
      "Ġwal": 6528,
      "Ġempt": 6529,
      "heet": 6530,
      "Ġlik": 6531,
      "Ġatom": 6532,
      "Ġpossibility": 6533,
      "well": 6534,
      "Ġleak": 6535,
      "Ġintensity": 6536,
      "Ġgenerations": 6537,
      "ĠGeneral": 6538,
      "05": 6539,
      "rub": 6540,
      "Ġeffectiveness": 6541,
      "ĠType": 6542,
      "Ġclients": 6543,
      "Ġmenu": 6544,
      "Ġsilver": 6545,
      "esides": 6546,
      "Ġselecting": 6547,
      "ĠRight": 6548,
      "ĠNAS": 6549,
      "Ġgent": 6550,
      "Ġintric": 6551,
      "Ġdial": 6552,
      "ĠImpro": 6553,
      "ĠAND": 6554,
      "48": 6555,
      "ĠScientists": 6556,
      "Ġisland": 6557,
      "Ġcas": 6558,
      "Ġtast": 6559,
      "Ġenables": 6560,
      "Ġphil": 6561,
      "Ġcrow": 6562,
      "ĠLess": 6563,
      "gal": 6564,
      "ython": 6565,
      "Ġrecipes": 6566,
      "Ġcav": 6567,
      "ĠInternet": 6568,
      "BS": 6569,
      "phones": 6570,
      "ĠLow": 6571,
      "IR": 6572,
      "Ġinstant": 6573,
      "tic": 6574,
      "ĠMuseum": 6575,
      "Ġvibrant": 6576,
      "icted": 6577,
      "ilation": 6578,
      "Ġevolved": 6579,
      "Ġexchange": 6580,
      "Ġresistant": 6581,
      "Ġclar": 6582,
      "ĠEnd": 6583,
      "Ġwidth": 6584,
      "ĠSelect": 6585,
      "icity": 6586,
      "Ġturb": 6587,
      "Ġinfrastructure": 6588,
      "Ġcontainers": 6589,
      "CS": 6590,
      "kay": 6591,
      "agnetic": 6592,
      "ĠBig": 6593,
      "ĠHyd": 6594,
      "Ġhealing": 6595,
      "enses": 6596,
      "Ġprecision": 6597,
      "Ġancest": 6598,
      "Ġnecessarily": 6599,
      "ugs": 6600,
      "Ġnoticed": 6601,
      "ĠSource": 6602,
      "ĠCell": 6603,
      "Ġregist": 6604,
      "ommod": 6605,
      "aped": 6606,
      "Ġpun": 6607,
      "opl": 6608,
      "Ġresolution": 6609,
      "Ġcompact": 6610,
      "ĠBenef": 6611,
      "ĠFace": 6612,
      "CH": 6613,
      "Ġunderst": 6614,
      "ĠList": 6615,
      "rical": 6616,
      "Ġfertilizer": 6617,
      "Ġderived": 6618,
      "mas": 6619,
      "inity": 6620,
      "agers": 6621,
      "ĠDraw": 6622,
      "Ġserving": 6623,
      "Ġbuff": 6624,
      "Ġrealize": 6625,
      "Ġstroke": 6626,
      "Ġlimits": 6627,
      "tical": 6628,
      "Ġapparent": 6629,
      "Ġpolicies": 6630,
      "xid": 6631,
      "ĠCentral": 6632,
      "Ġconvert": 6633,
      "othe": 6634,
      "Ġgases": 6635,
      "ĠLaw": 6636,
      "Ġnutritional": 6637,
      "Ġlinear": 6638,
      "with": 6639,
      "Ġfinger": 6640,
      "Ġtherap": 6641,
      "Ġcorresponding": 6642,
      "Ġmood": 6643,
      "Ġmer": 6644,
      "Ġlies": 6645,
      "ĠHaving": 6646,
      "Ġflexible": 6647,
      "ĠMach": 6648,
      "Ġdigestive": 6649,
      "Ġextend": 6650,
      "Ġrecommendations": 6651,
      "pm": 6652,
      "Ġreput": 6653,
      "Ġtick": 6654,
      "Ġsubjects": 6655,
      "Ġstorm": 6656,
      "acc": 6657,
      "efficient": 6658,
      "Ġfacing": 6659,
      "Ġwilling": 6660,
      "rid": 6661,
      "ounced": 6662,
      "appe": 6663,
      "Ġsch": 6664,
      "using": 6665,
      "Ġlived": 6666,
      "Ġpaid": 6667,
      "Ġappreciate": 6668,
      "ĠCut": 6669,
      "Ġproductivity": 6670,
      "Ġflash": 6671,
      "Ġoverw": 6672,
      "Ġentertain": 6673,
      "Ġhur": 6674,
      "Ġburning": 6675,
      "Ġdefine": 6676,
      "Ġcalculate": 6677,
      "ĠIll": 6678,
      "Ġscore": 6679,
      "fit": 6680,
      "Ġcomplicated": 6681,
      "Ġ2007": 6682,
      "ĠFA": 6683,
      "Ġnervous": 6684,
      "ĠCop": 6685,
      "Ġbabies": 6686,
      "Ġfather": 6687,
      "Ġvariation": 6688,
      "Ġdive": 6689,
      "Ġeliminate": 6690,
      "Ġdistur": 6691,
      "aired": 6692,
      "ĠProcess": 6693,
      "ĠPal": 6694,
      "You": 6695,
      "Ġpel": 6696,
      "Ġflexibility": 6697,
      "Ġplanted": 6698,
      "Ġfav": 6699,
      "making": 6700,
      "Ġintegrated": 6701,
      "Ġ2022": 6702,
      "earing": 6703,
      "Ġaluminum": 6704,
      "Ġhidden": 6705,
      "DF": 6706,
      "ĠVit": 6707,
      "otyp": 6708,
      "Ġyouth": 6709,
      "Ġconversation": 6710,
      "ĠImag": 6711,
      "orge": 6712,
      "hent": 6713,
      "izers": 6714,
      "Ġvariables": 6715,
      "fly": 6716,
      "Ġprevention": 6717,
      "ĠBus": 6718,
      "ocket": 6719,
      "ĠAmazon": 6720,
      "Ġcoastal": 6721,
      "55": 6722,
      "irty": 6723,
      "Ġov": 6724,
      "Ġtires": 6725,
      "Ġrecognized": 6726,
      "34": 6727,
      "Ġwonderful": 6728,
      "Ġconsumer": 6729,
      "Ġauto": 6730,
      "Ġyard": 6731,
      "Ġclub": 6732,
      "Ġseat": 6733,
      "Ġincome": 6734,
      "Ġattacks": 6735,
      "Ġgrid": 6736,
      "Ġsyndrome": 6737,
      "ĠCH": 6738,
      "ometer": 6739,
      "Ġnuclear": 6740,
      "ĠPhotos": 6741,
      "alysis": 6742,
      "Ġcapital": 6743,
      "Ġsexual": 6744,
      "oons": 6745,
      "Ġfitness": 6746,
      "Ġabilities": 6747,
      "37": 6748,
      "Ġbeef": 6749,
      "ĠJo": 6750,
      "ĠCreate": 6751,
      "Ġpand": 6752,
      "Ġhealthier": 6753,
      "Ġinspect": 6754,
      "Ġvet": 6755,
      "Ġgal": 6756,
      "Ġconvenient": 6757,
      "Ġversatile": 6758,
      "ĠThank": 6759,
      "Ġathlet": 6760,
      "anish": 6761,
      "Ġkilled": 6762,
      "Ġdifficulty": 6763,
      "Ġ32": 6764,
      "Ġpackaging": 6765,
      "gu": 6766,
      "Ġtransmit": 6767,
      "Ġsatell": 6768,
      "medi": 6769,
      "erior": 6770,
      "ĠNut": 6771,
      "Ġcircumst": 6772,
      "Ġcomments": 6773,
      "Ġfunding": 6774,
      "Ġaims": 6775,
      "Ġpeak": 6776,
      "ĠCost": 6777,
      "alian": 6778,
      "ether": 6779,
      "otal": 6780,
      "ĠJournal": 6781,
      "ĠSn": 6782,
      "ĠIdent": 6783,
      "heets": 6784,
      "ĠUnfortunately": 6785,
      "Ġviruses": 6786,
      "istant": 6787,
      "Ġsac": 6788,
      "Ġarms": 6789,
      "Ġgradually": 6790,
      "Ġacts": 6791,
      "Ġdrivers": 6792,
      "Ġcompat": 6793,
      "!\"": 6794,
      "Ġmature": 6795,
      "Ġconscious": 6796,
      "Ġvariations": 6797,
      "ĠAustralian": 6798,
      "Ġcolumn": 6799,
      "Ġblend": 6800,
      "vol": 6801,
      "Ġcitiz": 6802,
      "fast": 6803,
      "Ġsubsequ": 6804,
      "ĠNon": 6805,
      "Ġrib": 6806,
      "Ġmanaged": 6807,
      "ĠBur": 6808,
      "Ġassume": 6809,
      "ints": 6810,
      "Ġterrit": 6811,
      "Ġsuscept": 6812,
      "Ġrespiratory": 6813,
      "ĠMem": 6814,
      "Ġartist": 6815,
      "Ġrobots": 6816,
      "Ġantibiotics": 6817,
      "Ġrespectively": 6818,
      "Ġdied": 6819,
      "ĠAR": 6820,
      "Ġwaiting": 6821,
      "Ġgeomet": 6822,
      "atric": 6823,
      "osion": 6824,
      "ĠImport": 6825,
      "amic": 6826,
      "Ġkg": 6827,
      "Ġdetermining": 6828,
      "Ġforming": 6829,
      "Ġson": 6830,
      "Ġtraits": 6831,
      "Ġconclud": 6832,
      "Ġpotatoes": 6833,
      "Ġgrain": 6834,
      "Ġpartner": 6835,
      "Ġnarrow": 6836,
      "field": 6837,
      "As": 6838,
      "Ġspeaking": 6839,
      "Ġserver": 6840,
      "eli": 6841,
      "ĠMass": 6842,
      "Ġmovie": 6843,
      "Ġfrozen": 6844,
      "Ġnuts": 6845,
      "eles": 6846,
      "Ġdeer": 6847,
      "Ġdealing": 6848,
      "Ġimmediate": 6849,
      "ĠConst": 6850,
      "Ġappoint": 6851,
      "Ġsections": 6852,
      "Ġcandid": 6853,
      "ĠFish": 6854,
      "Ġintense": 6855,
      "Ġadequate": 6856,
      "Ġongoing": 6857,
      "apping": 6858,
      "Ġpresentation": 6859,
      "Ġbottle": 6860,
      "ĠDavid": 6861,
      "ources": 6862,
      "Ġcotton": 6863,
      "edom": 6864,
      "Ġprinter": 6865,
      "ĠSmall": 6866,
      "Ġkm": 6867,
      "Ġaccommod": 6868,
      "unt": 6869,
      "Ġoils": 6870,
      "Ġpermanent": 6871,
      "Ġexperiencing": 6872,
      "ĠQuestions": 6873,
      "ĠBal": 6874,
      "posal": 6875,
      "ĠMo": 6876,
      "Ġclay": 6877,
      "ĠLim": 6878,
      "face": 6879,
      "Ġnearby": 6880,
      "Ġbreaking": 6881,
      "Ġentry": 6882,
      "Ġdefect": 6883,
      "rab": 6884,
      "Ġleader": 6885,
      "Ġpreferred": 6886,
      "Ġdecline": 6887,
      "Ġpersist": 6888,
      "Ġjack": 6889,
      "Ġsan": 6890,
      "Ġbiodiversity": 6891,
      "Ġsteam": 6892,
      "ãĢ": 6893,
      "Ġoccurred": 6894,
      "Ġcurriculum": 6895,
      "Ġcaught": 6896,
      "Ġpairs": 6897,
      "Ġdrops": 6898,
      "under": 6899,
      "ĠDown": 6900,
      "Ġshall": 6901,
      "Ġtoys": 6902,
      "Ġ36": 6903,
      "ĠPan": 6904,
      "Ġdurable": 6905,
      "Ġ75": 6906,
      "comm": 6907,
      "Ġsuffering": 6908,
      "Ġdescribes": 6909,
      "Ġpestic": 6910,
      "rape": 6911,
      "Ġhybrid": 6912,
      "ĠUnlike": 6913,
      "Ġmammals": 6914,
      "Ġdemonstrate": 6915,
      "ENT": 6916,
      "Ġclient": 6917,
      "Ġanalog": 6918,
      "//": 6919,
      "Ġparticipate": 6920,
      "ĠMr": 6921,
      "Ġfocuses": 6922,
      "ĠPerson": 6923,
      "Ġheads": 6924,
      "Ġgenome": 6925,
      "reens": 6926,
      "uning": 6927,
      "Ġcalm": 6928,
      "Ġrobust": 6929,
      "Ġwatering": 6930,
      "Ġinteractive": 6931,
      "Ġcham": 6932,
      "%.": 6933,
      "Ġprofile": 6934,
      "Ġfunctionality": 6935,
      "Ġduration": 6936,
      "ĠZe": 6937,
      "Ġpit": 6938,
      "ĠImp": 6939,
      "Ġcholesterol": 6940,
      "OW": 6941,
      "ĠInf": 6942,
      "ĠMaybe": 6943,
      "ikes": 6944,
      "osaur": 6945,
      "Ġtough": 6946,
      "Ġtot": 6947,
      "Ġdurability": 6948,
      "ĠReview": 6949,
      "Ġviews": 6950,
      "Ġchest": 6951,
      "Ġcontem": 6952,
      "Ġtheore": 6953,
      "ymph": 6954,
      "Ġstreet": 6955,
      "bohyd": 6956,
      "Ġcoop": 6957,
      "Ġrect": 6958,
      "Ġunknown": 6959,
      "Ġtele": 6960,
      "Ġdietary": 6961,
      "Ġliterature": 6962,
      "ĠGermany": 6963,
      "ĠTrue": 6964,
      "Ġstrip": 6965,
      "Ġcompress": 6966,
      "Ġbugs": 6967,
      "ynt": 6968,
      "Ġow": 6969,
      "ĠBook": 6970,
      "omfort": 6971,
      "ĠFalse": 6972,
      "Ġhypothes": 6973,
      "47": 6974,
      "ĠSing": 6975,
      "ĠCy": 6976,
      "Ġdoctors": 6977,
      "Ġfederal": 6978,
      "gien": 6979,
      "Ġrubber": 6980,
      "CD": 6981,
      "ĠSign": 6982,
      "AB": 6983,
      "ĠAgricult": 6984,
      "Ġvector": 6985,
      "ading": 6986,
      "ĠSpecial": 6987,
      "asses": 6988,
      "Ġlandscap": 6989,
      "ĠHand": 6990,
      "itness": 6991,
      "ĠEns": 6992,
      "ĠRNA": 6993,
      "Ġshorter": 6994,
      "ĠGovern": 6995,
      "Ġprocessed": 6996,
      "Ġdoors": 6997,
      "ĠConservation": 6998,
      "cue": 6999,
      "Ġbiom": 7000,
      "Ġfocusing": 7001,
      "Ġevaluate": 7002,
      "ĠUlt": 7003,
      "uses": 7004,
      "Ġimplementation": 7005,
      "Ġcircle": 7006,
      "Ġrecording": 7007,
      "Ġpilot": 7008,
      "Ġpossibilities": 7009,
      "Ġdense": 7010,
      "Ġjuice": 7011,
      "Ġcolleagues": 7012,
      "Ġvulnerable": 7013,
      "Ġinstrum": 7014,
      "Ġexistence": 7015,
      "Ġcategory": 7016,
      "ĠApple": 7017,
      "ĠMil": 7018,
      "()": 7019,
      "ĠLeg": 7020,
      "ĠVir": 7021,
      "Ġdiscomfort": 7022,
      "Ġrepeated": 7023,
      "Ġcultures": 7024,
      "ĠâĢĭ": 7025,
      "ĠAud": 7026,
      "Ġprotecting": 7027,
      "Ġdirector": 7028,
      "Ġlargely": 7029,
      "ĠChange": 7030,
      "Ġstated": 7031,
      "bage": 7032,
      "quit": 7033,
      "Ġshowc": 7034,
      "then": 7035,
      "ĠMedicine": 7036,
      "net": 7037,
      "ona": 7038,
      "Ġbrands": 7039,
      "ĠUN": 7040,
      "Ġcomputing": 7041,
      "utch": 7042,
      "Ġsodium": 7043,
      "certain": 7044,
      ",âĢĿ": 7045,
      "lessly": 7046,
      "ĠJe": 7047,
      "ĠNASA": 7048,
      "ĠDue": 7049,
      "ocation": 7050,
      "??": 7051,
      "tery": 7052,
      "scale": 7053,
      "Ġobserve": 7054,
      "ĠAp": 7055,
      "Ġthoroughly": 7056,
      "Ġlifespan": 7057,
      "nger": 7058,
      "Ġtons": 7059,
      "CT": 7060,
      "ĠEarly": 7061,
      "Ġshock": 7062,
      "46": 7063,
      "Ġfant": 7064,
      "ĠNever": 7065,
      "berg": 7066,
      "Ġassembly": 7067,
      "Ġoptical": 7068,
      "dr": 7069,
      "Ġ150": 7070,
      "istor": 7071,
      "Ġneur": 7072,
      "Ġgentle": 7073,
      "Ġexists": 7074,
      "Ġinvention": 7075,
      "Ġidentifying": 7076,
      "Ġourselves": 7077,
      "Ġmitig": 7078,
      "Ġdisrupt": 7079,
      "ĠOld": 7080,
      "Ġnor": 7081,
      "Ġfilters": 7082,
      "hemistry": 7083,
      "Ġreceiving": 7084,
      "ĠFrance": 7085,
      "zyme": 7086,
      "Ġveterinarian": 7087,
      "Ġintest": 7088,
      "Ġframework": 7089,
      "ĠDescription": 7090,
      "Ġrevealed": 7091,
      "Ġintroduce": 7092,
      "ĠWithout": 7093,
      "ĠFig": 7094,
      "ĠPlants": 7095,
      "Ġfeather": 7096,
      "Ġexamine": 7097,
      "Ġlip": 7098,
      "soft": 7099,
      "step": 7100,
      "Ġtells": 7101,
      "Ġnavigate": 7102,
      "Ġexpansion": 7103,
      "zymes": 7104,
      "Ġcub": 7105,
      "Ġstems": 7106,
      "ĠColl": 7107,
      "Ġmere": 7108,
      "inent": 7109,
      "ĠIndust": 7110,
      "ĠWindows": 7111,
      "Ġid": 7112,
      "Ġgreatest": 7113,
      "Ġaffecting": 7114,
      "Ġproven": 7115,
      "heric": 7116,
      "Ġproof": 7117,
      "Ġglucose": 7118,
      "ĠImagine": 7119,
      "Ġeco": 7120,
      "Ġgoods": 7121,
      "95": 7122,
      "Ġbought": 7123,
      "Ġpharm": 7124,
      "Ġexplanation": 7125,
      "Ġaggressive": 7126,
      "pled": 7127,
      "ĠLead": 7128,
      "Ġjewel": 7129,
      "ritis": 7130,
      "Ġcater": 7131,
      "Ġidentity": 7132,
      "Ġhem": 7133,
      "Ġneighb": 7134,
      "Ġgerm": 7135,
      "Ġsched": 7136,
      "ĠUSA": 7137,
      "Ġherbs": 7138,
      "night": 7139,
      "icit": 7140,
      "ĠWord": 7141,
      "Ġbringing": 7142,
      "Ġholid": 7143,
      "terior": 7144,
      "Ġinfest": 7145,
      "ĠVari": 7146,
      "Ġevaluation": 7147,
      "green": 7148,
      "forcement": 7149,
      "ulture": 7150,
      "Ġroles": 7151,
      "ushing": 7152,
      "Ġengagement": 7153,
      "iology": 7154,
      ".'": 7155,
      "Ġlistening": 7156,
      "Ġquantity": 7157,
      "Ġsalmon": 7158,
      "Ġpou": 7159,
      "Ġprove": 7160,
      "advant": 7161,
      "Ġtack": 7162,
      "ceans": 7163,
      "Ġsynthetic": 7164,
      "Ġthickness": 7165,
      "Ġbrake": 7166,
      "Ġresidents": 7167,
      "Ġmouse": 7168,
      "Ġfing": 7169,
      "ĠTO": 7170,
      "ĠMax": 7171,
      "Ġjoints": 7172,
      "ude": 7173,
      "shaped": 7174,
      "Ġadvoc": 7175,
      "Ġreaders": 7176,
      "ĠCoun": 7177,
      "ĠThink": 7178,
      "mentation": 7179,
      "oids": 7180,
      "Ġuniform": 7181,
      "Ġcompetitive": 7182,
      "Ġcrew": 7183,
      "ĠMiss": 7184,
      "Ġcake": 7185,
      "Ġavailability": 7186,
      "Ġcoral": 7187,
      "rob": 7188,
      "hered": 7189,
      "oys": 7190,
      "Ġ31": 7191,
      "ĠTool": 7192,
      "ĠRich": 7193,
      "ioxid": 7194,
      "Ġcomprom": 7195,
      "ĠGlobal": 7196,
      "mented": 7197,
      "utive": 7198,
      "udd": 7199,
      "ĠProduct": 7200,
      "ĠFarm": 7201,
      "ĠTit": 7202,
      "Ġestimate": 7203,
      "Ġshouldn": 7204,
      "Ġclaims": 7205,
      "ĠTraining": 7206,
      "Ġleadership": 7207,
      "Ġdried": 7208,
      "Ġsupplements": 7209,
      "cycl": 7210,
      "hav": 7211,
      "anger": 7212,
      "Ġinterests": 7213,
      "Ġgap": 7214,
      "ini": 7215,
      "Ġbeet": 7216,
      "Ġusual": 7217,
      "aneously": 7218,
      "Ġembod": 7219,
      "Ġprotocol": 7220,
      "riction": 7221,
      "Ġformal": 7222,
      "Ġaffordable": 7223,
      "Ġkidney": 7224,
      "Ġfibers": 7225,
      "ĠDisc": 7226,
      "Ġtreating": 7227,
      "oust": 7228,
      "Ġagent": 7229,
      "Ġaward": 7230,
      "astics": 7231,
      "Ġinvent": 7232,
      "Ġanalyze": 7233,
      "Ġcomplexity": 7234,
      "UT": 7235,
      "Ġperce": 7236,
      "lock": 7237,
      "otype": 7238,
      "CE": 7239,
      "Ġven": 7240,
      "Ġsoci": 7241,
      "Ġregardless": 7242,
      "Ġaccurately": 7243,
      "Ġunusual": 7244,
      "Ġprofit": 7245,
      "Ġdetected": 7246,
      "Ġdemonstrated": 7247,
      "Ġboxes": 7248,
      "rays": 7249,
      "Ġpregnant": 7250,
      "Ġbreaks": 7251,
      "Ġbulbs": 7252,
      "Ġenhancing": 7253,
      "Ġfract": 7254,
      "adian": 7255,
      "Ġ400": 7256,
      "Ġconsideration": 7257,
      "PR": 7258,
      "Ġunable": 7259,
      "Ġidentification": 7260,
      "ĠMor": 7261,
      "flies": 7262,
      "Ġcircumstances": 7263,
      "ĠNeed": 7264,
      "ĠWildlife": 7265,
      "ĠThree": 7266,
      "ĠBenefits": 7267,
      "Ġsulf": 7268,
      "Ġblank": 7269,
      "Ġjoy": 7270,
      "Ġcharacterized": 7271,
      "Ġcrack": 7272,
      "ago": 7273,
      "ĠContin": 7274,
      "Ġevolutionary": 7275,
      "Ġtraum": 7276,
      "Ġhimself": 7277,
      "ĠAL": 7278,
      "Ġriding": 7279,
      "ĠDC": 7280,
      "Ġobesity": 7281,
      "Ġinvolving": 7282,
      "Ġvegan": 7283,
      "Ġsubs": 7284,
      "Ġphilos": 7285,
      "ivest": 7286,
      "Ġgate": 7287,
      "Ġempty": 7288,
      "Ġpropag": 7289,
      "Ġdies": 7290,
      "Ġabsolutely": 7291,
      "Ġglasses": 7292,
      "Ġhazard": 7293,
      "Ġlaunch": 7294,
      "atively": 7295,
      "Ġtoile": 7296,
      "Ġfisher": 7297,
      "Ġessentially": 7298,
      "Ġequipped": 7299,
      "do": 7300,
      "Ġcategories": 7301,
      "osquit": 7302,
      "Ġincorporating": 7303,
      "Ġpersonality": 7304,
      "produ": 7305,
      "ĠPM": 7306,
      "ĠMS": 7307,
      "Ġinitially": 7308,
      "eping": 7309,
      "state": 7310,
      "ĠAnimal": 7311,
      "Ġcharged": 7312,
      "Ġmoon": 7313,
      "Ġsoph": 7314,
      "ĠMill": 7315,
      "Ġ2023": 7316,
      "aj": 7317,
      "obe": 7318,
      "Ġcomposed": 7319,
      "ingly": 7320,
      "Ġcow": 7321,
      "Ġwheels": 7322,
      "Ġspark": 7323,
      "Ġgarlic": 7324,
      "ĠHol": 7325,
      "ĠFlow": 7326,
      "Ġstimul": 7327,
      "Ġrelief": 7328,
      "Ġrecover": 7329,
      "grade": 7330,
      "Ġthrow": 7331,
      "Ġrestaurant": 7332,
      "Ġtension": 7333,
      "Ġtheme": 7334,
      "Ġ2006": 7335,
      "Ġstead": 7336,
      "working": 7337,
      "Ġwires": 7338,
      "Ġlux": 7339,
      "isk": 7340,
      "Ġexpressed": 7341,
      "Ġwast": 7342,
      "Ġbrows": 7343,
      "van": 7344,
      "Ġrear": 7345,
      "OM": 7346,
      "ican": 7347,
      "Ġgently": 7348,
      "ĠSand": 7349,
      "Ġattractive": 7350,
      "itage": 7351,
      "ĠDire": 7352,
      "gical": 7353,
      "Ġdrainage": 7354,
      "ĠApplic": 7355,
      "ĠStudies": 7356,
      "Ġunderstood": 7357,
      "OD": 7358,
      "Ġpriorit": 7359,
      "Ġspeeds": 7360,
      "ĠBeing": 7361,
      "Ġcovering": 7362,
      "Ġsaving": 7363,
      "Ġcarrying": 7364,
      "ville": 7365,
      "ĠID": 7366,
      "Ġmini": 7367,
      "Ġreaching": 7368,
      "Ġagents": 7369,
      "ĠYe": 7370,
      "Ġranging": 7371,
      "Ġprovider": 7372,
      "pection": 7373,
      "Ġexcited": 7374,
      "ĠHelp": 7375,
      "etime": 7376,
      "izza": 7377,
      "Ġculinary": 7378,
      "Ġdomain": 7379,
      "Ġecological": 7380,
      "Ġdecay": 7381,
      "luding": 7382,
      "ĠDI": 7383,
      "thal": 7384,
      "Ġrough": 7385,
      "Ġdiscipl": 7386,
      "Ġtrad": 7387,
      "Ġmessages": 7388,
      "Ġreviews": 7389,
      "Ġdocuments": 7390,
      "Ġsensitivity": 7391,
      "Ġbub": 7392,
      "Ġbranch": 7393,
      "Ġforeign": 7394,
      "Ġencounter": 7395,
      "Ġdissol": 7396,
      "Ġgiant": 7397,
      "Ġorient": 7398,
      "Ġdriven": 7399,
      "rosion": 7400,
      "Ġbeach": 7401,
      "Ġtruck": 7402,
      "esium": 7403,
      "Ġstraw": 7404,
      "ooked": 7405,
      "Ġneighbor": 7406,
      "raph": 7407,
      "Ġgrains": 7408,
      "ĠAnim": 7409,
      "Ġradi": 7410,
      "oop": 7411,
      "ĠCA": 7412,
      "Ġsomewhat": 7413,
      "Ġalgae": 7414,
      "ya": 7415,
      "Ġerrors": 7416,
      "asant": 7417,
      "ĠSustain": 7418,
      "Ġsoils": 7419,
      "gent": 7420,
      "Ġintegr": 7421,
      "Ġdisappe": 7422,
      "Ġmixing": 7423,
      "ĠMean": 7424,
      "ĠPop": 7425,
      "ael": 7426,
      "Ġroute": 7427,
      "Ġincorporate": 7428,
      "Ġobservations": 7429,
      "Ġmask": 7430,
      "Ġworn": 7431,
      "Ġcalculated": 7432,
      "Ġauthent": 7433,
      "Ġmodule": 7434,
      "31": 7435,
      "ĠTypes": 7436,
      "Ġeleph": 7437,
      "iger": 7438,
      "Ġexploration": 7439,
      "ĠCouncil": 7440,
      "ivestock": 7441,
      "Ġchannels": 7442,
      "Ġfacility": 7443,
      "etch": 7444,
      "Ġexhibit": 7445,
      "Ġdirections": 7446,
      "Ġyounger": 7447,
      "tra": 7448,
      "assium": 7449,
      "Ġdoubt": 7450,
      "ctu": 7451,
      "ĠAtlantic": 7452,
      "asm": 7453,
      "Ġpositions": 7454,
      "Ġsail": 7455,
      "inch": 7456,
      "mble": 7457,
      "Ġpackage": 7458,
      "Ġgray": 7459,
      "Ġsmoking": 7460,
      "Ġconversion": 7461,
      "Ġvill": 7462,
      "Ġfalls": 7463,
      "Ġoutcome": 7464,
      "ogether": 7465,
      "Ġperforming": 7466,
      "Ġmine": 7467,
      "Ġinfect": 7468,
      "Ġrh": 7469,
      "Ġ2005": 7470,
      "made": 7471,
      "Ġphenomenon": 7472,
      "Ġvan": 7473,
      "Ġbuck": 7474,
      "Ġappeal": 7475,
      "04": 7476,
      "Ġingredient": 7477,
      "ĠStar": 7478,
      "Ġbonds": 7479,
      "Ġvolcan": 7480,
      "Ġsnake": 7481,
      "ĠAlways": 7482,
      "Ġfalse": 7483,
      "Ġexclus": 7484,
      "Ġarchitecture": 7485,
      "Ġdelicate": 7486,
      "cknow": 7487,
      "Ġgift": 7488,
      "ĠOrig": 7489,
      "auc": 7490,
      "Ġamino": 7491,
      "Ġmirror": 7492,
      "Ġfatty": 7493,
      "berries": 7494,
      "02": 7495,
      "ĠEc": 7496,
      "Ġloud": 7497,
      "ĠMag": 7498,
      "Ġpond": 7499,
      "UR": 7500,
      "owns": 7501,
      "ĠSever": 7502,
      "Ġdanger": 7503,
      "elly": 7504,
      "Ġallergies": 7505,
      "Ġpill": 7506,
      "Ġlift": 7507,
      "Ġmodified": 7508,
      "ĠPut": 7509,
      "Ġimplications": 7510,
      "Ġrarely": 7511,
      "Ġvisitors": 7512,
      "Ġcontrolling": 7513,
      "Ġsplit": 7514,
      "Ġspending": 7515,
      "Ġdimensions": 7516,
      "Ġbol": 7517,
      "Ġprevents": 7518,
      "ĠPhoto": 7519,
      "ĠRE": 7520,
      "ĠIP": 7521,
      "Ġlaun": 7522,
      "Ġinver": 7523,
      "Ġunex": 7524,
      "Ġfunctioning": 7525,
      "ĠRelated": 7526,
      "Ġpipes": 7527,
      "Ġflag": 7528,
      "Ġtracking": 7529,
      "Ġcompens": 7530,
      "Ġpopularity": 7531,
      "Ġwestern": 7532,
      "Ġoutdoors": 7533,
      "Ġbits": 7534,
      "Ġrising": 7535,
      "Ġbarrier": 7536,
      "Ġincredibly": 7537,
      "rian": 7538,
      "tles": 7539,
      "ĠLevel": 7540,
      "Ġposts": 7541,
      "Ġdrought": 7542,
      "ĠWel": 7543,
      "Ġvaries": 7544,
      "bow": 7545,
      "ĠElectric": 7546,
      "Ġcellular": 7547,
      "ĠMiddle": 7548,
      "03": 7549,
      "erts": 7550,
      "ĠResp": 7551,
      "Ġremarkable": 7552,
      "Ġore": 7553,
      "Ġcombine": 7554,
      "pread": 7555,
      "sters": 7556,
      "oted": 7557,
      "Ġdil": 7558,
      "SS": 7559,
      "ĠNor": 7560,
      "Ġdistributed": 7561,
      "Ġplates": 7562,
      "ĠMary": 7563,
      "ĠJames": 7564,
      "Ġsole": 7565,
      "Ġselling": 7566,
      "thritis": 7567,
      "Ġmarks": 7568,
      "Ġdiamond": 7569,
      "Ġquiet": 7570,
      "Ġletters": 7571,
      "Ġprobability": 7572,
      "Ġsimult": 7573,
      "bar": 7574,
      "velength": 7575,
      "Ġcontributing": 7576,
      "Ġcharacteristic": 7577,
      "lig": 7578,
      "Ġregional": 7579,
      "Ġcurve": 7580,
      "Ġpassing": 7581,
      "ĠSolar": 7582,
      "uty": 7583,
      "Ġmicrow": 7584,
      "ĠSciences": 7585,
      "Ġwing": 7586,
      "ĠImage": 7587,
      "Ġinsulin": 7588,
      "Ġwarning": 7589,
      "Ġalternatives": 7590,
      "Ġdrawn": 7591,
      "Ġions": 7592,
      "ĠTom": 7593,
      "Ġfilling": 7594,
      "Ġcoverage": 7595,
      "Ġintegration": 7596,
      "¿½": 7597,
      "rog": 7598,
      "ĠCommunity": 7599,
      "Ġtreats": 7600,
      "ruit": 7601,
      "Ġtrial": 7602,
      "Ġescape": 7603,
      "Ġlosing": 7604,
      "ĠDigital": 7605,
      "adder": 7606,
      "Ġrivers": 7607,
      "Ġincredible": 7608,
      "Ġcrust": 7609,
      "Ġchips": 7610,
      "Ġoriginally": 7611,
      "ĠâĢĺ": 7612,
      "Ġcement": 7613,
      "Ġmuse": 7614,
      "Ġcenturies": 7615,
      "Ġbeam": 7616,
      "],": 7617,
      "Ġblade": 7618,
      "such": 7619,
      "isl": 7620,
      "Ġanimation": 7621,
      "ĠCamp": 7622,
      "Ġpreval": 7623,
      "ĠPain": 7624,
      "forest": 7625,
      "Ġgenerator": 7626,
      "ĠBuilding": 7627,
      "Ġconfident": 7628,
      "Ġdesire": 7629,
      "plate": 7630,
      "Ġboundaries": 7631,
      "pie": 7632,
      "aft": 7633,
      "Ġopened": 7634,
      "herent": 7635,
      "There": 7636,
      "ĠOverall": 7637,
      "Ġprescrib": 7638,
      "Ġtomatoes": 7639,
      "Ġimplemented": 7640,
      "ĠCustom": 7641,
      "plete": 7642,
      "ports": 7643,
      "Ġcarbohyd": 7644,
      "Ġreaches": 7645,
      "Ġovercome": 7646,
      "ĠWed": 7647,
      "ĠHead": 7648,
      "rained": 7649,
      "Ġera": 7650,
      "Ġking": 7651,
      "ĠBased": 7652,
      "Ġmul": 7653,
      "Ġfry": 7654,
      "Ġembry": 7655,
      "RNA": 7656,
      "ĠPri": 7657,
      "ref": 7658,
      "Ġcombat": 7659,
      "ĠCong": 7660,
      "Ġuniversity": 7661,
      "Ġmarked": 7662,
      "Ġscientist": 7663,
      "Ġwider": 7664,
      "sized": 7665,
      "Ġprinted": 7666,
      "Ġobjective": 7667,
      "Ġthreats": 7668,
      "duction": 7669,
      "Ġcrystal": 7670,
      "Ġwiring": 7671,
      "ĠCap": 7672,
      "sis": 7673,
      "Ġantioxid": 7674,
      "ĠLou": 7675,
      "Ġhygien": 7676,
      "born": 7677,
      "Ġfrust": 7678,
      "Ġexperimental": 7679,
      "ĠCarol": 7680,
      "Ġlarv": 7681,
      "Ġorganized": 7682,
      "ĠFire": 7683,
      "Ġgum": 7684,
      "Ġcabin": 7685,
      "ĠYet": 7686,
      "Ġoverwhel": 7687,
      "ĠSupport": 7688,
      "Ġprone": 7689,
      "ĠTim": 7690,
      "ĠMart": 7691,
      "ĠEngineering": 7692,
      "Â®": 7693,
      "ĠIr": 7694,
      "Ġhormone": 7695,
      "Ġdecade": 7696,
      "Ġadventure": 7697,
      "Ġca": 7698,
      "Ġaddressing": 7699,
      "Ġrepresented": 7700,
      "igue": 7701,
      "Ġorganism": 7702,
      "Ġrelation": 7703,
      "lete": 7704,
      "Ġconsumed": 7705,
      "Ġenabling": 7706,
      "IF": 7707,
      "Ġdough": 7708,
      "idespread": 7709,
      "ounce": 7710,
      "Ġpreparing": 7711,
      "Ġguy": 7712,
      "rous": 7713,
      "Ġsurge": 7714,
      "ogenic": 7715,
      "ĠFil": 7716,
      "Ġchildhood": 7717,
      "action": 7718,
      "49": 7719,
      "Ġengineers": 7720,
      "Ġenhanced": 7721,
      "Ġfats": 7722,
      "Ġethical": 7723,
      "Ġintricate": 7724,
      "Ġhorizontal": 7725,
      "Ġenerg": 7726,
      "power": 7727,
      "ĠCr": 7728,
      "Ġtiming": 7729,
      "ili": 7730,
      "Ġfreedom": 7731,
      "Ġ120": 7732,
      "Ġnone": 7733,
      "ĠTreatment": 7734,
      "OC": 7735,
      "Ġcomplement": 7736,
      "taining": 7737,
      "ĠPoly": 7738,
      "Ġpreserve": 7739,
      "Ġgast": 7740,
      "izz": 7741,
      "Ġfuels": 7742,
      "war": 7743,
      "},": 7744,
      "42": 7745,
      "Ġchair": 7746,
      "ĠServices": 7747,
      "PC": 7748,
      "earch": 7749,
      "Ġgained": 7750,
      "Ġendangered": 7751,
      "ĠFacebook": 7752,
      "ria": 7753,
      "ĠName": 7754,
      "ĠWH": 7755,
      "Ġneural": 7756,
      "ults": 7757,
      "asters": 7758,
      "Ġwealth": 7759,
      "ĠDisease": 7760,
      "ĠIde": 7761,
      "Ġworkshop": 7762,
      "RA": 7763,
      "Ġfarms": 7764,
      "ĠLabor": 7765,
      "enger": 7766,
      "Ġtone": 7767,
      "ĠSqu": 7768,
      "Ġdepartment": 7769,
      "Ġsomewhere": 7770,
      "Ġconvey": 7771,
      "Ġinsight": 7772,
      "ĠPaul": 7773,
      "Ġpresents": 7774,
      "Ġchip": 7775,
      "Ġdiffer": 7776,
      "Ġrotation": 7777,
      "eting": 7778,
      "rapeut": 7779,
      "ĠCho": 7780,
      "ML": 7781,
      "Ġguard": 7782,
      "Ġdecreased": 7783,
      "ĠHeat": 7784,
      "Ġjewelry": 7785,
      "roat": 7786,
      "Ġspiritual": 7787,
      "Ġpersonalized": 7788,
      "Ġsale": 7789,
      "Ġguys": 7790,
      "Ġlake": 7791,
      "Ġcorrel": 7792,
      "ĠJew": 7793,
      "Ġoxide": 7794,
      "Ġfif": 7795,
      "Ġdependent": 7796,
      "Ġtargets": 7797,
      "Ġbare": 7798,
      "encing": 7799,
      "type": 7800,
      "Ġwine": 7801,
      "Ġanten": 7802,
      "ĠProble": 7803,
      "urated": 7804,
      "Ġlock": 7805,
      "alls": 7806,
      "ĠSection": 7807,
      "Ġrust": 7808,
      "Ġepis": 7809,
      "Is": 7810,
      "oving": 7811,
      "ifting": 7812,
      "ĠFrid": 7813,
      "Ġtotally": 7814,
      "while": 7815,
      "ocr": 7816,
      "iage": 7817,
      "Ġsurprising": 7818,
      "ĠStudy": 7819,
      "Ġstrict": 7820,
      "ĠPlus": 7821,
      "Ġindeed": 7822,
      "Ġvegetation": 7823,
      "Ġlighter": 7824,
      "Ġapps": 7825,
      "MP": 7826,
      "Ġadj": 7827,
      "Ġinspired": 7828,
      "Ġphr": 7829,
      "rium": 7830,
      "Ġenzymes": 7831,
      "Ġpip": 7832,
      "ĠAuthor": 7833,
      "owners": 7834,
      "Ġlimitations": 7835,
      "icul": 7836,
      "Ġelectronics": 7837,
      "Ġwebsites": 7838,
      "Ġhal": 7839,
      "agen": 7840,
      "Ġsleeping": 7841,
      "icide": 7842,
      "Ġleather": 7843,
      "Ġsubstrate": 7844,
      "Ġremind": 7845,
      "Ġdesk": 7846,
      "Ġtract": 7847,
      "06": 7848,
      "Ġille": 7849,
      "Ġrose": 7850,
      "ĠBusiness": 7851,
      "Ġwax": 7852,
      "ĠAltern": 7853,
      "âĢ¦âĢ¦": 7854,
      "ĠMond": 7855,
      "icians": 7856,
      "ĠAmong": 7857,
      "othing": 7858,
      "amination": 7859,
      "Ġcomplications": 7860,
      "Ġfalling": 7861,
      "Ġsheets": 7862,
      "Ġkin": 7863,
      "ĠDar": 7864,
      "ogs": 7865,
      "##": 7866,
      "onia": 7867,
      "ĠBiology": 7868,
      "Ġgirls": 7869,
      "Ġscript": 7870,
      "Ġvarying": 7871,
      "ĠCN": 7872,
      "ovascular": 7873,
      "Ġenzyme": 7874,
      "Ġmatrix": 7875,
      "ĠUt": 7876,
      "ĠSeveral": 7877,
      "imic": 7878,
      "LA": 7879,
      "ĠEst": 7880,
      "hea": 7881,
      "olph": 7882,
      "ĠWrit": 7883,
      "Ġreverse": 7884,
      "ola": 7885,
      "Ġcuts": 7886,
      "Ġheavily": 7887,
      "ĠChristmas": 7888,
      "Ġchecking": 7889,
      "sey": 7890,
      "Ġcorpor": 7891,
      "ĠCirc": 7892,
      "Ġsuperior": 7893,
      "cture": 7894,
      "Ġcataly": 7895,
      "Ġpapers": 7896,
      "exp": 7897,
      "ayer": 7898,
      "ĠOnline": 7899,
      "Ġintervention": 7900,
      "Ġpy": 7901,
      "Ġspat": 7902,
      "ĠBer": 7903,
      "Ġda": 7904,
      "Ġhonest": 7905,
      "Ġbattle": 7906,
      "Ġimaging": 7907,
      "Ġlanguages": 7908,
      "Ġwidespread": 7909,
      "56": 7910,
      "Ġcattle": 7911,
      "Ġcirculation": 7912,
      "estone": 7913,
      "Ġoccurring": 7914,
      "rem": 7915,
      "Ġmanif": 7916,
      "Ġimper": 7917,
      "Ġmyth": 7918,
      "ĠFeature": 7919,
      "Ġdollars": 7920,
      "ĠRecent": 7921,
      "Ġhouses": 7922,
      "Ġediting": 7923,
      "Ġdrying": 7924,
      "Ġreligious": 7925,
      "Ġdegrad": 7926,
      "ĠCB": 7927,
      "owered": 7928,
      "ĠAcademy": 7929,
      "icular": 7930,
      "Ġastron": 7931,
      "ideo": 7932,
      "Ġpaying": 7933,
      "ĠForest": 7934,
      "Ġregister": 7935,
      "Ġaxis": 7936,
      "Ġoceans": 7937,
      "omas": 7938,
      "iking": 7939,
      "pes": 7940,
      "Ġeaten": 7941,
      "Ġachieving": 7942,
      "ĠDem": 7943,
      "Ġregulation": 7944,
      "Ġcoating": 7945,
      "lar": 7946,
      "Ġpurple": 7947,
      "Ġcock": 7948,
      "Ġroughly": 7949,
      "Ġintelligent": 7950,
      "ww": 7951,
      "Ġbusy": 7952,
      "Ġtechnological": 7953,
      "Ġadvis": 7954,
      "Ġvinegar": 7955,
      "Ġgrad": 7956,
      "Ġdiagnosed": 7957,
      "Ġgenus": 7958,
      "ĠHard": 7959,
      "Ġcash": 7960,
      "effective": 7961,
      "tee": 7962,
      "Ġflows": 7963,
      "AA": 7964,
      "Ġspecified": 7965,
      "ibration": 7966,
      "ĠAlex": 7967,
      "Ġentering": 7968,
      "ĠHor": 7969,
      "Ġwra": 7970,
      "Ġcenters": 7971,
      "Ġduct": 7972,
      "Ġstretch": 7973,
      "Ġ48": 7974,
      "Ġcheaper": 7975,
      "Ġbeds": 7976,
      "Ġfever": 7977,
      "stein": 7978,
      "Ġverte": 7979,
      "Ġwavelength": 7980,
      "Ġbears": 7981,
      "Ġabsorption": 7982,
      "imensional": 7983,
      "zil": 7984,
      "utter": 7985,
      "Ġwhenever": 7986,
      "ĠAccess": 7987,
      "Ġinvasive": 7988,
      "ĠDepending": 7989,
      "Ġstuck": 7990,
      "Ġperm": 7991,
      "ĠMont": 7992,
      "Ġalk": 7993,
      "Ġmeter": 7994,
      "Ġphysically": 7995,
      "Ġupdated": 7996,
      "etal": 7997,
      "Ġreson": 7998,
      "ĠCats": 7999,
      "Ġtrib": 8000,
      "cou": 8001,
      "Ġexamination": 8002,
      "Ġsenior": 8003,
      "edge": 8004,
      "Ġdefault": 8005,
      "Ġpod": 8006,
      "erenn": 8007,
      "Ġupdate": 8008,
      "Ġsin": 8009,
      "Ġindoors": 8010,
      "Ġsusceptible": 8011,
      "Ġconstit": 8012,
      "Ġearn": 8013,
      "Ġships": 8014,
      "ĠVirgin": 8015,
      "Ġretail": 8016,
      "ongevity": 8017,
      "Ġpandemic": 8018,
      "SP": 8019,
      "ĠRest": 8020,
      "Ġcris": 8021,
      "Ġstabil": 8022,
      "ĠSpanish": 8023,
      "Ġtender": 8024,
      "eries": 8025,
      "aren": 8026,
      "anned": 8027,
      "ĠGrow": 8028,
      "ĠMel": 8029,
      "Ġgrams": 8030,
      "ashes": 8031,
      "Ġconcentrations": 8032,
      "Ġabnormal": 8033,
      "asma": 8034,
      "Ġlung": 8035,
      "Ġstrongly": 8036,
      "Ġthank": 8037,
      "Ġreplacing": 8038,
      "Ġtends": 8039,
      "Ġaids": 8040,
      "Ġpose": 8041,
      "Ġconnecting": 8042,
      "Ġindicated": 8043,
      "Ġstones": 8044,
      "Ġrepairs": 8045,
      "ĠKids": 8046,
      "Ġeleg": 8047,
      "Ġ;": 8048,
      "Ġcircular": 8049,
      "Ġcampaign": 8050,
      "Ġfrost": 8051,
      "Ġdeaths": 8052,
      "Ġmush": 8053,
      "oli": 8054,
      "iances": 8055,
      "Ġstations": 8056,
      "ĠPur": 8057,
      "Ġplacing": 8058,
      "Al": 8059,
      "Ġroads": 8060,
      "rons": 8061,
      "acent": 8062,
      "Ġlitter": 8063,
      "Ġgender": 8064,
      "Ġcann": 8065,
      "Ġdose": 8066,
      "Ġlungs": 8067,
      "Ġterminal": 8068,
      "Ġremed": 8069,
      "Ġconserv": 8070,
      "Ġfoliage": 8071,
      "Ġcriteria": 8072,
      "Ġsetup": 8073,
      "Ġfootprint": 8074,
      "Ġcycles": 8075,
      "igenous": 8076,
      "oa": 8077,
      "Ġgaming": 8078,
      "ĠFed": 8079,
      "08": 8080,
      "Ġcombust": 8081,
      "ĠRober": 8082,
      "engers": 8083,
      "Ġsatisfact": 8084,
      "Ġhang": 8085,
      "Ġinstruments": 8086,
      "ĠAnn": 8087,
      "ĠRemove": 8088,
      "Ġmarkets": 8089,
      "osaurs": 8090,
      "leep": 8091,
      "ĠMaking": 8092,
      "Ġdating": 8093,
      "Ġ65": 8094,
      "sor": 8095,
      "Ġlapt": 8096,
      "MA": 8097,
      "ĠNO": 8098,
      "Ġpuzz": 8099,
      "Ġclassified": 8100,
      "Ġutilize": 8101,
      "ĠDan": 8102,
      "ï¿½": 8103,
      "ĠFamily": 8104,
      "Ġtech": 8105,
      "Ġemit": 8106,
      "ĠMen": 8107,
      "Ġdys": 8108,
      "Ġrural": 8109,
      "Ġfort": 8110,
      "apse": 8111,
      "Ġfulf": 8112,
      "Ġscenario": 8113,
      "list": 8114,
      "ĠInvest": 8115,
      "hyth": 8116,
      "Ġbasics": 8117,
      "EE": 8118,
      "cycle": 8119,
      "Ġlivestock": 8120,
      "Ġsuc": 8121,
      "Ġrecre": 8122,
      "Ġheater": 8123,
      "ĠBul": 8124,
      "Ġmosquit": 8125,
      "ĠEV": 8126,
      "anguage": 8127,
      "Ġmagnet": 8128,
      "hma": 8129,
      "Ġnine": 8130,
      "ĠOx": 8131,
      "ĠKen": 8132,
      "ĠAbstract": 8133,
      "Ġgolden": 8134,
      "ĠGreek": 8135,
      "Ġ~": 8136,
      "Ġcleaner": 8137,
      "Ġgly": 8138,
      "itudes": 8139,
      "orrect": 8140,
      "Ġbark": 8141,
      "Ġbicy": 8142,
      "ĠSouthern": 8143,
      "Ġpurchasing": 8144,
      "Ġshooting": 8145,
      "Ġfigures": 8146,
      "Ġink": 8147,
      "yard": 8148,
      "Ġdeploy": 8149,
      "Ġencl": 8150,
      "âĪĴ": 8151,
      "Ġrecycled": 8152,
      "58": 8153,
      "health": 8154,
      "Ġuncertain": 8155,
      "Ġdesigning": 8156,
      "ĠRock": 8157,
      "Ġpriority": 8158,
      "ittle": 8159,
      "Ġabundant": 8160,
      "Ġranges": 8161,
      "obile": 8162,
      "43": 8163,
      "Ġmoderate": 8164,
      "kins": 8165,
      "Ġstir": 8166,
      "Ġcircuits": 8167,
      "ostic": 8168,
      "itative": 8169,
      "Ġrepresentation": 8170,
      "ushes": 8171,
      "Ġcontained": 8172,
      "Ġscar": 8173,
      "ĠTeac": 8174,
      "Ġshaped": 8175,
      "Ġstunning": 8176,
      "Ġwondering": 8177,
      "ĠMer": 8178,
      "aters": 8179,
      "Ġdivision": 8180,
      "Ġpenet": 8181,
      "Ġsettle": 8182,
      "Ġflowering": 8183,
      "Ġforced": 8184,
      "Ġwarmer": 8185,
      "otive": 8186,
      "Ġmathematical": 8187,
      "ĠArctic": 8188,
      "Ġworst": 8189,
      "Ġaccounts": 8190,
      "rots": 8191,
      "Ġversions": 8192,
      "Ġcuis": 8193,
      "UN": 8194,
      "Ġdiets": 8195,
      "Ġaquatic": 8196,
      "ĠPoint": 8197,
      "Ġtwist": 8198,
      "eness": 8199,
      "ĠPrep": 8200,
      "Ġaccepted": 8201,
      "ogens": 8202,
      "ĠBab": 8203,
      "Ġfaces": 8204,
      "ĠBetween": 8205,
      "ua": 8206,
      "Ġstruggle": 8207,
      "ĠFriday": 8208,
      "Ġemployed": 8209,
      "ĠModern": 8210,
      "ĠGal": 8211,
      "Ġbulb": 8212,
      "Ġaccidents": 8213,
      "Ġcer": 8214,
      "Ġmatters": 8215,
      "Ġcentre": 8216,
      "Ġshopping": 8217,
      "Ġphotographs": 8218,
      "abul": 8219,
      "Ġappeared": 8220,
      "throp": 8221,
      "ĠContact": 8222,
      "Ġplot": 8223,
      "ĠðŁ": 8224,
      "ubric": 8225,
      "Ġcaps": 8226,
      "ĠCoast": 8227,
      "Ġknife": 8228,
      "ĠPresident": 8229,
      "Ġpepper": 8230,
      "ey": 8231,
      "Ġteen": 8232,
      "Ġchat": 8233,
      "ĠBrown": 8234,
      "Ġshelter": 8235,
      "Ġdisadvant": 8236,
      "DS": 8237,
      "Ġadapted": 8238,
      "Ġrender": 8239,
      "ipher": 8240,
      "Ġthereby": 8241,
      "Ġatomic": 8242,
      "Ġrays": 8243,
      "Ġacknow": 8244,
      "Ġsavings": 8245,
      "ĠMaster": 8246,
      "Ġdifferently": 8247,
      "ĠDev": 8248,
      "Ġhus": 8249,
      "that": 8250,
      "Ġcodes": 8251,
      "oral": 8252,
      "Ġbelt": 8253,
      "rubs": 8254,
      "Ġdelight": 8255,
      "Ġbridge": 8256,
      "Ġsoy": 8257,
      "Ġconflict": 8258,
      "Ġwheat": 8259,
      "Ġquantities": 8260,
      "ĠNorthern": 8261,
      "Ġtab": 8262,
      "Ġmagic": 8263,
      "ĠIT": 8264,
      "ĠTre": 8265,
      "Ġanalys": 8266,
      "Ġconj": 8267,
      "Ġpra": 8268,
      "ĠVitamin": 8269,
      "Ġster": 8270,
      "tail": 8271,
      "ĠItalian": 8272,
      "Ġdesigners": 8273,
      "ĠSP": 8274,
      "heast": 8275,
      "ki": 8276,
      "ĠAgain": 8277,
      "Ġimplementing": 8278,
      "Ġeast": 8279,
      "ĠMix": 8280,
      "ĠModel": 8281,
      "Ġharsh": 8282,
      "Ġhousing": 8283,
      "ĠAsian": 8284,
      "Ġmand": 8285,
      "aria": 8286,
      "Ġmetabolism": 8287,
      "Ġru": 8288,
      "Ġconsuming": 8289,
      "Ġirrig": 8290,
      "Ġber": 8291,
      "78": 8292,
      "Ġvictim": 8293,
      "pha": 8294,
      "Ġframes": 8295,
      "................": 8296,
      "Ġactively": 8297,
      "Ġbloom": 8298,
      "Ġtrail": 8299,
      "Ġprivacy": 8300,
      "Ġpsychological": 8301,
      "Ġcontemporary": 8302,
      "Ġ1000": 8303,
      "una": 8304,
      "copy": 8305,
      "onduct": 8306,
      "section": 8307,
      "Ġgirl": 8308,
      "aneous": 8309,
      "Sh": 8310,
      "ĠPhysical": 8311,
      "Ġheated": 8312,
      "Ġextension": 8313,
      "ĠSystems": 8314,
      "Ġdynamics": 8315,
      "ĠText": 8316,
      "ĠAge": 8317,
      "Ġhurt": 8318,
      "ĠJes": 8319,
      "Ġreveal": 8320,
      "Ġsemi": 8321,
      "ĠOften": 8322,
      "Ġnarr": 8323,
      "Ġfriction": 8324,
      "ĠLibrary": 8325,
      "Ġavoiding": 8326,
      "Ġsubstantial": 8327,
      "Ġ2004": 8328,
      "Ġcondens": 8329,
      "Ġcure": 8330,
      "Ġshower": 8331,
      "Ġinher": 8332,
      "Ġfootball": 8333,
      "Ġcolored": 8334,
      "Ġdemands": 8335,
      "ĠLog": 8336,
      "rey": 8337,
      "ĠLand": 8338,
      "Ġmaintained": 8339,
      "Ġgran": 8340,
      "Ġconfiguration": 8341,
      "ĠHeart": 8342,
      "even": 8343,
      "kers": 8344,
      "Ġcourt": 8345,
      "Ġinstitutions": 8346,
      "Ġurine": 8347,
      "perm": 8348,
      "Ġdistances": 8349,
      "ĠDou": 8350,
      "Ġproviders": 8351,
      "09": 8352,
      "Ġsurve": 8353,
      "Ġpale": 8354,
      "acles": 8355,
      "Ġrequirement": 8356,
      "ĠJava": 8357,
      "Ġexpectations": 8358,
      "orrow": 8359,
      "Ġcaptiv": 8360,
      "Ġdistinctive": 8361,
      "redit": 8362,
      "ĠGenerally": 8363,
      "Ġwithstand": 8364,
      "ih": 8365,
      "gypt": 8366,
      "oir": 8367,
      "Ġcontributes": 8368,
      "igan": 8369,
      "Ġcurious": 8370,
      "****": 8371,
      "Ġtear": 8372,
      "obby": 8373,
      "Ġisolated": 8374,
      "ĠComputer": 8375,
      "41": 8376,
      "ĠBrazil": 8377,
      "amil": 8378,
      "Ġzones": 8379,
      "ĠSen": 8380,
      "imer": 8381,
      "Ġdebate": 8382,
      "text": 8383,
      "rd": 8384,
      "Ġtoilet": 8385,
      "anta": 8386,
      "Ġregulate": 8387,
      "ivered": 8388,
      "ĠBlood": 8389,
      "ĠExamples": 8390,
      "Ġdischarge": 8391,
      "Ġobservation": 8392,
      "Ġpolymer": 8393,
      "reshold": 8394,
      "specific": 8395,
      "Ġrating": 8396,
      "Ġcrus": 8397,
      "Ġcorrosion": 8398,
      "irrel": 8399,
      "aret": 8400,
      "build": 8401,
      "07": 8402,
      "Ġseparated": 8403,
      "Ġadhes": 8404,
      "ĠAst": 8405,
      "Ġdelve": 8406,
      "Ġidentical": 8407,
      "Ġhence": 8408,
      "ĠImpact": 8409,
      "Ġhat": 8410,
      "ĠSpring": 8411,
      "Ġsink": 8412,
      "Ġfrequencies": 8413,
      "Ġsummary": 8414,
      "ĠFrequ": 8415,
      "Ġrepeat": 8416,
      "Ġabstract": 8417,
      "Ġnode": 8418,
      "Ġmindful": 8419,
      "ĠCancer": 8420,
      "ĠOper": 8421,
      "ĠTree": 8422,
      "leg": 8423,
      "Ġfaced": 8424,
      "ĠDry": 8425,
      "Ġsatellite": 8426,
      "ano": 8427,
      "Ġstack": 8428,
      "Ġequally": 8429,
      "ĠMonday": 8430,
      "ĠView": 8431,
      "Ġrooms": 8432,
      "Ġcrisis": 8433,
      "Ġhormones": 8434,
      "hal": 8435,
      "ĠVer": 8436,
      "you": 8437,
      "Ġsubt": 8438,
      "Ġscreening": 8439,
      "Ġneedle": 8440,
      "hum": 8441,
      "Ġflies": 8442,
      "ĠResources": 8443,
      "Ġenthusiasts": 8444,
      "Ġtheories": 8445,
      "rox": 8446,
      "ynthesis": 8447,
      "ptic": 8448,
      "eto": 8449,
      "Ġoffic": 8450,
      "paper": 8451,
      "oster": 8452,
      "\")": 8453,
      "Ġrent": 8454,
      "Ġinfluenced": 8455,
      "Ġpor": 8456,
      "Ġdecom": 8457,
      "Ġshoulder": 8458,
      "neys": 8459,
      "azine": 8460,
      "ĠReading": 8461,
      "flamm": 8462,
      "Ġapple": 8463,
      "reet": 8464,
      "Ġaging": 8465,
      "Ġfaith": 8466,
      "Ġfans": 8467,
      "TH": 8468,
      "Ġemerging": 8469,
      "Ġvessel": 8470,
      "ĠSoft": 8471,
      "59": 8472,
      "Ġeastern": 8473,
      "ĠPrint": 8474,
      "ĠSmith": 8475,
      "Ġvapor": 8476,
      "ĠJer": 8477,
      "ppers": 8478,
      "ĠKit": 8479,
      "Ġwhales": 8480,
      "Ġenvironmentally": 8481,
      "ĠCarbon": 8482,
      "Ġbeat": 8483,
      "Ġlean": 8484,
      "ĠConnect": 8485,
      "Ġfacilitate": 8486,
      "ĠRen": 8487,
      "ĠPhotoshop": 8488,
      "Ġseparation": 8489,
      "Ġchickens": 8490,
      "ithium": 8491,
      "trans": 8492,
      "Ġants": 8493,
      "Ġintegrity": 8494,
      "through": 8495,
      "Ġperception": 8496,
      "Ġadverse": 8497,
      "Ġgraphics": 8498,
      "range": 8499,
      "Ġharness": 8500,
      "IA": 8501,
      "Ġalive": 8502,
      "Ġfighting": 8503,
      "Ġwooden": 8504,
      "Ġfoam": 8505,
      "Ġshallow": 8506,
      "Ġsnakes": 8507,
      "py": 8508,
      "ĠGiven": 8509,
      "Ġinn": 8510,
      "ĠMaterials": 8511,
      "ĠMicrosoft": 8512,
      "Ġabundance": 8513,
      "Ġtong": 8514,
      "Ġcitizens": 8515,
      "Ġembed": 8516,
      "Ġevening": 8517,
      "Ġoffs": 8518,
      "Ġpine": 8519,
      "Ġaccomplish": 8520,
      "Ġoutl": 8521,
      "Ġacceleration": 8522,
      "ĠOil": 8523,
      "%)": 8524,
      "ij": 8525,
      "Ġmanager": 8526,
      "Ġassociation": 8527,
      "Ġenjoyed": 8528,
      "ita": 8529,
      "Ġdrinks": 8530,
      "bell": 8531,
      "Ġmg": 8532,
      "copic": 8533,
      "Ġgenerating": 8534,
      "Ġaquarium": 8535,
      "emiconduct": 8536,
      "dered": 8537,
      "Ġsoda": 8538,
      "Ġfingers": 8539,
      "Ġearthqu": 8540,
      "Ġdefense": 8541,
      "Ġfatigue": 8542,
      "ĠSimilarly": 8543,
      "Ġelectrom": 8544,
      "Ġautomatic": 8545,
      "Ġstopped": 8546,
      "yroid": 8547,
      "Ġacting": 8548,
      "Ġabsence": 8549,
      "\"?": 8550,
      "ione": 8551,
      "Ġreasonable": 8552,
      "ĠCond": 8553,
      "Ġcontroller": 8554,
      "Ġgrab": 8555,
      "Ġgenetics": 8556,
      "Ġweeds": 8557,
      "Ġutilized": 8558,
      "onut": 8559,
      "rapeutic": 8560,
      "Ġchecked": 8561,
      "Ġlaunched": 8562,
      "Ġic": 8563,
      "Ġprocessor": 8564,
      "Ġlongevity": 8565,
      "Ġdinner": 8566,
      "onna": 8567,
      "ĠDiv": 8568,
      "ĠSund": 8569,
      "Ġ1990": 8570,
      "Ġimprovements": 8571,
      "Ġjaw": 8572,
      "uten": 8573,
      "Ġbathroom": 8574,
      "Ġsubsc": 8575,
      "LC": 8576,
      "Ġvaccines": 8577,
      "Ġsynthesis": 8578,
      "Ġpotassium": 8579,
      "Ġwound": 8580,
      "Ġtrick": 8581,
      "Ġstrengthen": 8582,
      "Ġgroom": 8583,
      "Ġcoil": 8584,
      "Ġexceptional": 8585,
      "sen": 8586,
      "ĠCard": 8587,
      "Ġmistakes": 8588,
      "Ġmeaningful": 8589,
      "olars": 8590,
      "afe": 8591,
      "gr": 8592,
      "aland": 8593,
      "ĠPython": 8594,
      "ĠMars": 8595,
      "Ġcaptured": 8596,
      "ĠEr": 8597,
      "rane": 8598,
      "Ġpizza": 8599,
      "Ġimmers": 8600,
      "Ġspan": 8601,
      "Ġthorough": 8602,
      "Ġtargeted": 8603,
      "Ġrealistic": 8604,
      "Ġforth": 8605,
      "Ġliterally": 8606,
      "ala": 8607,
      "ĠFour": 8608,
      "Ġspeakers": 8609,
      "ĠChristian": 8610,
      "inf": 8611,
      "Ġclassification": 8612,
      "Ġfinds": 8613,
      "Ġaesthetic": 8614,
      "Ġmetric": 8615,
      "uber": 8616,
      "Ġrestore": 8617,
      "ĠWik": 8618,
      "Ġvisually": 8619,
      "ĠEgypt": 8620,
      "Ġsuspect": 8621,
      "ĠDiet": 8622,
      "Ġagencies": 8623,
      "Ġreturned": 8624,
      "________________": 8625,
      "Ġsuddenly": 8626,
      "Ġbind": 8627,
      "ĠOffice": 8628,
      "ptom": 8629,
      "lder": 8630,
      "Ġdates": 8631,
      "gency": 8632,
      "Ġcalling": 8633,
      "Ġmoments": 8634,
      "Ġlowest": 8635,
      "ĠKore": 8636,
      "esis": 8637,
      "Ġlatter": 8638,
      "Ġforecast": 8639,
      "Ġwitness": 8640,
      "ipal": 8641,
      "ĠBoard": 8642,
      "ĠBegin": 8643,
      "ĠMath": 8644,
      "Ġchains": 8645,
      "ventions": 8646,
      "owing": 8647,
      "Ġengaged": 8648,
      "Ġreadily": 8649,
      "Ġnewly": 8650,
      "dimensional": 8651,
      "Ġscales": 8652,
      "Ġkilling": 8653,
      "ĠVict": 8654,
      "Ġfreezing": 8655,
      "Ġcylinder": 8656,
      "Ġstrand": 8657,
      "uled": 8658,
      "Ġconsistency": 8659,
      "ĠCall": 8660,
      "ĠPsych": 8661,
      "ĠParent": 8662,
      "Ġupl": 8663,
      "volution": 8664,
      "Ġarom": 8665,
      "Ġpesticides": 8666,
      "rance": 8667,
      "Ġreproductive": 8668,
      "Ġlarvae": 8669,
      "Ġvom": 8670,
      "Ġunexpected": 8671,
      "57": 8672,
      "Ġdelivered": 8673,
      "Ġillegal": 8674,
      "Ġlymph": 8675,
      "vas": 8676,
      "Ġnic": 8677,
      "Ġthousand": 8678,
      "Ġstake": 8679,
      "ometers": 8680,
      "Ġsentence": 8681,
      "ĠĠĠĠĠĠĠ": 8682,
      "arded": 8683,
      "ĠInit": 8684,
      "Ġbene": 8685,
      "Ġabuse": 8686,
      "Ġtransformation": 8687,
      "amine": 8688,
      "Ġarts": 8689,
      "Ġmutations": 8690,
      "ĠEnsure": 8691,
      "ĠMichael": 8692,
      "Ġmeets": 8693,
      "formance": 8694,
      "Ġlunch": 8695,
      "66": 8696,
      "Ġinvestigate": 8697,
      "imm": 8698,
      "Ġimpressive": 8699,
      "ĠFund": 8700,
      "Ġpace": 8701,
      "weet": 8702,
      "words": 8703,
      "Ġtang": 8704,
      "Ġcooler": 8705,
      "Ġfourth": 8706,
      "ami": 8707,
      "Ġextinction": 8708,
      "Ġsimultaneously": 8709,
      "Ġstaying": 8710,
      "ĠReal": 8711,
      "Ġviral": 8712,
      "aska": 8713,
      "ĠAqu": 8714,
      "unting": 8715,
      "Ġinhab": 8716,
      "ailable": 8717,
      "Ġdatas": 8718,
      "Ġgrew": 8719,
      "Ġhide": 8720,
      "anium": 8721,
      "Ġanat": 8722,
      "Ġcommitted": 8723,
      "Ġinspection": 8724,
      "Ġimproves": 8725,
      "ercury": 8726,
      "Ġkick": 8727,
      "Ġcardiovascular": 8728,
      "ĠNative": 8729,
      "Ġreliability": 8730,
      "idal": 8731,
      "ĠMarine": 8732,
      "oline": 8733,
      "ĠON": 8734,
      "venue": 8735,
      "Ġ%": 8736,
      "Ġtailored": 8737,
      "Ġhygiene": 8738,
      "UL": 8739,
      "oil": 8740,
      "Ġperenn": 8741,
      "ĠLine": 8742,
      "ady": 8743,
      "lectric": 8744,
      "Ġhighlights": 8745,
      "EP": 8746,
      "omer": 8747,
      "Ġbinding": 8748,
      "Ġlie": 8749,
      "iotic": 8750,
      "ĠBird": 8751,
      "ĠMad": 8752,
      "Ġdisplays": 8753,
      "Ġmicrowave": 8754,
      "Ġmechanics": 8755,
      "ĠWomen": 8756,
      "ediatric": 8757,
      "alog": 8758,
      "Ġglue": 8759,
      "Ġboards": 8760,
      "cence": 8761,
      "oof": 8762,
      "ĠCentre": 8763,
      "Ġ2003": 8764,
      "nut": 8765,
      "ĠCR": 8766,
      "Ġconfirmed": 8767,
      "ĠSymptoms": 8768,
      "Ġsug": 8769,
      "ĠRh": 8770,
      "Ġspecialist": 8771,
      "ĠÂ£": 8772,
      "emia": 8773,
      "Ġaimed": 8774,
      "levision": 8775,
      "Ġshr": 8776,
      "Ġmaps": 8777,
      "Ġepid": 8778,
      "Ġapproved": 8779,
      "ĠChemical": 8780,
      "Ġcher": 8781,
      "auge": 8782,
      "Ġtelling": 8783,
      "Ġalongside": 8784,
      "Ġrestric": 8785,
      "FT": 8786,
      "Ġweed": 8787,
      "Ġprolong": 8788,
      "Ġbasket": 8789,
      "Ġconsistently": 8790,
      "ĠDO": 8791,
      "ĠUnion": 8792,
      "Ġvoc": 8793,
      "Ġslic": 8794,
      "Ġproportion": 8795,
      "Ġloads": 8796,
      "uke": 8797,
      "ĠPerhaps": 8798,
      "Ġprecip": 8799,
      "Ġbutt": 8800,
      "Ġlosses": 8801,
      "Ġresilience": 8802,
      "Ġarise": 8803,
      "Ġgrinding": 8804,
      "Ġasp": 8805,
      "Ġeverywhere": 8806,
      "weed": 8807,
      "Ġpasses": 8808,
      "Ġequations": 8809,
      "pert": 8810,
      "Ġpartial": 8811,
      "Ġbelieves": 8812,
      "riage": 8813,
      "Ġwinds": 8814,
      "ĠInterest": 8815,
      "Ġsafer": 8816,
      "EG": 8817,
      "ĠCanadian": 8818,
      "orus": 8819,
      "ĠClin": 8820,
      "Ġoccasionally": 8821,
      "Ġqualities": 8822,
      "ĠEth": 8823,
      "!)": 8824,
      "Ġshots": 8825,
      "necess": 8826,
      "Ġcolours": 8827,
      "umbing": 8828,
      "Ġaggreg": 8829,
      "Ġdentist": 8830,
      "Ġsubsequent": 8831,
      "ĠAssess": 8832,
      "ĠGovernment": 8833,
      "ĠSummary": 8834,
      "Ġagreement": 8835,
      "Ġestimates": 8836,
      "Ġhunt": 8837,
      "called": 8838,
      "88": 8839,
      "ĠValley": 8840,
      "Ġalike": 8841,
      "Ġrings": 8842,
      "Ġunderwater": 8843,
      "Ġoverview": 8844,
      "itory": 8845,
      "Ġdiarr": 8846,
      "Ġtemper": 8847,
      "imen": 8848,
      "Ġthreshold": 8849,
      "Ġrequiring": 8850,
      "Ġdominant": 8851,
      "elled": 8852,
      "Ġadopted": 8853,
      "Ġfraction": 8854,
      "Ġappet": 8855,
      "Ġbeliefs": 8856,
      "Ġalarm": 8857,
      "cut": 8858,
      "Ġcompanion": 8859,
      "Ġenhances": 8860,
      "Ġsymbols": 8861,
      "Ġplain": 8862,
      "Ġexplo": 8863,
      "Hz": 8864,
      "ĠEye": 8865,
      "Ġleaks": 8866,
      "Ġconvenience": 8867,
      "Ġanticip": 8868,
      "Ġmigration": 8869,
      "hi": 8870,
      "ĠExample": 8871,
      "Ġinfo": 8872,
      "ĠDen": 8873,
      "ĠHawai": 8874,
      "onom": 8875,
      "ĠRoyal": 8876,
      "Ġlegisl": 8877,
      "iological": 8878,
      "uming": 8879,
      "Ġtemporary": 8880,
      "ĠFull": 8881,
      "obic": 8882,
      "Ġdeck": 8883,
      "ĠTor": 8884,
      "Ġregen": 8885,
      "ĠGive": 8886,
      "ĠDIY": 8887,
      "Ġsheep": 8888,
      "Ġobviously": 8889,
      "Ġgel": 8890,
      "Ġtraveling": 8891,
      "onym": 8892,
      "Ġreproduction": 8893,
      "ĠPub": 8894,
      "anol": 8895,
      "Ġboiling": 8896,
      "Ġlact": 8897,
      "Ġtrials": 8898,
      "ju": 8899,
      "Ġappliances": 8900,
      "Ġraising": 8901,
      "foot": 8902,
      "Ġnavigation": 8903,
      "Ġresearcher": 8904,
      "lo": 8905,
      "Ġintent": 8906,
      "ĠRoman": 8907,
      "Ġconstructed": 8908,
      "Ġscheme": 8909,
      "Ġadvancements": 8910,
      "Ġgrey": 8911,
      "ĠNov": 8912,
      "Ġconsiderations": 8913,
      "Ġinspiration": 8914,
      "ĠPhysics": 8915,
      "Ġdistrict": 8916,
      "Ġtomato": 8917,
      "Ġguarantee": 8918,
      "ca": 8919,
      "Ġpainful": 8920,
      "ĠSmart": 8921,
      "Ġrealized": 8922,
      "Ġcups": 8923,
      "resistant": 8924,
      "77": 8925,
      "Ġbehavioral": 8926,
      "Ġsequences": 8927,
      "Ġultra": 8928,
      "from": 8929,
      "controll": 8930,
      "Ġtubes": 8931,
      "Ġstitch": 8932,
      "Ġcompression": 8933,
      "mega": 8934,
      "Ġfantastic": 8935,
      "></": 8936,
      "roud": 8937,
      "Ġcombustion": 8938,
      "Ġagency": 8939,
      "niv": 8940,
      "Ġresulted": 8941,
      "Ġutility": 8942,
      "ĠFuture": 8943,
      "Ġpromotes": 8944,
      "def": 8945,
      "ato": 8946,
      "ĠClub": 8947,
      "Ġextraction": 8948,
      "ĠYeah": 8949,
      "ĠYoung": 8950,
      "GB": 8951,
      "ĠHi": 8952,
      "Ġfreeze": 8953,
      "ĠChall": 8954,
      "itate": 8955,
      "Ġpad": 8956,
      "Ġexamined": 8957,
      "Ġstatist": 8958,
      "ĠDeep": 8959,
      "Ġangles": 8960,
      "Ġfailed": 8961,
      "Ġseasons": 8962,
      "Ġanch": 8963,
      "Ġmorph": 8964,
      "world": 8965,
      "Ġprogramme": 8966,
      "Ġhazards": 8967,
      "Ġanyway": 8968,
      "Ġscenarios": 8969,
      "Ġbeneath": 8970,
      "Ġreturns": 8971,
      "Ġwherein": 8972,
      "vy": 8973,
      "Ġobjectives": 8974,
      "Ġchim": 8975,
      "Ġmagnesium": 8976,
      "ĠCou": 8977,
      "ĠTurn": 8978,
      "Ġbreakfast": 8979,
      "ĠWeek": 8980,
      "olves": 8981,
      "Ġsurroundings": 8982,
      "appy": 8983,
      "Ġparties": 8984,
      "Ġsad": 8985,
      "isters": 8986,
      "AI": 8987,
      "Ġfungi": 8988,
      "uble": 8989,
      "Ġseemed": 8990,
      "ĠStay": 8991,
      "inters": 8992,
      "Ġreader": 8993,
      "Ġtrace": 8994,
      "Ġundert": 8995,
      "ĠRequ": 8996,
      "Ġtact": 8997,
      "Ġtens": 8998,
      "Ġlifetime": 8999,
      "Ex": 9000,
      "isticated": 9001,
      "wear": 9002,
      "Ġolive": 9003,
      "oded": 9004,
      "Ġseaf": 9005,
      "Ġscope": 9006,
      "AG": 9007,
      "Ġturtles": 9008,
      "ĠUr": 9009,
      "Ġupdates": 9010,
      "Ġhol": 9011,
      "Ġash": 9012,
      "Ġcough": 9013,
      "Ġdaughter": 9014,
      "Ġversus": 9015,
      "Ġconverted": 9016,
      "Ġmud": 9017,
      "oz": 9018,
      "ĠYOU": 9019,
      "ĠZealand": 9020,
      "Ġfeat": 9021,
      "Ġdevelopers": 9022,
      "scill": 9023,
      "ĠGar": 9024,
      "Ġpurchased": 9025,
      "Ġposted": 9026,
      "Ġultimate": 9027,
      "ĠVirginia": 9028,
      "Ġrealm": 9029,
      "rame": 9030,
      "iner": 9031,
      "Ġwelcome": 9032,
      "ested": 9033,
      "ilib": 9034,
      "Ġtracks": 9035,
      "Ġwife": 9036,
      "stery": 9037,
      "chron": 9038,
      "ĠCook": 9039,
      "Ġcouns": 9040,
      "ĠGeorge": 9041,
      "Ġpitch": 9042,
      "====": 9043,
      "ĠDirector": 9044,
      "Ġcontents": 9045,
      "anch": 9046,
      "Ġchamber": 9047,
      "ĠCross": 9048,
      "ĠPrim": 9049,
      "ĠAgriculture": 9050,
      "ĠSearch": 9051,
      "Ġevenly": 9052,
      "ĠTradition": 9053,
      "ĠLouis": 9054,
      "Ġsoc": 9055,
      "Ġ38": 9056,
      "ĠExerc": 9057,
      "Ġslight": 9058,
      "Ġsolving": 9059,
      "Ġsensory": 9060,
      "Ġstops": 9061,
      "str": 9062,
      "Ġstrange": 9063,
      "Ġspreading": 9064,
      "Ġforg": 9065,
      "For": 9066,
      "Ġpushing": 9067,
      ")?": 9068,
      "opes": 9069,
      "Ġwireless": 9070,
      "Ġmagnitude": 9071,
      "Ġtoy": 9072,
      "irable": 9073,
      "ĠNumber": 9074,
      "ĠExplore": 9075,
      "Ġshore": 9076,
      "inery": 9077,
      "Ġaccessories": 9078,
      "Ġbin": 9079,
      "ĠWal": 9080,
      "inator": 9081,
      "heat": 9082,
      "Ġsemiconduct": 9083,
      "Ġseriously": 9084,
      "Ġdisplayed": 9085,
      "Ġwool": 9086,
      "occ": 9087,
      "Ġunp": 9088,
      "Ġpatch": 9089,
      "bert": 9090,
      "Ġpaste": 9091,
      "ĠWednes": 9092,
      "%,": 9093,
      "Ġacute": 9094,
      "Ġmile": 9095,
      "Ġpolice": 9096,
      "Ġadjustments": 9097,
      "Ġannounced": 9098,
      "ranean": 9099,
      "Ġsediment": 9100,
      "Ġoptimize": 9101,
      "ĠChoosing": 9102,
      "Ġlightweight": 9103,
      "ĠSoil": 9104,
      "ĠQuality": 9105,
      "Ġdestination": 9106,
      "ĠSens": 9107,
      "dep": 9108,
      "Ġlearners": 9109,
      "Ġfluctu": 9110,
      "Ġballs": 9111,
      "rimp": 9112,
      "ĠWas": 9113,
      "Ġspinal": 9114,
      "Ġbrother": 9115,
      "hops": 9116,
      "Ġchop": 9117,
      "Ġconditioning": 9118,
      "ani": 9119,
      "Ġorbit": 9120,
      "Ġdrill": 9121,
      "Ġencourages": 9122,
      "ĠReport": 9123,
      "Ġathletes": 9124,
      "Ġdeficiency": 9125,
      "Ġlakes": 9126,
      "ĠIron": 9127,
      "ĠBehav": 9128,
      "ouds": 9129,
      "ĠPS": 9130,
      "Ġhypothesis": 9131,
      "ĠMuch": 9132,
      "ĠJul": 9133,
      "Ġallergic": 9134,
      "lymp": 9135,
      "Ġcontinuously": 9136,
      "Ġtransparent": 9137,
      "df": 9138,
      "itus": 9139,
      "Ġboy": 9140,
      "Ġmaximize": 9141,
      "98": 9142,
      "ĠComb": 9143,
      "Ġmarking": 9144,
      "Ġdeeply": 9145,
      "Ġlicense": 9146,
      "ĠJesus": 9147,
      "Ġsurprise": 9148,
      "ĠCode": 9149,
      "Ġfactory": 9150,
      "Ġunnecess": 9151,
      "ĠSize": 9152,
      "Ġsubtle": 9153,
      "ĠCarolina": 9154,
      "Ġyeast": 9155,
      "Ġdepart": 9156,
      "An": 9157,
      "Ġcort": 9158,
      "ĠYellow": 9159,
      "Ġsearching": 9160,
      "Ġtorque": 9161,
      "Ġborder": 9162,
      "oto": 9163,
      "ĠHosp": 9164,
      "Ġpollen": 9165,
      "Ġsharks": 9166,
      "ilst": 9167,
      "Ġworms": 9168,
      "Ġcycling": 9169,
      "Ġbunch": 9170,
      "Ġmemories": 9171,
      "Ġspider": 9172,
      "Ġafra": 9173,
      "ĠAnalysis": 9174,
      "EST": 9175,
      "Ġtrap": 9176,
      "Ġtransplant": 9177,
      "Ġdamp": 9178,
      "ĠTues": 9179,
      "ĠAsk": 9180,
      "Ġplanned": 9181,
      "Ġthroat": 9182,
      "ĠHot": 9183,
      "ĠDam": 9184,
      "usive": 9185,
      "writ": 9186,
      "ĠStill": 9187,
      "Ġpist": 9188,
      "Ġpots": 9189,
      "ĠPass": 9190,
      "ĠEastern": 9191,
      "When": 9192,
[...]
